#version: 0.2
Ġ t
h e
Ġ a
o u
Ġ s
Ġ m
Ġ w
i n
r e
h a
Ġt he
n d
Ġ b
i s
o r
Ġ f
Ġ I
e r
l l
i t
o n
Ġ d
Ġ c
Ġ n
Ġ l
Ġ y
e s
e n
Ġt h
a r
Ġ h
Ġ o
Ġt o
Ġy ou
Ġ p
Ġ T
ha t
Ġ A
Ġ he
v e
o t
Ġa nd
s t
o w
in g
Ġo f
a n
o m
Ġ g
a t
Ġb e
Ġ W
s e
Ġm y
Ġ in
Ġ ha
c e
l e
a y
l d
i r
e t
e d
u t
Ġ B
Ġm e
i m
Ġ S
it h
Ġn ot
' s
Ġ H
c h
Ġt hat
Ġ is
Ġ M
g h
ĠA nd
Ġf or
Ġ u
k e
Ġ C
Ġw e
ou r
o o
i ll
Ġ e
Ġw ith
he r
Ġ it
en t
Ġyou r
a d
r i
Ġ O
Ġth ou
Ġs t
Ġ k
Ġ L
' d
om e
Ġh is
Ġ F
Ġ G
gh t
E N
Ġ re
or d
i d
r a
ĠT he
Ġha ve
Ġh im
I N
l y
Ġl i
a s
Ġ P
Ġth is
u r
I O
a l
Ġs o
Ġa s
Ġd e
Ġ on
Ġ R
o re
r o
Ġ N
h i
ou ld
oo d
A R
c k
a in
v er
Ġ Y
es t
Ġs ha
Ġth y
es s
Ġw ill
Ġd o
e a
Ġn o
a m
Ġ E
Ġb ut
Ġ D
u s
Ġs e
U S
i f
Ġ '
g e
Ġa ll
a nd
ĠT h
Ġs u
a ke
ĠT o
Ġhe r
r u
i on
Ġa n
Ġ K
Ġl o
t er
ar d
ha n
Ġs p
e ll
e ar
Ġthe e
Ġf a
Ġsha ll
Ġ our
Ġb y
t h
U C
Ġa re
i l
IN G
Ġn e
Ġk n
r om
h o
Ġ v
ĠT hat
E R
O R
a st
c t
ou s
Ġw hat
Ġs h
i ght
u l
E T
an t
Ġu p
Ġg ood
se l
q u
ĠB ut
ar t
r ow
in e
Ġc om
at h
Ġm u
Ġl ord
hi ch
n t
Ġp r
Ġm an
' ll
Ġa t
Ġ V
on e
Ġw he
Ġc on
ĠW hat
Ġa m
e nd
i c
E S
b le
r y
Ġf rom
on g
i e
Ġs he
Ġb l
i ve
v en
Ġg o
Ġm ore
ĠF or
Ġthe m
e m
Ġw as
I C
ou t
a u
Ġs ir
ot her
a re
ot h
o l
Ġ if
Ġn ow
ĠH e
Ġ hat
Ġthe re
Ġw ould
A N
o st
Ġkn ow
Ġc an
L O
in d
er s
I US
e p
sel f
Ġs ay
AR D
ĠK ING
at her
o nd
re s
at e
f e
Ġs w
Ġhe re
Ġlo ve
Ġthe ir
Ġ or
Ġt han
ĠM y
Ġb r
p p
- -
Ġthe y
Ġu s
Ġk ing
Ġthe n
a ll
Ġa r
o d
Ġl et
Ġu n
i g
Ġw or
u re
in k
Ġm ay
h y
Ġc ome
am e
f ore
or t
ĠA s
Ġ qu
oo k
Ġwe ll
e l
is h
L I
ĠW he
Ġ j
K E
v es
Ġon e
Ġhat h
ir st
Ġm ake
ĠY ou
Ġg ra
re at
a k
n g
Ġmu st
g ain
ou nd
Ġwe re
Ġh o
Ġse e
Ġsh ould
Ġli ke
c i
Ġp ro
u e
ea k
T IO
Ġs a
it y
Ġm ad
Ġp l
Ġf ather
Ġha d
u m
Ġd id
Ġup on
O M
im e
p e
Ġto o
i ce
O N
Ġ J
Ġd is
en ce
Ġde ath
w ard
Ġw hich
Ġ en
ĠI f
o se
ow n
Ġsp eak
Ġp o
Ġwhe n
f ul
Ġ out
Ġf ri
Ġh ow
ent le
i o
p t
u n
Ġa gain
IC H
ĠR ICH
Ġt ru
O L
U KE
d e
ĠD UKE
m an
Ġhe art
Ġy et
i ck
Ġha nd
ver y
ĠW ith
ĠRICH ARD
Ġw ho
EN TIO
ĠTh ou
Ġs ome
ĠW e
ig n
an ce
ĠW hich
Ġm ar
Ġh on
n ce
i es
Ġ r
Ġs on
ĠI n
i re
Ġm ine
Ġof f
is t
Ġa l
in ce
IN C
ha r
or n
a ck
ĠW hy
' t
w n
ĠO f
ĠG od
E L
Ġt ime
Ġhe a
Ġsu ch
o y
ĠF irst
Ġhe ar
ĠS o
n ess
Ġbr other
e c
Ġthe se
ĠC l
Ġbl ood
Ġa b
it her
Ġe x
Ġg ive
U E
Ġf o
ĠI s
Ġd ay
ĠN o
Ġe ar
Ġ ro
Ġl ook
Ġth ink
Ġt ell
ĠI I
ĠH ow
Ġli fe
T ER
is e
Ġe y
A B
e et
Ġwhe re
Ġt ake
Ġw ord
UC H
ou l
Ġfri end
t her
Ġ Q
ĠTh is
a g
a ge
Ġd es
ĠG LO
UC ES
ĠGLO UCES
ĠGLOUCES TER
e f
e en
er v
ĠC ome
u st
Ġg entle
ad y
row n
ing s
ĠL ord
Ġ U
Ġ ri
ur se
a ve
R Y
a se
ĠR ome
t is
Ġl ea
ĠV INC
Ġar t
UE EN
ĠQ UEEN
ĠVINC ENTIO
w ay
Ġw ar
ĠO F
Ġm ost
Ġhon our
Ġf l
ĠM ar
Ġmu ch
U M
L AN
Ġs l
ĠWhe re
A M
ur n
Ġmad e
Ġt w
m ent
Ġf ear
Ġha st
ĠN ow
ĠW ho
Ġbe t
ĠH EN
au ght
ĠHEN RY
Ġc ou
Ġg reat
ĠB e
b er
n ot
Ġb re
ve d
Ġne ver
Ġfa ir
Ġne w
c c
e e
s s
Ġa f
ow er
a p
i gh
Ġm en
ĠA N
t le
or row
ĠY our
ast er
u ke
ĠI t
i z
ou gh
ĠY OR
ĠYOR K
Ġc all
Ġp art
Ġan y
Ġ ra
at ion
ĠO r
IN IUS
S T
Ġa d
re e
id e
Ġcom m
Ġcan not
Ġp re
Ġst and
Ġtru e
Ġhea ven
Ġn ame
ĠP ET
A U
Ġbe en
Ġpr ay
h ing
o ld
Ġc l
Ġsw eet
D W
Ġp er
Ġp le
ĠE DW
ĠEDW ARD
p le
ĠG R
, --
Ġd oth
Ġno ble
Ġw r
Ġo wn
ear s
ĠL UC
ou se
Ġd one
ĠThe re
u ll
Ġt r
Ġw ay
Ġo ther
Ġhe ad
if e
R O
a w
Ġme an
Ġp res
U T
Ġbe ar
ĠE d
Ġs c
re d
Ġn or
A P
E O
Ġ very
Ġs oul
ĠA y
ĠR OM
ĠWhe n
ĠEd ward
ĠROM EO
v ing
Ġb oth
Ġn ight
ĠA n
Ġbe fore
ĠM EN
EN IUS
as s
ain t
Ġwor ld
ĠMEN ENIUS
a ce
g er
ĠB y
au se
Ġqu een
l i
ĠL et
T H
Ġm o
Ġc hi
aught er
R UCH
ĠThe n
ĠHe re
ĠPET RUCH
ĠPETRUCH IO
a ble
Ġd own
Ġde ad
Ġcon t
T ES
Ġa pp
Ġw h
it e
Ġ ke
Ġbe ing
Ġre m
p er
Ġmy self
a b
l es
ĠT han
ĠM AR
Ġbe g
Ġar m
Ġth us
ĠC OR
IO LAN
il t
Ġlea ve
ĠCOR IOLAN
ĠCORIOLAN US
ĠS ec
Ġgra ce
ĠSec ond
Ġu nt
ct ion
ĠN or
res s
Ġey es
Ġ im
Ġm other
ĠL E
l ess
Ġm a
Ġo ld
l and
r an
Ġre p
IN A
it iz
Ġe ver
itiz en
l o
p s
s w
Ġw ife
Ġl ong
Ġin t
ĠS he
Ġli ve
Ġchi ld
Ġw om
Ġpo or
Ġfriend s
Ġa way
Ġcon s
ĠII I
ĠG o
Ġm ight
f ord
nd er
Ġd ie
ĠS ir
Ġst ay
ea ce
Ġcom es
k s
w ick
ou d
at ch
ĠW ar
le d
Ġman y
Ġ ru
Ġh ouse
Ġre st
Ġc rown
Ġp e
ĠWar wick
f f
Ġc our
Ġl e
ow s
T is
c ome
Ġ ent
is on
Ġha r
ĠH is
Ġthou ght
L A
S AB
ĠI SAB
Ġli e
EL LA
ĠISAB ELLA
i an
u ck
is s
er c
R AN
Ġs et
Ġd aughter
c he
ĠW ell
Ġnot hing
ĠRome o
U LI
Ġt ong
or s
at ter
ON TES
ĠJ ULI
Ġbet ter
ĠLE ONTES
ĠJULI ET
it tle
Ġg one
ĠS t
ĠN ay
Ġpr ince
ĠV I
r ant
A D
ou ght
Ġw it
in t
ĠL AD
ĠLAD Y
A L
C E
w ell
Ġt ri
EN CE
i ed
m e
ĠP ro
Ġnew s
Ġke ep
o s
Ġs le
Ġb est
Ġre s
Ġagain st
c es
f or
i ous
ha ll
Ġth ose
ĠS erv
i er
Ġa cc
Ġl ittle
Ġhe nce
Ġg ri
ĠS IC
ĠC itizen
oo l
Ġcom p
har d
ĠSIC INIUS
Ġth ing
Ġh our
ĠN ot
Ġlord s
t y
Ġp ut
ard on
Ġfa ce
ak es
un e
l se
ll ow
se d
Ġe nd
ĠO n
Ġk ind
E Y
Ġyou ng
Ġst ill
ul t
Ġtw o
re t
or k
on t
Ġp ri
Ġhim self
ie ld
u d
Ġp ur
Ġp ower
al k
ĠTh y
ĠLUC IO
a le
in s
ĠI V
er t
Ġc ha
ĠR ic
ĠRic hard
e w
ĠC L
Ġsu b
Ġthere fore
Ġcou nt
T I
c l
f t
in ess
Ġf irst
Ġp eace
Ġg u
Ġe lse
ri ed
Ġde ar
ci ous
Ġunt o
Ġt ill
Ġs m
Ġd uke
Ġc ould
ĠW ill
ĠB R
ĠH ave
as on
hi le
a il
e ct
i le
Ġt ra
Ġb ack
Ġc o
Ġh us
ut y
Ġthou gh
Ġword s
Z AB
Ġt re
Ġb id
Ġf ell
Ġf ind
Ġd re
ĠY ork
ĠE LI
Ġne ed
ET H
Ġear th
Ġtong ue
ZAB ETH
ĠELI ZABETH
b and
i us
o ple
y al
Ġl ady
Ġth ine
I AN
m en
Ġb ra
or se
Ġh ome
Ġhe l
Ġfor th
Ġse em
Ġho pe
ee ch
r ay
en ry
ar k
Ġh igh
et h
ĠH enry
ĠY et
Ġhus band
ve re
ĠG ood
Ġri ght
g et
Ġc han
W IC
t w
Ġm ind
Ġb an
ĠW AR
ut h
Ġpe ople
WIC K
ĠWAR WICK
A ST
a ch
d s
i x
re r
is ter
Ġc he
Ġc har
ĠA ll
ĠS hall
hi p
ĠD o
Ġsh ow
Ġcon f
g ed
Ġb ri
Ġhand s
H AM
f ort
Ġm aster
Ġw hy
Ġc ause
ĠN urse
Ġj oy
Ġim p
L ET
U LET
Ġs erv
Ġm ist
Ġn one
Ġl aw
Ġg l
ĠC AP
ĠThe y
Ġon ce
Ġsa id
ĠCAP ULET
Ġfor t
Ġe very
G E
I L
M IO
re n
Ġb od
ous in
Ġbr ing
R I
b t
Ġd ou
K ING
e ed
Ġp ass
at es
ĠB UC
Ġple ase
UT US
ĠBR UTUS
KING HAM
ĠBUC KINGHAM
B RO
i et
l t
ĠT RAN
ir d
ĠB OL
ĠF rom
Ġli ght
ING BRO
ES S
ĠTRAN IO
ĠBOL INGBRO
ĠBOLINGBRO KE
e el
v ost
Ġt ears
Ġw o
Ġb es
Ġn at
Ġth r
Ġwho se
Ġro yal
Ġpres ent
sw er
c le
m b
Ġs ince
Ġb oy
it s
Ġc ame
ar y
ĠO ur
Ġj ust
l f
o ck
v y
or y
Ġf ull
Ġp ardon
Ġhe ard
Ġu nder
Ġde v
ro ke
Ġaf ter
Ġwr ong
G AR
N E
p ose
Ġl and
Ġha pp
Ġpl ace
ĠMAR GAR
ĠMARGAR ET
A TH
Ġm is
Ġl ast
en s
Ġe re
Ġst ate
ĠK ing
AM IL
s and
Ġs orrow
Ġc are
Ġme et
Ġk ill
Ġho ld
c ent
it ion
Ġthou sand
est y
OR D
Ġey e
ĠAN GE
ĠGR E
Ġwh om
Ġhel p
ĠANGE LO
Ġf al
Ġl ess
AR INA
ĠE ng
Ġan swer
are nce
Ġfo llow
S C
Ġb us
Ġf ar
Ġf ool
Ġc h
Ġh ither
Ġp at
ce ive
ir t
ĠS h
Ġwe ep
Ġsha me
Ġsu n
ĠK ATH
sel ves
ci us
Ġen em
ĠCl arence
Ġab out
ĠKATH ARINA
i ol
ur de
Ġfa ll
Ġgentle man
ĠMar cius
Ġma id
d ay
Ġo b
as ure
Ġint o
Ġm akes
Ġc ousin
ĠE SC
Ġhat e
Ġgra cious
ĠU n
ĠU p
Ġcou n
Ġcour t
AL US
Ġgri ef
ĠESC ALUS
a ir
j ect
ĠA l
im es
Ġst ri
Ġwom an
i v
o ve
Ġt urn
ĠH ath
Ġst re
Ġcom fort
Ġwor th
i ld
l ing
Ġt alk
Ġw ilt
on s
Ġh um
Ġbe d
al t
Ġdo st
ĠD UCH
ĠD uke
ic es
de ed
Ġsle ep
urde rer
ĠDUCH ESS
p her
ou nt
it or
Ġo ver
Ġbe l
ER C
ĠAn ge
Ġbod y
m orrow
Ġ i
Ġs ound
Ġb u
Ġd ra
Ġin st
ut e
ĠH er
Ġfa ult
Ġat t
Ġthan k
ĠAnge lo
I A
i ence
is ed
Ġin deed
ĠC AMIL
Ġan other
Ġpro ve
Ġpl ay
Ġad v
Ġfal se
ĠCAMIL LO
i ly
Ġs er
om et
ĠW ould
Ġha s
Ġu se
Ġwe l
Ġre t
Ġde ed
ĠE ven
Ġv o
ie ve
Ġsw ord
ĠPro vost
Ġfell ow
T EN
Ġm atter
Ġb o
Ġf ight
Ġp ers
an s
ĠH OR
ill ain
Ġe ven
ad e
Ġfort une
TEN S
ĠHOR TENS
Ġs ent
ĠF RI
Ġso vere
ho ld
Ġpr ison
Ġgra ve
Ġcount ry
ĠUp on
ĠHORTENS IO
ĠFRI AR
, '
e al
Ġm erc
Ġd an
Ġc ur
Ġy ears
ĠA re
ĠB AP
ur y
Ġse nd
Ġv irt
Ġr ather
ST A
TI STA
Ġban ish
Ġdou bt
ĠBAP TISTA
C US
Y CUS
m p
ou ch
Ġw ant
Ġw ish
ĠT y
ĠA UT
Ġg r
Ġha ng
ĠC OM
Ġre ven
Ġas s
fe ct
pe ct
OL YCUS
Ġtr uth
Ġbus iness
ĠAUT OLYCUS
ĠCOM INIUS
. '
d d
ĠA t
ĠM ore
Ġre ason
Ġli es
Ġon ly
AR ENCE
Ġsha lt
ĠTh ird
Ġdis c
ĠCL ARENCE
e re
i or
m s
p en
r ance
Ġs ea
Ġc ra
Ġst ra
EN ES
Ġbre ath
Ġcomm and
Ġarm s
Ġdre am
pher d
V OL
d er
Ġl ay
en er
Ġp rom
Ġg i
ĠB EN
Ġst ran
ĠG entle
ĠN OR
Ġse c
ĠCl own
VOL IO
ĠBEN VOLIO
P ER
S PER
Ġs en
Ġs omet
Ġw ind
Ġp ity
ĠT ake
ĠP RO
Ġpr oud
Ġho ly
Ġen ough
UM IO
ĠGR UMIO
Ġcont ent
Ġrem em
SPER O
ĠPRO SPERO
U TIO
i a
k en
t en
he d
Ġd are
Ġth ree
at or
Ġbe a
ĠS u
ĠM urderer
ĠM ERC
Ġli ves
Ġso ld
ĠD id
ĠK ate
Ġsp ir
Ġfa re
Ġsw ear
ĠMERC UTIO
I S
i ke
Ġt end
Ġg et
et er
Ġwith in
Ġde p
Ġv illain
Ġgo ds
ĠWe re
ĠLUC ENTIO
ĠServ ant
Ġnat ure
Ġwel come
Ġs ister
ha m
Ġf oul
Ġf ree
Ġth ings
ar s
Ġg re
Ġk iss
ĠP OM
est er
Ġsa w
Ġmad am
LAN D
Ġmist ress
Ġhapp y
Ġsovere ign
ĠPOM P
L INA
a pt
i ent
u nt
ha l
Ġc ity
Ġy ield
an y
ĠW as
ĠG ive
ĠP AU
ver s
Ġbre ak
Ġmean s
Ġsub ject
Ġbes eech
ĠPAU LINA
Ġa w
Ġm er
Ġb orn
er y
Ġd en
Ġh orse
Ġo ath
ĠS ay
Ġyour s
ĠL ook
ond er
gain st
ag ue
ef t
get her
ĠGRE MIO
ĠPOMP EY
N IA
O LI
X ENES
b alt
Ġt em
Ġw ound
Ġw hile
Ġf ire
Ġd ru
an c
ĠC om
Ġyour self
ĠP OLI
us ic
Ġsu pp
Ġfa ith
ĠV OL
Ġblood y
Ġlook s
UM NIA
che s
ĠEng land
ĠPOLI XENES
ĠVOL UMNIA
e y
u es
Ġs it
Ġw in
Ġc ar
Ġc ond
en ger
ing man
ĠH AST
ĠF are
Ġre qu
Ġsp o
ING S
Ġcomm on
Ġma j
ĠServ ingman
Ġtra itor
cent io
ĠHAST INGS
R ENCE
b y
b roke
r ong
Ġm on
Ġl am
ĠH ast
ĠM ay
ĠC an
ĠL AU
Ġde f
ess enger
Ġun cle
Ġmar k
Ġchild ren
ert ain
ĠLAU RENCE
B Y
B ER
Ġs ight
Ġm et
Ġl ate
Ġl eft
ĠA h
Ġbe at
Ġso on
Ġv al
ĠJ ul
ĠThere fore
for m
Ġdan ger
ĠTy balt
Ġtend er
Ġmaj esty
F F
u se
Ġs in
Ġto ld
ĠS p
Ġse en
Ġsu re
LI FF
Ġsa ve
Ġfo ot
Ġday s
Ġwar rant
UM BER
li ke
TH UMBER
Ġwo e
ĠNOR THUMBER
ĠNORTHUMBER LAND
I D
T A
t ing
Ġs ad
re m
Ġg ener
ĠL u
id es
id ow
ĠP l
Ġdo es
Ġrep ort
Ġret urn
Ġmerc y
Ġfare well
d om
r ing
u p
he s
re l
Ġto gether
Ġwith out
Ġde ep
ter s
ear n
Ġgo ld
un es
ĠThou gh
Ġmar ry
Ġhea vy
ĠAN NE
Ġpur pose
Ġthr ough
R INC
a im
b l
c a
c her
i ct
v ent
Ġ ill
Ġc ho
Ġc old
Ġn urse
Ġg row
ĠH ad
ĠM ont
Ġre c
ĠP RINC
if ford
Ġlo st
ER D
ign ior
ĠCl ifford
Ġear s
Ġdes er
ment s
Ġpers on
Ġstran ge
ĠJul iet
ĠPRINC E
a z
m er
Ġt imes
Ġw at
or iol
ĠT ell
ing broke
ce ed
ĠB ol
ĠM I
ĠC am
our s
ent y
Ġas k
ĠR i
ro ss
Ġthy self
us h
Ġsu ff
Ġpl uck
Ġdis p
Ġlie ge
Ġbel ieve
Ġspir it
ĠBol ingbroke
e ver
Ġa ir
Ġa ge
Ġs il
Ġl earn
ĠA way
Ġhe ir
ĠW h
et s
ĠS ome
ĠS ignior
ĠH a
ain s
if t
Ġlo ss
Ġsay s
Ġj o
Ġpo int
ĠWho se
ĠOn e
ĠSh ould
a id
i al
n er
Ġb at
Ġf ly
Ġc ry
Ġp ast
ce d
ĠC oriol
Ġfri ar
Ġtru st
Ġdes ire
Ġhast e
Ġent reat
Ġjust ice
Ġdev il
Ġinst ru
Ġgr ound
ĠFare well
g u
g es
n ight
s h
Ġ ord
ou th
Ġm ur
in a
in ed
Ġb old
Ġf ound
Ġn ear
Ġto ward
ĠS en
ĠL ike
ĠF rance
ĠP ray
Ġfa st
Ġv is
au d
ak ing
Ġsl ain
Ġbet w
ix t
Ġserv ice
Ġstra ight
Ġremem ber
F ID
I Z
L E
L OR
U FID
Ġc urse
ĠA UFID
om an
ut ion
ĠM essenger
Ġwe ar
Ġst rong
ĠF LOR
ĠG l
ĠThe se
Ġqu ick
Ġmar ried
Ġal one
Ġhar d
Ġworth y
Ġbea uty
IZ EL
ĠAUFID IUS
ĠFLOR IZEL
T ON
n ing
x t
Ġt ouch
Ġw oo
Ġf it
it he
Ġh u
Ġo pen
Ġg rant
Ġbe c
le t
ĠS ee
ad am
Ġre ady
IO N
Ġbr ought
ure d
Ġpo ss
ĠCl aud
Ġex ec
Ġru n
Ġenem y
Ġreven ge
Ġgener al
ĠClaud io
! '
b s
g s
i ble
Ġf ur
Ġd uty
Ġyou th
Ġin c
Ġin f
ce pt
Ġis s
Ġit self
Ġde li
Ġlo se
ER S
au nt
Ġknow s
Ġcan st
ink s
Ġqu ar
Ġpro f
um ber
Ġthought s
Ġhour s
Ġchar ge
Ġconf ess
ĠGentle man
ĠSen ator
A S
B AST
C IUS
E BAST
c ester
p l
s hip
u a
v o
Ġm orn
Ġf eel
Ġp ar
ĠA gainst
ĠB ec
ĠS EBAST
ĠM aster
ĠM adam
ill o
ri age
Ġre ad
Ġde l
Ġsp eed
Ġdes p
Ġtw enty
Ġstand s
ĠMAR CIUS
ĠShe pherd
che d
Ġstre ng
ĠMont ague
ĠGl ou
ithe e
ĠSEBAST IAN
O W
c ess
e ep
o p
t ed
Ġf ore
Ġf ield
Ġd iv
Ġp ost
Ġhe ll
ing ham
Ġbe hold
Ġha lf
oo p
ĠP r
ol k
fe ction
Ġj ud
um p
Ġfear ful
Ġmo ck
Ġres ol
Ġcoun sel
ĠCam illo
D EL
n o
Ġt er
Ġm in
Ġw ret
Ġb ound
Ġb os
Ġd am
Ġc ut
Ġy e
ĠT ill
ĠB o
ĠB uck
ĠB ION
Ġe ach
ad s
al m
Ġsh ort
ĠV ol
Ġknow n
Ġwor k
ort al
Ġheart s
Ġmar riage
Ġhon est
Ġtri b
ĠHast ings
ĠGlou cester
DEL LO
Ġbos om
ĠBuck ingham
ĠBION DELLO
f olk
i ers
o f
p are
s c
t he
Ġ ve
Ġt it
Ġt en
Ġt ale
Ġw hi
Ġw onder
Ġw idow
Ġb it
on es
Ġd ish
en ch
ĠC ap
ra h
ĠTh us
Ġsu it
Ġsee k
ĠNor folk
Ġwom en
Ġhar m
Ġcomp any
Ġgu ilt
Ġhigh ness
Ġstri ke
Ġdra w
Ġatt end
Ġser ve
Ġvo ices
Ġsomet hing
Ġmur der
ĠVol s
O P
T w
h ood
m ost
Ġa g
Ġs ing
Ġs at
Ġs ide
Ġw atch
Ġb ur
is hed
Ġc or
ĠA UM
ĠC A
and er
Ġlo ving
Ġkn ew
ER LE
Ġdid st
Ġdis t
Ġgentle men
ĠAN TON
Ġpre t
Ġheaven s
Ġchan ge
ĠLu centio
Ġstreng th
ĠAUM ERLE
ĠANTON IO
A LO
Z ALO
Ġa ct
Ġs ake
Ġw ast
ĠT ran
ĠW el
ĠB ian
ent s
Ġst ir
ĠL anc
ĠG ON
ĠP et
ĠMar ry
Ġaf f
Ġcl oud
Ġple asure
Ġent er
Ġbra ve
eth inks
Ġenem ies
ĠLanc aster
ĠGON ZALO
b ly
f id
i ves
Ġt y
Ġs ign
Ġm usic
Ġw a
re w
Ġb reat
Ġd r
Ġp ra
Ġp ie
Ġp ale
Ġg ar
Ġg ates
ĠS w
ĠH ER
ĠM ost
oo se
ĠL ady
ĠP om
il s
Ġne xt
Ġcom ing
Ġthan ks
Ġex t
ĠU nt
Ġcl ose
Ġsoul s
Ġbeg g
Ġcour se
Ġwit hal
Ġche e
ceive d
Ġsuff er
Ġdeli ver
Ġtit le
ĠBian ca
D IO
b e
v our
Ġs k
Ġs ick
ĠA u
ow ard
Ġbe come
et ch
Ġfor g
ĠC h
ĠC LIFF
Ġwe ak
Ġe ither
Ġli ps
Ġthem selves
el s
Ġj est
Ġpl ain
Ġab s
Ġri ch
AU DIO
Ġgri e
ĠCL AUDIO
cl aim
MIO NE
Ġpat ience
ĠRi ch
Ġord er
ĠPet ru
ĠHER MIONE
ĠCLIFF ORD
D A
k es
s es
Ġa c
Ġs ame
Ġw is
Ġw all
re st
re ady
is f
ll y
Ġc ast
ar ry
ir th
ĠB es
ĠS ince
ch io
ĠM ake
Ġfor b
Ġfor get
ĠC all
oo f
ri es
ĠL ORD
Ġre g
ra ce
ur p
ea st
ĠE L
Ġv en
Ġsw orn
Ġwor se
Ġpro p
Ġtoo k
ĠJ O
Ġpo ison
Ġal ong
ĠBe ing
Ġbre ast
Ġcons ul
RAN DA
tw as
tw ere
Ġche er
Ġvirt ue
Ġmer ry
ĠMI RANDA
Ġfur ther
ĠTran io
fid ius
ĠAu fidius
ĠPetru chio
H N
S ON
c y
l st
m it
Ġt a
Ġm outh
Ġw ed
Ġw ise
Ġb ad
Ġb ook
Ġf our
Ġd u
Ġd ire
Ġc r
Ġg ave
Ġe mb
Ġre d
Ġli ber
Ġso ft
ĠR e
ver n
Ġse lf
ru st
ion s
Ġlo ves
row s
all y
Ġen c
Ġoff ice
Ġal ready
Ġwr it
Ġmo ve
ĠHere ford
Ġbeg in
Ġcons ent
ĠAl as
Ġgi ven
Ġrequ est
Ġdanger ous
Ġbat tle
Ġiss ue
Ġmorn ing
ĠJO HN
f ter
m ond
m ber
n k
p es
r ist
u ous
u sed
Ġb urn
or ge
Ġf rown
Ġf east
Ġl ad
Ġp ay
ĠT ower
an us
Ġg ro
at s
ĠY es
ea ch
Ġsu cc
Ġne ither
ic er
Ġbl ack
Ġgo es
Ġson s
Ġex p
Ġfo e
ĠBe fore
Ġtr ou
dd en
Ġsold iers
Ġwound s
ĠSp eak
Ġbetw een
Ġquar rel
Ġsat isf
ĠRich mond
N T
c han
g ing
g are
i res
u res
Ġ est
he m
Ġs igh
Ġm al
Ġb ar
Ġb aw
Ġd ro
Ġd ark
Ġc ase
Ġth ri
ar is
Ġh ot
ĠA b
ĠA r
ot s
ow ers
Ġof ten
Ġha ving
ĠM ust
Ġu nd
Ġsp eech
Ġv ict
Ġbl ess
em pt
Ġthen ce
Ġpres ence
TES BY
Ġpri v
Ġbri de
Ġbri ef
Ġserv ant
ĠUn less
ĠSu ch
Ġwat er
ĠBec ause
ĠCA TESBY
ĠWel come
gare t
I LI
o int
Ġm ortal
Ġb ow
Ġb le
on a
Ġto wn
Ġp en
Ġg ot
Ġin ter
ir m
ĠB oth
ĠB apt
ĠS aint
Ġe v
ĠL ond
ĠThe ir
al th
Ġsu m
ĠK eep
end s
em n
Ġlove d
Ġking s
ci ent
Ġwar s
Ġfl atter
ĠMar garet
ĠGR EY
Ġmight y
Ġres pect
Ġcomp l
Ġdre ad
Ġseem s
Ġthr one
Ġvo ice
Ġden y
Ġspo ke
ĠWh om
ĠCoriol anus
Ġvis it
ĠBapt ist
ĠLond on
C A
I V
b ed
e orge
i p
i ant
s o
u ght
Ġa ction
ou n
Ġb ro
Ġb ab
Ġf ra
er n
Ġc ol
Ġc ap
Ġh ur
ĠB IAN
our n
ĠL est
ĠG eorge
id ed
ĠP aris
ĠR IV
ĠE re
ĠD e
Ġsu dden
Ġan cient
Ġkn ock
Ġv ow
Ġpr ot
Ġwor ship
Ġsa fe
ire d
ĠIs ab
Ġpray ers
aint ed
Ġapp ear
Ġprince ly
Ġcha mber
Ġbu y
Ġdeed s
Ġprom ise
Ġbit ter
Ġdish on
ILI A
ĠBaptist a
ĠBIAN CA
ĠRIV ERS
B OW
l s
l ish
n ow
n own
u ra
Ġ ign
Ġf res
Ġf etch
Ġc reat
Ġc ross
Ġc oward
Ġl im
es h
es sed
Ġo pp
Ġp u
ot ion
st and
at ed
ri ght
ĠG AU
Ġre b
ur ch
ĠR oman
ck s
Ġan g
Ġv iol
ant age
one y
Ġking dom
Ġsa c
Ġfl esh
Ġra ge
Ġpre pare
Ġhead s
Ġsc orn
Ġapp ro
Ġle ad
ĠSt and
Ġwit ness
Ġtri ump
Ġpresent ly
Ġpat ient
Ġlam ent
Ġval iant
ĠEL BOW
Ġsucc ess
Ġbaw d
ĠGAU NT
G UE
U R
b it
l er
m and
s per
t o
x ford
Ġ 3
Ġc le
Ġl ack
Ġl ab
Ġth row
Ġo w
Ġp it
ĠT Y
Ġg all
Ġin s
ĠB l
ĠH ort
ĠM ON
ĠM erc
Ġfor ward
Ġe at
ĠO xford
Ġk ins
ur s
if f
ĠTh ink
ant ag
Ġpr in
Ġpr ithee
Ġwas h
Ġun w
ak en
Ġoff er
Ġlea st
Ġsl ave
Ġsc ar
Ġmo on
ens io
Ġfault s
Ġsec ret
Ġdef end
TA GUE
Ġtrib unes
Ġdr ink
ĠCh rist
ĠHort ensio
ĠMON TAGUE
a c
a ul
e es
k ing
p o
u ed
v est
y ing
Ġ id
Ġs ur
Ġm id
in es
Ġb en
Ġf ie
Ġd est
Ġn ay
Ġth ither
Ġh ide
Ġo cc
at har
Ġbe ast
ĠW hi
le y
ĠH ark
ĠC on
ĠG re
al s
ĠD oth
ĠK athar
th umber
ho st
ast ers
fe it
ak ed
pe y
ĠJ o
Ġal most
Ġsl aughter
ull y
ĠNor thumber
Ġsm all
Ġchan ce
Ġdep art
Ġsubject s
Ġposs ess
Ġexec ution
Ġdam n
ĠBo hem
Ġpret ty
ĠPom pey
ĠKathar ina
ĠNorthumber land
G ILIA
I TA
R GILIA
h ind
Ġ ut
Ġt ear
Ġw ert
Ġb ase
Ġb irth
Ġf ill
Ġf ond
Ġc ertain
ar l
Ġp ain
ĠA d
ĠA m
ing er
Ġin no
ĠB r
ĠH old
Ġfor m
ĠC a
Ġe as
Ġst ru
Ġli ving
ĠP eace
ĠP ERD
ĠP aul
ĠE x
ru m
Ġfa vour
Ġgood ly
Ġus urp
ci ence
Ġpro ceed
Ġhad st
um b
Ġwhen ce
Ġtru mp
Ġoff ence
Ġhear ing
Ġper form
per ate
led ge
ĠVI RGILIA
Ġgl ad
Ġvirt uous
Ġaw hile
Ġquick ly
the n
ĠSw eet
ura l
ĠBohem ia
ĠPERD ITA
L Y
d ing
d ge
e em
i est
o ver
r or
z e
Ġt or
Ġa y
Ġs hi
Ġm atch
Ġm ild
Ġw alk
Ġw ild
is ure
or th
Ġf ier
it ies
Ġc a
om es
Ġin j
ed s
ed ant
ĠS LY
Ġfor sw
Ġu r
ra w
ĠY ea
Ġsha d
Ġkn ee
Ġkn eel
ast ard
Ġbl ows
Ġwor st
Ġqu iet
ĠOf f
ust om
Ġgreat er
Ġaf fection
Ġple as
ĠMAR IAN
Ġle isure
ĠSt ay
Ġsle w
for ce
Ġtre ason
Ġlaw ful
Ġch urch
Ġweep ing
Ġsold ier
Ġdeser ved
Ġguilt y
ĠIsab el
Ġang ry
ĠMARIAN A
a wn
f ully
g g
g ue
j oy
k ed
m ed
u al
v ol
z en
Ġa p
Ġs ho
Ġm ed
Ġm od
Ġw on
re ad
Ġf am
Ġf led
on y
Ġc itizen
Ġl ist
Ġy ear
en ess
ar n
ar ing
ĠT w
Ġbe hind
ĠW atch
ĠW hile
Ġha p
ĠB el
Ġme asure
ĠS T
ĠM en
ĠM ist
Ġe m
ad ua
ĠO ut
ĠG rem
ĠG rum
Ġre ign
ĠP AR
ĠP adua
Ġso le
Ġdo om
Ġno b
am es
ru pt
Ġour selves
Ġne ck
Ġsh ows
end ed
Ġshe pherd
Ġbl ow
Ġgo vern
Ġwould st
Ġlet ter
Ġlet ters
Ġun c
Ġun k
Ġspeak s
Ġmar ch
igh b
Ġcont in
os ition
Ġneed s
ĠEng lish
Ġsent ence
Ġprison er
Ġbanish ment
Ġsec ond
Ġsen se
Ġcond emn
ĠPl antag
Ġbec ause
Ġcloud s
Ġbreat he
Ġforb id
Ġliber ty
Ġenc oun
Ġlad ies
Ġtrou ble
Ġdishon our
Ġign or
ĠGrem io
ĠGrum io
ĠPAR IS
ĠPlantag en
: '
a ves
a cle
d le
o or
o ss
r ous
Ġ X
Ġs ort
Ġm ut
Ġm orrow
nd red
Ġb ig
Ġb ones
Ġf ive
ĠI nt
Ġd ry
Ġc ru
Ġl an
Ġl aid
Ġp et
ĠT oo
ĠT ru
ĠA nt
Ġhe ld
ve l
st er
ing ly
Ġof t
at ors
Ġnot e
ĠH ea
Ġst or
Ġst eal
ĠF ear
ĠG aunt
Ġre f
id er
Ġli ved
Ġas ide
Ġdo g
Ġno ise
Ġse at
il es
Ġv ain
Ġgra nd
Ġpro claim
Ġpro sper
Ġr ough
Ġab ove
iz e
ĠPET ER
Ġapp are
Ġrem ain
Ġlong er
Ġwom b
Ġcons cience
ĠSir rah
Ġch oose
Ġob ey
Ġtem p
Ġdru nk
Ġgold en
Ġdisp atch
Ġjo in
Ġhu ndred
Ġpie ce
Ġvict ory
oint ed
Ġfres h
ĠPlantagen et
! --
T IUS
W IS
a ith
b b
b an
f fect
h n
i led
n y
r im
t s
u let
Ġt ent
Ġs ch
Ġs us
Ġs aint
in ius
Ġb roke
Ġf at
Ġf ine
er le
Ġd rown
Ġl en
Ġl ow
Ġl au
Ġl ust
Ġth reat
ĠA RI
ve y
Ġbe nd
se t
Ġin d
ce it
le ase
et y
ĠS c
ĠH ear
ĠM e
ĠC ould
ĠC ates
Ġe ffect
Ġyour selves
Ġst o
Ġst ood
Ġst ain
Ġst eel
ĠL AR
Ġre vere
as ion
ĠP er
Ġdo ing
ĠE n
ĠE arl
ĠD OR
Ġkn ees
ul ar
Ġcon qu
ic ious
ie u
Ġshe d
Ġbl essed
Ġknow ledge
Ġsw ift
ound s
Ġsa f
um e
Ġex c
Ġdes perate
Ġwar m
Ġsl ander
Ġpre cious
Ġbear s
ĠLE WIS
Ġent ertain
Ġpri de
Ġpur s
uth or
Ġgl ory
Ġdou ble
Ġwo es
pose d
Ġland s
Ġob ed
Ġcoun ter
Ġtoward s
Ġdesp air
ĠCap ulet
ĠUnt o
Ġforg ot
Ġwis dom
Ġven ge
Ġlab our
Ġkins man
Ġcitizen s
ĠWatch man
Ġencoun ter
ĠX I
ĠARI EL
ĠCates by
ĠLAR TIUS
; '
P SON
b ray
g ment
i ance
u de
u ff
v ail
Ġa uthor
Ġs our
Ġm ount
Ġm ethinks
Ġm oney
Ġm asters
re nt
re nce
Ġb astard
Ġf e
Ġf ru
Ġf ought
Ġf ew
it ors
Ġd ance
Ġd ied
Ġd eter
Ġc orn
Ġc apt
Ġp un
ĠA um
Ġhe alth
ow bray
an g
Ġha ir
ir l
ĠS AM
ĠM owbray
ĠC ons
ĠC UR
Ġe ld
Ġst ud
ĠF ri
ĠP edant
est ion
ea se
ĠD is
Ġse al
Ġse ver
if ul
il ity
ct ed
Ġman ner
ĠV er
Ġcon st
Ġun s
Ġqu oth
Ġpl ant
Ġen joy
ĠWith in
Ġr an
Ġal ive
Ġab ro
Ġfo ll
Ġhonour s
Ġfl owers
ation s
Ġdead ly
Ġcont r
Ġwh ite
Ġke pt
Ġrem ed
Ġarm y
Ġlords hip
ont ent
TI S
Ġgu est
Ġgu ess
Ġunder stand
Ġprom ised
Ġwret ched
Ġbegg ar
Ġchee ks
ĠKeep er
ĠJo hn
Ġstru ck
Ġdeter m
ĠAum erle
ĠSAM PSON
ĠCUR TIS
' re
: --
A T
B U
G ON
L EY
b ury
d en
n e
Ġt ry
Ġt each
he ad
Ġa id
ou nce
Ġs im
re ed
or ious
it ed
Ġc red
Ġc ried
Ġp al
Ġg ent
ut io
ĠM ine
Ġst ars
ĠL ew
ĠF l
Ġli est
as h
ĠP ut
ĠP ardon
ĠP oor
Ġde g
Ġde mand
ĠN e
Ġsha ke
am ent
ĠE X
ĠE ither
Ġse ven
Ġher self
Ġsp ent
Ġne ighb
Ġwhe ther
Ġam ong
ie f
Ġgo ing
pp y
Ġpro v
ose d
Ġtru ly
Ġr ot
Ġoff icer
Ġbrother s
Ġear ly
way s
Ġhonour able
ĠAN TI
Ġcall s
Ġmo ved
Ġacc ount
ĠCitizen s
Ġkind red
Ġpri est
Ġgu ard
Ġchar ity
Ġfool ish
Ġhum ble
Ġdream s
Ġgre et
Ġval our
Ġjud ge
Ġwret ch
Ġext rem
Ġsum mer
Ġtriump h
ĠMerc utio
Ġscar ce
Ġcru el
ĠHea ven
BU RY
GON US
ĠLew is
ĠANTI GONUS
B R
C LIFF
h ouse
l p
m ble
p ir
u nder
Ġw ail
in ing
Ġb a
Ġf art
Ġf aint
it es
Ġd in
Ġd well
Ġc ir
Ġc ustom
Ġy ea
Ġth ro
Ġp ack
Ġg a
Ġbe ha
le ep
ĠB et
ĠB id
ĠH arry
ĠM ade
ĠM usic
Ġfor ce
Ġwe ary
Ġe ase
ĠO nce
Ġst one
ĠF aith
as k
ĠR AT
ro y
ĠN ever
Ġbut cher
if y
Ġan on
Ġfa ire
Ġour s
th ough
Ġv ie
art ed
Ġbl ame
Ġthere of
Ġun f
Ġpro vost
Ġdis m
Ġen vy
Ġr ise
Ġthink s
Ġwhere fore
Ġri d
ĠMar s
Ġpart y
Ġad d
Ġother s
Ġim ag
ian s
Ġtri al
Ġkind ness
Ġcha st
Ġsub st
Ġbid s
Ġfell ows
Ġbri ght
Ġgl ass
Ġmis er
ĠAl ack
Ġcra ve
ĠCom inius
Ġwin ter
Ġcond ition
Ġmon th
Ġhu ng
Ġmin ister
ĠVols ces
Tw as
Ġwall s
Ġsatisf ied
Ġmal ice
Ġpriv ate
Ġid le
Ġben ef
orth y
Ġlau gh
Ġvenge ance
Ġabro ad
BR A
ĠRAT CLIFF
Ġvie w
B AL
H OP
n ers
o pe
v ious
w ith
Ġ ver
Ġw re
Ġw ag
Ġw ench
in centio
re es
Ġb ite
or ous
Ġf irm
Ġd ull
Ġc orse
Ġl est
en es
Ġh ol
ĠA fter
ve ll
om as
Ġg own
at ing
Ġbe f
Ġin cl
ce ll
ut land
ĠB arn
Ġme at
ĠH ence
ĠM ant
ĠM ethinks
Ġfor mer
ĠF ie
Ġre l
Ġre ceived
id ent
ĠP eter
ĠP lease
Ġde al
ĠR utland
am p
ĠD es
ĠTh omas
Ġsp ort
Ġv ice
Ġv ile
Ġsh ore
Ġsh rew
ĠV incentio
Ġcon cl
Ġcon vey
Ġbl ind
Ġgo d
AN LEY
all ow
Ġar ri
Ġun b
Ġun l
Ġun p
Ġmay st
Ġqu ite
Ġqu estion
el ess
ick ed
Ġhon esty
Ġfo es
Ġro ot
ĠLord s
ĠU nder
Ġfl ower
Ġaf ford
lo ck
Ġtong ues
Ġcount en
Ġsm o
ail or
Ġco ver
Ġchan ged
ren ch
ĠSh ow
Ġhum our
Ġsword s
Ġbo ot
IS HOP
Ġdep uty
ĠCoriol i
Ġjud gment
sc al
Ġty rant
Ġac qu
Ġprop he
Ġev il
ĠTY BAL
ĠWhi lst
Ġeas y
ĠPaul ina
ĠST ANLEY
ĠTru e
Ġsch ool
Ġexc use
Ġfru it
ĠMant ua
ĠTYBAL T
' ?
A K
H OM
a cher
e k
e ad
e red
m on
r oth
r ate
r ison
s he
u nd
v ish
w oman
Ġt aken
Ġw ither
Ġw icked
Ġb row
Ġb rows
Ġf ain
Ġf eed
Ġf inger
ĠI nd
ll o
Ġd ust
Ġc ure
Ġth under
Ġp ains
ĠT ut
ĠT HOM
an ley
om er
Ġg rown
Ġg ross
Ġg ift
Ġg host
Ġg irl
at t
ĠW ilt
ĠS ic
Ġst ab
Ġst op
Ġst oop
ĠL o
ĠL ove
EN BURY
id ings
ra ct
Ġdo or
Ġno se
ĠD ost
ard en
Ġsp e
Ġsp ake
Ġsp ring
il ia
Ġne cess
Ġkn ave
Ġpr oof
Ġshe ep
Ġbl est
em ent
Ġsir rah
Ġthere in
AN D
ci ans
ĠJ ove
Ġdis g
Ġal ways
urse d
Ġlea ves
Ġtw ice
ap er
Ġpre vent
Ġpre vail
Ġper ceive
Ġrep ent
ĠSt anley
ĠBR AK
Ġtra itors
tw ixt
Ġimp ort
Ġunder t
Ġwrong s
Ġbu ried
eal ous
Ġreason s
Ġsen ate
Ġgre en
Ġcho ice
az ed
Ġsil ence
Ġjo int
Ġdiv ine
ĠPr ince
Ġwhi lst
Ġaff air
Ġty ran
ĠBes ides
Ġemb race
ĠAr t
ĠDe ath
Ġcreat ure
Ġsac red
Ġocc asion
Ġinno cent
ĠBr other
ĠCa ius
Ġfier y
ĠMist ress
Ġlen g
Ġsaf ety
ĠFri ar
ĠVer ona
Ġremed y
Ġcir c
ĠTHOM AS
ĠBRAK ENBURY
? '
G OR
R ESS
V ERD
a ult
e ld
j o
l oy
m n
n at
o ly
o ard
p in
s p
s hi
s ic
Ġ es
Ġ ed
Ġt ast
Ġa vo
Ġs hip
Ġs its
Ġw ent
Ġw ings
in ous
Ġb ark
or ry
Ġf ury
it ol
it ted
Ġd ri
Ġc re
Ġl ar
en ius
ĠT urn
ĠA E
ĠA po
an ch
om p
Ġg arden
Ġbe lly
Ġin form
ed ious
ĠS omer
Ġu sed
Ġwe eds
Ġe le
Ġe ag
Ġe mp
ĠO VERD
Ġst ones
Ġre nown
Ġde c
Ġde ceived
Ġsha r
ĠD ER
Ġall ow
Ġan ger
Ġlo ath
Ġlo yal
ard ine
han t
Ġfa res
Ġkn ight
ct ise
Ġsh r
Ġsh ri
oth ing
Ġor acle
ĠMy self
Ġmay or
hy sic
el ve
Ġho llow
Ġsa il
Ġpl ot
Ġpl ague
ON E
Ġfri ght
un ning
ĠWith out
Ġr ound
Ġro b
Ġro ck
Ġwhere in
Ġdes ign
ĠWhere in
aught ers
ST RESS
Ġad ieu
Ġcomm end
Ġpray er
Ġcl aim
Ġple ad
Ġtr oth
ace d
Ġru de
Ġsm ile
Ġtre acher
Ġimp rison
Ġcare s
ĠGRE GOR
Ġmaid s
Ġdra wn
Ġwant on
Ġass ist
unt s
Ġtem pt
Ġcond u
Ġdeser ve
ĠMI STRESS
ĠHa ving
Ġprof ess
Ġdel ight
Ġdesp ite
ĠPr ithee
ĠCap itol
Ġpra ctise
Ġchee k
Ġabs ence
Ġdro p
Ġbro ken
Ġviol ent
Ġut ter
Ġtrump ets
ĠMen enius
Ġem pt
Ġignor ant
Ġlan gu
Ġrot ten
ĠBarn ardine
Ġcounten ance
ĠInd eed
ĠSomer set
ĠOVERD ONE
ĠDER BY
ĠGREGOR Y
F ORD
M ON
X FORD
a ct
c ha
d raw
e ous
m ion
p et
Ġt une
Ġt idings
Ġt edious
he ld
Ġa im
Ġa ught
Ġs ix
Ġs ens
Ġm otion
Ġw ont
Ġw ives
re he
ha ps
Ġb all
is a
is es
on ounce
Ġd et
Ġd ur
Ġd ue
Ġc ell
Ġc ries
Ġn ine
Ġn umber
Ġn ames
Ġl oud
es y
Ġth rust
Ġh it
Ġh id
Ġp in
Ġp il
Ġp air
Ġp awn
ot he
Ġg ain
se mb
Ġin fect
ce nd
ut es
im ent
ĠS ha
ĠS OM
ĠC ousin
ri ous
ĠO XFORD
Ġst ar
Ġst at
Ġst eed
Ġst ock
Ġst uff
ĠL ea
ĠG reat
Ġre ceive
ra nd
as hi
ĠP re
ĠP ol
ĠP isa
Ġas leep
Ġde w
Ġde are
Ġde posed
Ġon es
ĠR es
ĠTh ree
ĠTh urs
ĠK now
ard s
Ġv antage
ER IA
ĠV AL
Ġam b
ong s
Ġj ealous
Ġshould st
Ġpro per
Ġen vious
Ġout ward
ĠRICH MON
Ġwho le
Ġoff end
Ġal as
Ġhea v
Ġex cell
Ġear n
eet h
ĠMar k
Ġmean ing
Ġchi ef
Ġbeg ins
Ġru in
iss ion
Ġres ign
Ġtre ad
eth ought
Ġban ished
Ġpass ing
Ġplease d
Ġwo ful
Ġdev ise
Ġfollow ers
Ġfool s
ĠHer mion
Ġadv ise
Ġpers u
Ġhang ing
Ġgi ves
Ġremem b
Ġaw ake
Ġborn e
Ġsupp er
Ġcar ry
Ġlam b
az e
ĠRi vers
Ġdisp osition
Ġbec omes
Ġposs ible
ERS ET
Ġbur then
Ġgar ments
Ġcast le
Ġexp ress
chan ge
Ġsigh s
Ġthri ve
Ġund one
Ġdread ful
Ġbab e
Ġcol our
Ġprot ect
Ġpu bl
Ġprepare d
ĠChrist ian
ĠGre y
Ġdamn ed
Ġnob les
ĠInt o
Ġstor m
Ġfat al
Ġauthor ity
Ġfoll ows
Ġsim ple
Ġfart her
Ġthro at
ĠMusic ian
Ġbenef it
Ġaffair s
pin ion
ĠApo llo
ĠSOM ERSET
ĠThurs day
ĠVAL ERIA
ĠRICHMON D
ĠHermion e
B H
H Y
L IUS
S A
a fter
c ing
e g
g o
g le
i ond
r on
t hi
u b
y ard
y ond
Ġ er
Ġ ir
Ġt ort
Ġt eeth
Ġs an
Ġs orry
Ġm urderer
Ġm ourn
Ġw ine
Ġw ander
Ġb and
Ġb ond
er ved
it ude
Ġd aughters
Ġc al
Ġc am
Ġc ens
Ġc unning
Ġl end
en e
en n
ar ch
Ġto p
Ġp aper
Ġp hysic
ĠT ailor
ĠA BH
Ġg age
at sw
Ġbe w
Ġbe like
Ġbe held
ld om
ed ing
ut ation
ĠB US
ĠB oy
ĠB ona
ĠB iond
ĠH as
ĠM AMIL
ĠM OW
ĠM OP
Ġwe ight
Ġwe ap
ill s
ill ing
Ġe qu
ent ure
ri b
Ġst ore
Ġst ep
ord s
Ġli p
ro om
us ion
Ġse as
if fe
Ġsu p
ru n
Ġan ge
Ġlo d
Ġsp end
Ġsp are
ell o
ell ow
ho p
Ġv an
OR SON
ous es
Ġsh ut
ET ER
Ġgood ness
ĠV ery
Ġcon j
ĠHe lp
Ġsw ay
Ġbr ook
Ġking ly
Ġun nat
ort ion
Ġqu it
ime ly
Ġdis d
Ġex ile
Ġro om
Ġdes ert
Ġgentle woman
Ġfl ight
Ġtw elve
Ġaf fect
Ġpart s
Ġpart ic
Ġra sh
Ġad m
Ġpre y
Ġper il
Ġper ish
Ġper fect
Ġwr ath
Ġtr ans
Ġwh ither
ite ous
Ġunt il
lo ved
Ġint end
Ġle an
Ġle gs
ors es
ĠSt ill
Ġkeep s
Ġacc ess
Ġacc us
Ġacc use
Ġpri ze
Ġcha ir
ix enes
Ġcourt esy
Ġhum bly
ount y
Ġadv antage
Ġcur st
Ġcra ck
Ġspir its
Ġden ied
Ġdru m
anc y
Ġsil ver
Ġbetw ixt
pl ace
Ġdel ay
Ġresol ve
Ġresol ved
Ġcor rupt
Ġac cept
Ġwed ding
Ġpen it
Ġhur t
Ġprot est
Ġcle ar
Ġow e
Ġforsw orn
Ġshad ow
ĠOff icer
Ġpleas ant
ĠBel ieve
Ġsole mn
Ġcontin ue
Ġpet ition
Ġthreat en
Ġconqu er
Ġpun ish
Ġsever al
Ġcontr ary
Ġpal ace
ĠEX ETER
Ġneighb our
Ġdin ner
Ġmiser able
BRA Y
Ġspe ci
Ġcirc um
Ġtast e
Ġempt y
ĠLea ve
ĠPol ixenes
Ġsan ct
ĠABH ORSON
atsw ain
ĠBUS HY
ĠBiond ello
ĠMAMIL LIUS
ĠMOW BRAY
ĠMOP SA
C H
R CH
a f
a ff
c lock
d y
m ity
o ot
o ke
p ing
p ic
r t
s ing
t une
u ng
u rious
Ġt ut
Ġt able
he arted
Ġs cept
Ġm iss
Ġm aking
Ġw ot
Ġw ood
Ġw ol
Ġw ond
re ase
Ġb ot
Ġb as
Ġb are
Ġb ud
is ing
Ġf le
Ġf ro
Ġf ee
Ġf ashi
er ve
Ġd i
Ġd ign
Ġd ies
Ġd ag
Ġc up
Ġc alm
Ġn aked
Ġy onder
en cy
ar ies
Ġh unt
Ġh orses
Ġo pinion
Ġto mb
Ġp i
Ġp ure
Ġp ainted
Ġp iteous
ĠA RCH
Ġhe ed
ot e
an e
Ġg ate
Ġbe yond
Ġbe loved
se qu
ir g
ut ed
ĠB ear
ĠB AL
ĠB ISHOP
Ġme nd
ĠM ight
ĠC o
Ġwe igh
our ish
Ġst ory
ĠF ather
ĠF rench
Ġre ward
ĠP ERC
ur ance
Ġde bt
ĠR ight
ĠR ep
ĠN one
ĠN ap
ĠN othing
am ed
Ġse p
Ġse est
Ġfa il
Ġfa ces
qu e
Ġcom b
Ġcom ple
Ġpr onounce
Ġam en
out s
ol er
Ġhat red
Ġsw allow
Ġhere after
Ġtheir s
pp ing
Ġar g
ig ence
Ġqu ench
Ġho pes
Ġsee ing
ci o
ci an
um ble
Ġdis s
Ġex pect
Ġfo lly
Ġro se
Ġlook ing
ust ice
Ġsl ow
Ġfair ly
Ġcall ed
Ġad o
Ġcl o
Ġper pet
Ġway s
TH AS
Ġwh ore
Ġrem ains
les ome
Ġint ent
Ġcrown s
Ġcour age
Ġhar k
Ġwit s
Ġend s
Ġend ure
ĠOn ly
Ġtre mb
Ġneed ful
Ġjoy s
Ġjoy ful
Ġserv ices
Ġmist ake
Ġfort unes
Ġbod ies
Ġnat ural
Ġhapp iness
Ġmis ery
Ġch ide
Ġturn s
Ġatt empt
Ġadv ance
Ġcur ses
Ġass urance
Ġdisc over
Ġdisc ontent
Ġcommand ed
Ġsen ators
Ġsomet ime
Ġsomet imes
Ġdare s
Ġtem per
Ġwound ed
Ġspo ken
ĠMay or
Ġmark et
ca pe
Ġwat ers
Ġinstru ct
Ġinstru ment
Ġcurse d
Ġter ror
Ġshort ly
Ġwhi les
Ġgrie v
ĠBes eech
Ġdu ked
Ġgro an
Ġcompl ain
Ġcol ours
Ġprin ces
Ġprin cess
ĠTw o
Ġgovern ment
Ġappare l
Ġobed ience
Ġcounter feit
Ġcred it
ĠMars hal
Ġwre ck
Ġundert ake
Ġlar ge
ĠAE d
Ġemp loy
Ġshar p
Ġlangu age
Ġdur st
Ġexcell ent
Ġrememb rance
Ġpubl ic
Ġunnat ural
pic ion
ĠBAL THAS
ĠPERC Y
Ġduked om
ĠBALTHAS AR
? --
C AS
F OL
O S
a fe
b ow
b orn
d ds
f er
g ers
h or
l ar
l ic
o e
o ved
s ame
u ary
v al
v ours
w he
w hat
w ise
y s
Ġt est
Ġt ap
he st
Ġs ink
Ġs ins
Ġm ill
Ġm ag
Ġm aint
Ġm ile
in ation
ha ppy
is per
is hop
Ġf ame
it a
Ġc ease
Ġn ought
Ġl ed
en ces
Ġth ief
Ġh ost
Ġh ouses
Ġo dd
Ġo dds
Ġp ol
Ġp owers
ĠT it
ĠA pp
ĠA men
st rous
Ġg ru
at ic
Ġbe th
ĠW idow
ĠW orthy
Ġha z
Ġme re
Ġme ant
ĠS et
Ġis le
Ġis land
ĠC al
Ġwe ather
our age
Ġe ast
Ġit s
Ġst ol
Ġk in
ĠL e
ĠL ay
ĠL ong
ĠF our
Ġre pe
Ġre alm
id ence
ĠP ost
ĠP age
ĠR et
ĠR em
ĠR os
ĠR OS
Ġsha pe
ĠE l
ĠD ear
ĠD orse
us es
Ġse ize
if ied
ĠTh ose
Ġsp ite
Ġkn ife
Ġv irg
Ġsh un
ant s
art s
Ġcom est
Ġman ners
Ġcon c
ie ved
Ġbl ock
Ġbl ush
are d
are nt
ol ute
Ġbr ings
Ġun g
Ġwor n
Ġqu al
Ġj ourn
ĠYou ng
ak est
Ġfather s
um ent
ĠJ ack
Ġen mity
Ġr ing
Ġal ter
ĠSo ld
Ġro gue
Ġfriend ly
Ġfl ies
ĠMar ch
Ġsl ay
tle d
Ġad vers
Ġwr ite
Ġtr ade
Ġsc ope
Ġsc ene
Ġcont ract
Ġapp rehe
Ġarm our
Ġunt imely
ction s
ress ion
Ġim m
Ġrep air
Ġint ell
Ġcons ider
Ġru le
Ġle ads
Ġtri ck
Ġsle pt
Ġacc ord
Ġcomp an
Ġcomp ass
Ġpur cha
Ġco ck
Ġbra in
Ġseem ing
Ġimp oss
Ġgl orious
Ġpass ion
Ġpass age
Ġmaid en
Ġhate ful
Ġstre w
Ġinst ant
ute ous
Ġser ves
Ġbo ar
Ġwant s
ĠGentle men
ĠNOR FOL
Ġwind s
Ġcontent ed
Ġfree ly
Ġgre y
Ġdru ms
Ġmon strous
ĠLu cio
Ġcho ler
Ġgrow s
Ġdeser ves
ĠWh ither
Ġgrant ed
Ġinc rease
Ġresol ution
no on
Ġter ms
ĠBo atswain
Ġve x
ĠVols ce
Ġwa it
Ġpra ise
Ġsk y
Ġabs ent
Ġven om
Ġdire ct
chan ce
Ġdro ps
Ġpriv ile
Ġrespect ed
Ġfra me
Ġopp os
Ġappro ach
ĠEx eter
Ġtor ment
Ġunk nown
Ġprosper ous
Ġsus picion
Ġrevere nd
ĠDOR CAS
Ġcapt ain
Ġdeg ree
Ġbeha lf
Ġsmo oth
Ġtreacher ous
Ġearn est
Ġcam est
Ġdisd ain
Ġpartic ular
Ġscept re
Ġdag ger
ĠNap les
ĠROS S
ĠDorse t
ĠNORFOL K
G H
G od
N S
R R
S ET
a ily
f l
f ret
i ven
i ate
j ust
k in
m end
p ed
u ce
Ġ ing
Ġt ame
Ġt aught
Ġt ide
Ġa ble
Ġs qu
Ġs outh
Ġm or
Ġm essenger
in y
re y
re land
re me
Ġb ird
Ġb ury
Ġf ig
Ġf urn
ĠI reland
Ġd ig
Ġd ress
Ġd ying
Ġd aily
Ġc hat
Ġc atch
Ġl ark
Ġth orn
Ġth ird
Ġp urse
Ġp arent
ĠA LO
an ces
om ans
Ġg lo
at ure
at cl
at ience
Ġbe ard
ĠB er
ĠB ra
ĠB ring
Ġme lt
ĠS e
ĠS on
ĠS ave
ĠH unts
ĠM il
ĠC ame
Ġwe pt
Ġwe alth
ad es
ri c
ri cians
Ġst amp
ĠL au
ĠF ERD
ĠF roth
ĠG host
Ġre vol
ra in
ra ced
IN AND
Ġli on
al es
al ine
ĠR omans
ĠR atcl
ĠY e
Ġwill ing
Ġwill ingly
Ġno bl
Ġno bly
ĠD own
Ġse ason
and al
Ġsu ck
Ġsp r
Ġsp ur
Ġv ows
Ġv ault
Ġcon ce
Ġcon ceit
Ġam azed
em ber
Ġsw ell
Ġlove ly
Ġun less
Ġwor thi
el t
Ġj ew
Ġmust er
Ġshould er
Ġpro vo
Ġdis per
Ġen s
Ġen force
Ġr uth
Ġal ike
Ġab oard
Ġab hor
Ġro ar
Ġtell s
Ġwhere of
Ġwar like
Ġfl att
Ġfear s
Ġhast y
Ġgreat est
Ġra p
Ġra ise
Ġra scal
Ġad ver
Ġcomm itted
Ġcomm ission
Ġcl am
Ġper j
Ġper force
Ġwr ought
Ġpres s
Ġbear ing
Ġnor th
li ament
Ġwh isper
ĠThan ks
Ġbeg un
Ġpe ers
ĠSt ri
Ġwit ch
Ġacc used
Ġput s
Ġkind ly
Ġcount y
Ġsm iles
Ġfind s
Ġbra w
Ġchar ged
Ġafter noon
Ġhold s
ĠGRE EN
Ġstre ets
Ġsound ly
Ġbu ild
Ġadv ice
Ġbo ots
Ġcur rent
Ġsend s
Ġhang ed
Ġreven ged
Ġass ured
Ġgi ving
Ġdare st
ĠSu pp
Ġsupp osed
ĠPl ay
Ġrec om
Ġrec ord
Ġsil ent
Ġinstru ments
Ġhard ly
Ġprof it
Ġpar liament
Ġve ins
Ġsing le
Ġwast e
Ġaff li
Ġpie ces
Ġgar land
ĠPom fret
ĠUnt il
Ġgrie ve
Ġforb ear
Ġgro ans
Ġest ate
Ġthri ce
ĠAb out
ern s
Ġreb ell
ĠTY RR
Ġdest roy
Ġur ged
Ġaffection s
Ġfam ous
Ġhap ly
Ġlust y
ĠDOR SET
ĠCons pir
Ġeld er
Ġstud y
Ġconst ant
Ġgent ly
Ġarri ved
ĠSic ilia
Ġavo id
Ġimprison ment
Ġcondu ct
Ġprotect or
Ġspeci al
Ġcircum st
Ġsanct uary
Ġperpet ual
Ġgriev ous
ĠAEd ile
Ġmaint ain
ĠTit us
Ġbeth ink
ĠRos aline
Ġvirg in
Ġjourn ey
ĠSold ier
NS O
ĠALO NSO
ĠHunts man
ĠFERD INAND
ĠRatcl iff
ĠTYRR EL
; --
T h
a ly
a ces
c on
d ig
e at
e rer
f ather
f all
f aced
g l
g ar
g rim
g room
i b
i pp
i pe
i ving
i enn
k er
l aw
l anch
m ore
m ory
n al
p r
p ass
r rel
s er
t ime
t ies
u ing
u ch
u pt
v ior
z z
Ġ z
Ġt all
Ġt arry
Ġt ask
Ġa ch
Ġa pt
Ġa unt
Ġs y
Ġs al
Ġs ire
Ġs alt
Ġs now
Ġm ir
Ġm ult
Ġw ing
Ġw ide
Ġw hip
Ġw aking
Ġb ade
is bury
Ġf i
Ġf ood
Ġf row
Ġf un
Ġf eet
Ġf ires
Ġf ancy
er ity
er by
ll en
it ation
on ci
Ġd ow
Ġd im
Ġd iffe
Ġc at
Ġc her
Ġc aught
Ġc ere
Ġn ail
Ġl in
Ġl ent
Ġy ond
Ġy oke
es ar
es sel
en ant
Ġh or
Ġh ie
Ġh orn
Ġo ak
Ġp ot
Ġp ort
Ġp ound
Ġp ier
ĠT ar
ĠA cc
ve t
om en
at ive
se mble
Ġin qu
Ġha bit
et ite
ed er
ut enant
ĠB en
ĠB us
Ġme lanch
ĠS m
ĠS al
ĠS ix
ĠH o
ĠM in
ĠM akes
Ġfor s
Ġfor ced
Ġfor feit
ĠC ond
our se
Ġe vent
ad ed
ri f
Ġst ing
Ġst ro
Ġst out
Ġst ret
Ġst roke
ĠF o
Ġre ce
Ġre ck
Ġre de
Ġre jo
ra c
Ġso re
Ġso oth
Ġde ceit
ĠR ather
ro ll
est ed
am s
am ing
ĠD are
ĠD raw
ĠD erby
Ġse ll
Ġse es
Ġall iance
Ġsu e
ru ction
Ġsp le
Ġkn aves
Ġv ill
Ġv essel
ul f
ul ate
nt y
Ġman if
ĠV ienn
Ġcon fe
ic y
Ġbl unt
Ġsay ing
Ġun e
Ġun st
Ġun happy
Ġun just
ig nty
ort ed
LI S
Ġgra ves
Ġdis ple
Ġwho lesome
Ġoff ended
Ġal ack
Ġal though
har ge
Ġab ide
Ġex erc
Ġex change
ĠNo ble
ag es
Ġdes ires
Ġdes cend
Ġfl ood
ĠMar ian
Ġsl aves
Ġtw ain
Ġbet ray
Ġbet imes
Ġnew ly
Ġpart ing
Ġpart ly
Ġra re
Ġra ised
Ġad mit
Ġcomm ons
Ġstand ing
Ġcl im
Ġwr ink
ull us
Ġcont empt
Ġapp eal
Ġapp etite
Ġbeg u
Ġim age
Ġru st
Ġru led
Ġhouse hold
Ġset s
ĠPro ceed
os ing
Ġres ist
for th
for ced
Ġacc ident
Ġpri ck
Ġpower ful
Ġcha se
Ġcha rac
cl am
Ġsm ell
Ġtre asure
Ġtre mble
Ġbra ce
Ġhel m
Ġmist rust
iet y
Ġbes ides
Ġnat ive
Ġboy s
Ġdev otion
Ġpat ricians
Ġweep s
Ġbel ow
Ġfalse hood
Ġsovere ignty
Ġvirt ues
ouch s
ĠTy rrel
Ġass ure
Ġsec ure
Ġmer it
Ġoath s
Ġfaith ful
ĠCan not
Ġdef ence
Ġsure ly
Ġrec onci
Ġpoint s
Ġfeel ing
Ġbehold ing
Tw ere
Ġag o
Ġag ree
Ġcor re
Ġpret t
Ġbreat hed
Ġsick ness
Ġforg ive
Ġweak ness
Ġreg al
Ġreg ard
Ġmouth s
Ġbook s
Ġbar ren
Ġbride groom
Ġcompl aint
so ever
Ġpit ch
Ġbeast s
ĠCon f
ĠCa esar
Ġtrump et
eem ing
Ġshi eld
Ġforsw ear
Ġunk ind
ĠAnt i
Ġappare nt
Ġtemp est
Ġsus pect
Ġsto pp
Ġrevere nce
Ġentertain ment
Ġobed ient
Ġdeterm ined
Ġfaire r
Ġfaire st
Ġsubst it
Ġhol p
Ġstab b
Ġdisg race
Ġtyran ny
Ġleng th
shi re
Ġrenown ed
Ġball ad
Ġpil grim
Ġequ al
Ġpenit ent
Ġfashi on
Ġdign ity
Ġcomple x
ĠFour th
Ġaccord ing
Ġimposs ible
ĠMil an
Ġrebell ion
Ġfrow ard
Ġmelanch oly
ĠSal isbury
Ġrede em
ĠVienn a
Ġconfe rence
. --
A y
D R
E OM
I T
U GH
b ear
b od
b ation
c om
c ate
c ary
c ceed
d ita
e ve
f old
g n
i am
l ong
m ong
m aid
n s
n es
r s
r at
r ough
t ic
t een
t les
u it
u ries
w ife
w eal
x e
Ġt im
Ġt res
Ġt akes
Ġt ail
Ġt aunt
Ġa xe
Ġm ood
Ġm ess
Ġm irth
Ġw id
Ġw est
Ġw ake
Ġw ink
Ġw akes
in ct
Ġb on
Ġb ir
Ġb uck
or ies
Ġf ish
er ves
it er
it able
on st
on ation
Ġc ost
Ġc hall
Ġc iv
Ġn ap
Ġl ine
Ġl ap
Ġy es
Ġth ir
Ġth ick
Ġth read
Ġo pe
Ġto ad
Ġto il
Ġto oth
Ġp ed
Ġp ee
Ġp ause
ĠT ime
ĠT ush
ĠT ullus
ĠA f
ĠA w
ĠA DR
ot hes
st ery
an ing
om ach
Ġg aze
ĠW IL
se ll
Ġmy stery
Ġin fection
Ġme mory
im ble
ĠS ound
ĠS omet
ĠH im
ĠH ail
ĠM any
ĠC le
ĠC ur
ĠC ry
ĠC ounty
ill y
Ġwith draw
her it
Ġst e
Ġst ick
Ġst umble
ĠL art
ĠL ie
ĠF RO
ĠG et
Ġre ap
Ġli ft
Ġli ken
as es
Ġde b
Ġde ck
Ġde cl
ĠR a
Ġsha m
ea rer
ĠE ach
us hes
Ġse iz
Ġse ldom
ĠTh rough
Ġsu per
Ġsu itor
Ġsu llen
Ġsu cceed
ĠK n
Ġlo ver
Ġlo vest
Ġsp l
Ġsp y
Ġsp it
Ġsp ect
Ġfa ct
Ġfa wn
Ġne gle
Ġkn ot
Ġv ar
Ġv ol
ul ch
sel ess
Ġman age
ĠV en
ĠV al
ĠV illain
ic al
ic les
Ġhat ed
LO UGH
Ġsw ain
Ġbr an
ĠWhe ther
Ġj ot
ci es
Ġpro clam
Ġdis gu
Ġdeath s
Ġen g
Ġheart ily
Ġmar ks
ire ct
Ġoff ic
ĠSo ft
Ġab used
Ġdes cent
Ġri pe
Ġri de
Ġlea gue
Ġwar ri
Ġsl ip
Ġgreat ness
ĠBe hold
Ġbre d
ĠIt aly
Ġra in
Ġra il
Ġheaven ly
Ġcl othes
Ġsweet er
Ġper haps
Ġsc old
Ġsc andal
ĠAn on
Ġapp ointed
Ġwh it
Ġrem orse
Ġrem ove
Ġrem oved
Ġbeg an
Ġrep ose
Ġhar sh
Ġkeep er
Ġacc ursed
Ġyoung er
Ġyoung est
ĠCL EOM
Ġsub tle
Ġdear ly
ĠWill iam
Ġco ff
Ġright s
Ġmind s
Ġconf irm
Ġmis chance
Ġsorrow s
Ġcare less
Ġmeet ing
Ġless er
Ġob ject
ĠUn cle
Ġcoun c
Ġgrief s
Ġhum an
Ġadv enture
Ġser ved
Ġret ire
Ġcountry men
Ġcur t
Ġgr at
Ġhang s
Ġcra ves
Ġcra ft
Ġstran ger
Ġwind ows
Ġbea uteous
ĠDid st
Ġyield ed
ĠCom mend
Ġsupp ly
Ġcommon weal
Ġmon ument
Ġsight s
Ġgrow ing
Ġsuff ic
Ġheir s
ĠHa ppy
Ġtrust y
Ġinstru ction
Ġvis age
Ġstrong er
Ġexec uted
Ġinc en
Ġinf ant
Ġfore ign
Ġve l
Ġbur st
Ġplain ly
Ġabs olute
Ġfour teen
Ġdire ction
Ġred ress
Ġself same
Ġwrit ing
Ġfrown s
Ġsatisf y
Ġest im
Ġservant s
Ġble m
Ġbab es
Ġtriump hant
Ġgall ant
Ġocc up
Ġexecution er
ĠAm ong
Ġinno c
Ġfier ce
Ġshad ows
Ġpleas ing
Ġmod est
Ġmod esty
Ġunc les
Ġignor ance
Ġbig ger
Ġref use
ban ished
ĠPer dita
Ġfe ather
Ġdeterm ine
Ġextrem ity
ĠBet w
ĠBet ter
Ġdism al
Ġchast e
Ġwag er
Ġshrew d
Ġacqu aint
Ġprophe t
Ġed ge
Ġeag le
Ġshr oud
othe cary
Ġsteed s
Ġdeare st
Ġir on
Ġtort ure
Ġwond rous
Ġsep ulch
Ġtremb ling
Ġpol icy
Ġrepe al
ĠRet urn
Ġadvers aries
Ġpurcha se
Ġprivile ge
Ġoppos ite
Ġconce al
Ġflatt erer
ĠConspir ator
Ġdow ry
Ġpier ce
ĠBus hy
Ġstro kes
ĠFo llow
Ġexerc ise
ĠMarian a
ouchs afe
Ġtres pass
Ġciv il
Ġthir ty
ĠADR IAN
ĠWIL LOUGH
ĠLart ius
ĠFRO TH
ĠCLEOM ENES
ĠWILLOUGH BY
E P
N ARD
a x
a pp
b ut
b ble
b io
c est
c ue
d ed
d ers
f ellow
g y
g han
h rew
i ar
i ver
i ps
m as
m aster
n ken
n icious
o on
p ardon
r ity
r atch
s ha
s on
s ome
s ire
s op
t om
v ive
v ied
w e
Ġ eter
Ġt ou
Ġt ro
Ġt ig
Ġa h
Ġa le
Ġa ges
ou bt
Ġs n
Ġs ings
Ġs ought
Ġm at
Ġm ain
Ġm il
Ġm ethought
Ġw ore
Ġw ard
in ate
Ġb ill
Ġb ore
Ġb ag
Ġb rown
Ġb orrow
is ion
or ough
Ġf ard
Ġf ant
Ġf ran
Ġf ret
Ġf ix
Ġf reed
ĠI m
ĠI mp
er ing
it t
it al
it iff
Ġd ate
Ġd ower
Ġc row
Ġn et
Ġn est
Ġn ice
Ġn umb
Ġn upt
Ġl ur
Ġl ance
Ġl ower
Ġl uck
Ġl ying
Ġy on
es u
en ge
Ġth in
Ġth ie
Ġth irst
Ġth umb
Ġh om
Ġh ind
Ġh ig
Ġh ire
Ġh oney
Ġo mit
Ġto morrow
Ġp ear
Ġp ath
Ġp age
Ġp aid
ĠA p
Ġhe at
Ġhe els
ow l
ing ers
an n
Ġg id
at ri
at est
Ġbe re
ĠW r
ĠW it
ĠW ed
ĠW ife
ĠW oe
se y
Ġin k
Ġha re
Ġha ught
ce ls
ay ed
ĠB re
ĠB ur
ĠB AR
ĠS it
ĠS ur
ĠS end
Ġnot ed
ĠH ang
ch ief
ĠM aking
ĠM ethought
Ġfor ty
ke ley
ĠC ast
oo ps
her n
ri ble
ĠO h
ĠO ld
Ġst ale
Ġst ern
Ġst omach
ĠL ic
ĠF al
ĠF ind
ĠF air
ĠG u
ĠG ree
ĠG race
ra id
ra ge
IN E
Ġli very
Ġli king
ĠP ri
ĠP erc
Ġde ce
Ġde af
ĠR UT
Ġsha re
Ġsha pes
Ġwill s
Ġdo ve
Ġdo gs
Ġdo zen
ĠE ly
ĠE scal
Ġbut t
ĠD el
us hing
Ġsu its
Ġher s
Ġan ointed
Ġshall ow
il th
il ence
Ġne at
Ġv ent
Ġsh ook
Ġsh ines
Ġup right
Ġgood s
Ġpr ime
ĠV au
Ġcon ceive
Ġam iss
end ing
ic ate
ie ge
Ġbl ast
Ġgo dd
ĠFor tune
Ġsir s
are s
ol a
Ġthere by
ep t
ep ing
Ġsw ore
Ġsw eat
Ġor n
Ġar rest
Ġlet s
Ġun m
Ġun se
Ġun fe
Ġwor m
Ġgra in
ak er
Ġho p
Ġlike ly
Ġpro cess
ue en
Ġsa v
Ġmad ness
Ġpl aces
ice d
ĠJ ustice
Ġdis ease
un ate
Ġtru nk
Ġsome what
Ġr ans
Ġoff ices
Ġal ms
har ged
orn ey
Ġab use
Ġex am
Ġlook ed
Ġthink ing
Ġtell ing
Ġwhere on
ĠQ ueen
ag ues
ase d
Ġfl ow
Ġfl int
Ġfl ourish
ĠWhere fore
ĠWhere to
AM US
Ġfear ing
ber t
Ġbre ed
Ġbre ad
Ġpart ed
Ġpre p
Ġper nicious
Ġtr oop
Ġtr oops
Ġsc atter
ĠAn other
ĠAn ne
aint y
li ed
Ġmo ves
Ġcont ro
Ġapp ea
ab les
Ġbeg et
Ġgrace d
Ġrep ly
Ġrep utation
Ġchild ish
Ġrest ra
erc ing
che th
Ġtri f
ĠPro ve
Ġbest ow
Ġput ting
ont es
Ġpri ce
Ġsub d
Ġback s
Ġco ll
Ġtre n
Ġforth with
tw ill
Ġban k
Ġche ap
Ġchar m
ĠDo es
Ġlaw s
Ġlight ning
Ġroyal ty
Ġhapp ily
Ġmis fort
Ġcare ful
ĠSh ore
Ġcoun sell
Ġcourt eous
ĠAl though
Ġstri ve
Ġsleep ing
Ġdra g
Ġadv ised
Ġser p
Ġbo ast
Ġwant ing
ĠAt t
Ġdisc ourse
pen se
Ġcra m
Ġstra w
Ġbreath ing
Ġsen seless
Ġbea ut
ĠDid o
ham ed
Ġgre w
Ġyield s
Ġdru nken
Ġcar ried
Ġspo il
Ġmon ster
Ġmon arch
Ġmet al
Ġsoon er
ID AMUS
Ġsad ness
ĠHad st
ĠCam bio
Ġwoo ing
Ġexec ute
Ġmin ute
Ġsuit ors
Ġbur nt
Ġcor onation
Ġwa ves
Ġpra ises
Ġprop ortion
Ġliber al
Ġwrit ten
Ġburn s
Ġburn ing
Ġbless ing
Ġble eding
Ġaction s
Ġcap s
Ġbitter ly
Ġlim it
Ġlim bs
Ġreb els
Ġviol ence
Ġsac rif
Ġsuccess ion
Ġpit iful
ac les
Ġmid night
ĠWhi les
ĠGre en
Ġpossess ion
Ġtor ch
Ġca itiff
Ġinj ury
Ġur ge
Ġchurch yard
Ġmed dle
Ġnob ility
Ġgrand sire
Ġsaint s
ĠDis p
Ġran k
Ġguest s
head ed
Ġbeha vior
Ġunf old
Ġdism iss
Ġimag ine
Ġsubst ance
Ġmonth s
Ġhung ry
Ġbef all
Ġincl ined
Ġafford s
Ġcover t
ĠWilt shire
Ġnecess ity
Ġprevent ed
Ġjoint s
Ġtyran n
Ġleng then
Ġes cape
Ġshri ft
Ġsens es
Ġstat ue
Ġband s
Ġcens ure
Ġweap on
rib unes
Ġstep s
Ġange l
Ġconj ure
Ġtrans p
Ġthreaten ing
Ġwol f
Ġbot tom
ĠARCH IDAMUS
Ġtap ster
ĠLe ontes
ĠRem ember
ĠEl bow
Ġapprehe nd
Ġimm ortal
Ġintell igence
Ġcompan ion
Ġmor al
ĠBer keley
ĠLau rence
Ġjew el
Ġdisper sed
Ġruth less
Ġrap ier
Ġclam our
ĠStri ke
Ġz eal
Ġcher ish
Ġstret ch
Ġrejo ice
Ġsple en
Ġcharac ter
Ġprett iest
Ġbir ds
Ġchall enge
Ġpee vish
Ġliken ess
Ġproclam ation
Ġoffic ers
Ġwarri ors
Ġcommonweal th
Ġvel vet
Ġsepulch re
EP H
NARD INE
Ġfard el
Ġnupt ial
Ġgid dy
ĠBAR NARDINE
ĠSur rey
ĠLic io
ĠRUT LAND
ĠEscal us
ĠVau ghan
A G
A TER
B AN
C RO
E OR
I R
M OR
O T
T MOR
W ATER
Z WATER
a ction
a cy
a oler
b ey
c ri
c ure
d al
f oot
g ot
g ive
i ban
k ind
l ight
l ace
o es
r ont
r oof
s en
s hall
t a
t hat
v ised
v ided
w d
w ing
w hich
y c
z ed
Ġ ice
Ġ ought
Ġt ard
Ġt ack
Ġt ree
Ġt ied
Ġt ired
Ġt akest
he n
he re
Ġa ud
Ġa ged
ou red
Ġs ed
Ġs ess
Ġs au
Ġs ides
Ġs urp
Ġs illy
Ġm our
Ġm ould
Ġw et
Ġw ave
Ġw aked
Ġw ipe
in ers
re et
re ant
nd y
Ġb ay
Ġb ent
Ġb ru
Ġb ol
Ġb alm
is hes
is ement
or iz
Ġf in
Ġf ray
Ġf ever
Ġf elt
Ġf ingers
it ch
on ed
on us
Ġc ent
Ġc ook
Ġc ab
Ġn ar
Ġl our
Ġl un
ar m
Ġto ps
Ġp or
Ġp ill
Ġp ent
Ġp hi
Ġp ick
Ġp aint
Ġp ace
Ġp ict
Ġp ush
Ġp alm
Ġp omp
ĠT en
ĠT oward
ĠT rust
ĠT ribunes
ĠA dd
Ġhe ra
Ġhe ight
Ġg n
Ġg am
Ġg ap
Ġg ains
Ġg oose
at he
at er
at hed
Ġbe ll
Ġbe ef
Ġbe ams
ĠW ES
ĠW omen
Ġin v
Ġha il
ir ing
ut ch
ĠB ag
ĠB AG
Ġme w
Ġme mb
ĠS ly
ĠS us
ĠS aw
ĠS CRO
ĠS IR
Ġnot ice
ĠH on
ĠH ie
ĠM is
ĠM uch
ĠC AR
ĠC apt
Ġwe ars
Ġwe ek
Ġe ight
ri ch
ri el
Ġst ead
ĠL ive
Ġhis t
ĠF it
ĠF ive
ĠF ull
ĠF IT
ĠG ra
ĠG ard
ĠG EOR
ĠG aoler
Ġre nd
Ġre ar
Ġre ach
Ġre vel
ord er
Ġli ons
Ġli kes
Ġli vest
as p
ĠP art
ĠP ers
ĠP atience
ur gh
al ter
Ġso il
Ġso ci
Ġas pect
Ġas hamed
Ġde m
Ġde pose
ro g
ĠN ame
ĠN ature
hi re
ck et
ver ty
ĠY ield
ĠE m
ĠE ver
ĠE lse
ĠD ian
us hi
Ġse vere
Ġse ated
Ġall eg
ĠTh ine
ĠTh ings
Ġher d
Ġan ch
Ġlo ad
Ġlo ck
Ġlo vers
ter ing
Ġsp ot
Ġsp read
Ġfa vours
Ġour self
il ful
il iar
Ġv ast
Ġsh ru
ul ous
ĠV irt
ĠV ouchsafe
Ġcon sequ
Ġam ain
Ġam ends
Ġam bit
Ġam orous
ie ce
Ġshe l
Ġbl ot
ven sp
Ġgo ss
em per
are rs
ol ved
ol ks
Ġknow ing
res h
Ġsw ears
Ġbr at
Ġar ray
Ġun a
Ġun re
ig ent
ig onus
LI BAN
Ġho ar
Ġlike wise
Ġpro ved
Ġpro dig
Ġsa ved
um ed
ĠJ esu
Ġdis in
Ġspeak ing
Ġpo p
Ġpo verty
Ġout rage
un s
ick le
ĠWith draw
ign ed
Ġmar s
Ġmar vel
Ġmar vell
Ġr ate
Ġr ouse
ist ing
Ġal so
EL AND
Ġab und
Ġex cept
Ġro bb
ĠQ u
ag ed
Ġri ches
Ġfl at
Ġsl ight
Ġsl ipp
ĠWhere of
Ġbet ide
Ġcou ple
Ġaf raid
Ġpart ies
Ġpart ner
Ġra g
Ġra ck
Ġra ven
ide red
Ġpre fer
Ġcl ock
Ġsweet ly
Ġple be
ull s
Ġtr im
Ġpres ume
Ġpres erve
Ġsc a
Ġsc ratch
Ġnight s
Ġworld ly
Ġdown right
Ġke ys
per ience
ab ly
Ġim per
lo sop
Ġint eg
Ġmight st
Ġstay s
Ġru e
Ġrest ore
Ġle g
Ġle ct
Ġle wd
Ġent rance
Ġset tled
Ġtri cks
ĠPro claim
Ġacc om
Ġcomp ound
Ġend ed
Ġpur ge
Ġpur ple
Ġsm il
Ġsm other
Ġcould st
Ġtra in
Ġtra vell
Ġco p
Ġco at
Ġco zen
Ġbid ding
Ġdre w
Ġearth ly
Ġbra ins
Ġhome ly
Ġhel ps
Ġhope ful
Ġche que
Ġconf ound
Ġbri dal
Ġland ed
Ġmis c
Ġhold ing
Ġfal con
Ġbus y
Ġfall s
Ġob sequ
Ġcourt ier
Ġstri ct
Ġsound s
Ġsound ed
Ġbu zz
Ġatt ain
Ġatt orney
Ġthank ful
Ġret ired
Ġmerc hant
Ġreven ges
ere st
Ġprom pt
Ġcontent s
Ġvillain s
Ġkiss es
Ġmer ri
ĠCom es
ĠCom fort
Ġwin ters
Ġlam bs
ĠCan st
Ġlate ly
Ġbeat s
Ġbeat en
up id
bl ood
cher s
vent ry
Ġcho sen
Ġlearn ed
Ġentreat ies
Ġdevil ish
gu ard
gu ndy
Ġbold ly
Ġbold ness
Ġyouth ful
Ġinf er
Ġprof ane
ĠBec omes
Ġread iness
Ġdiv or
Ġter m
ĠCA LIBAN
ĠWel sh
Ġcloud y
Ġsign al
Ġsign ify
Ġmusic ians
Ġwa x
Ġdr oop
ĠSw ear
Ġext reme
Ġsk ill
Ġgrie ves
Ġgrie ved
ĠEL Y
Ġprop hes
Ġcheer ly
Ġwise ly
Ġcr ook
Ġexp ed
Ġtrou bl
Ġsatisf action
Ġest eem
Ġdark ness
ĠAb ove
Ġbow els
Ġtown s
Ġflatter ing
Ġfra il
Ġhur l
Ġsudden ly
Ġcoward ly
Ġappro bation
Ġlament able
Ġow es
Ġins ol
ĠBl unt
Ġeat en
Ġkins men
Ġmid dle
Ġdest ruction
Ġdepart ure
Ġfond ly
ĠAd ieu
Ġusurp ing
umb ling
Ġglad ly
Ġshi ps
Ġmild ness
Ġtreason s
med iate
vol io
Ġap ace
Ġsho p
Ġsho es
Ġlist s
ĠST EPH
Ġsentence d
Ġcondemn ed
Ġtrouble d
Ġmut inous
Ġpet ty
ĠAnt igonus
Ġstor ms
Ġgrand am
Ġtemp les
Ġsto ps
ĠPer haps
Ġconqu est
Ġbastard s
Ġeld est
Ġconst able
ĠNe ither
ĠEX TON
Ġneighb ours
Ġamong st
Ġprov ide
Ġgreet ing
Ġminister s
ĠDes p
Ġconcl ud
Ġconcl ude
Ġacqu ainted
Ġgift s
Ġghost ly
jo in
Ġele ven
Ġrob es
Ġdesign s
Ġtempt ed
Ġdet est
ĠSha lt
ĠPre pare
Ġdeare r
Ġheav ier
Ġpersu ade
Ġer rand
Ġwander ing
Ġweap ons
Ġvan ity
Ġaccus ation
Ġfro st
Ġpi ercing
ĠCo ventry
Ġdiscontent ed
Ġtest im
ĠApp ear
Ġhaz ard
ĠCal iban
Ġstol en
Ġinstant ly
iven ess
Ġfig ure
Ġfurn ish
Ġparent s
Ġrevol t
Ġnobl eness
Ġprovo ked
Ġrecom pense
Ġcircumst ance
Ġfi end
Ġcere mon
ĠBen volio
ĠMin ola
Ġreck on
LIS LE
Ġreconci le
Ġunkind ness
Ġsubstit ute
Ġpilgrim age
Ġcomplex ion
nes day
onst ant
ĠCur tis
ĠRa vensp
Ġseiz ed
Ġnegle ct
Ġvar let
ĠVen ice
Ġsuffic ient
Ġestim ation
Ġblem ish
Ġoccup ation
Ġfant ast
Ġfran k
Ġfreed om
Ġthie ves
ĠWed nesday
ĠBur gundy
ĠFal se
Ġgodd ess
Ġsav age
Ġrans om
Ġexam ple
Ġmisfort une
Ġtyrann ous
TMOR ELAND
Ġnar row
Ġphi losop
ĠToward s
Ġhera ld
ĠWES TMORELAND
ĠBag ot
ĠBAG OT
Ġmemb ers
ĠSCRO OP
ĠCAR LISLE
ĠCapt ain
ĠFIT ZWATER
ĠGard ener
ĠGEOR GE
ĠPers u
Ġalleg iance
Ġambit ious
Ġinteg rity
ĠSTEPH EN
ĠRavensp urgh
Ġphilosop hy
B ISHOP
H ic
W hat
Z ounds
a vour
b r
b ot
b our
b ack
b oy
b oard
b ric
c ra
c us
d o
d es
d one
e b
e ves
g ea
g ic
g ues
h ors
h orse
i pt
k est
l or
l en
l ow
l ain
l ast
l ance
l iness
l ongs
m ade
o ble
o ff
o cate
r is
r ish
t in
t ied
t rees
u c
u g
u iv
u ally
v ir
w er
w ear
w ork
w ater
Ġt row
Ġt ie
Ġt orn
Ġt aking
Ġa ck
Ġa fe
Ġa pe
Ġs ow
Ġs and
Ġs ong
Ġs ixt
Ġm om
Ġm as
Ġm ouse
Ġm ates
Ġm urde
Ġm ask
in u
in al
in ies
in ces
ha nd
ha ge
nd ay
Ġb ul
Ġb ows
Ġb ail
Ġb ounty
or ax
Ġf re
Ġf an
Ġf if
Ġf rant
Ġf ount
Ġf ift
Ġf ulf
Ġf ront
Ġf olks
er p
on io
Ġd ot
Ġd ine
Ġd ried
Ġd ined
Ġd iest
Ġd ash
Ġc ord
Ġc ro
Ġc ool
Ġc rows
Ġc ords
Ġc ushi
Ġn ort
Ġn igh
Ġn amed
Ġn imble
Ġl ute
Ġl ads
Ġl inger
Ġy are
Ġy ester
en ing
en ches
Ġth w
Ġth rown
ar ried
Ġh ill
Ġto ads
Ġp ow
Ġp our
Ġp est
Ġp ant
Ġp up
ĠT ra
ĠT un
ĠT alk
ĠT ew
ĠT ouch
ĠT each
ĠT roy
ĠA c
ĠA ff
ĠA BRA
ĠA riel
Ġhe el
Ġhe inous
ot land
Ġg ather
Ġg ame
Ġg ust
Ġg aunt
ĠW est
ĠW ert
ĠW alter
Ġin ch
Ġin ward
Ġin vent
Ġha g
Ġha unt
le ct
ay ing
ut s
ĠB est
ĠB ound
ĠB old
ĠB ishop
Ġme ed
Ġme al
im ents
ĠS yc
ĠH ar
ĠM ur
Ġfor so
Ġu g
ĠC he
ĠC art
ĠC ont
ĠC ontent
ĠC ourage
ĠC upid
Ġe ff
ad vent
ad vised
ri l
ĠO ver
Ġst ink
Ġst ag
Ġst ark
Ġst eep
Ġst iff
Ġk ites
ĠL end
ĠL ies
ĠL ead
ĠF ell
ĠF all
ĠF oul
ĠF etch
ĠG ives
Ġre in
Ġre semb
Ġre vive
id ers
ra ment
ra cious
Ġli ck
Ġli ef
as ant
ĠP em
ĠP urs
ur b
ur ing
al ks
Ġas h
Ġas hes
Ġde er
Ġde form
ĠR el
ro ach
ĠN ed
ĠN ep
Ġsha de
Ġdo le
Ġno d
Ġno on
am y
am ity
am ents
ĠE r
Ġbut ter
ĠD est
ĠD ep
ĠD iv
Ġse arch
and ers
ĠTh row
ru e
ru ly
Ġan n
Ġan cest
ĠK ent
ĠK ind
Ġlo dge
Ġlo athed
Ġsp ark
Ġsp urs
Ġsp ider
ell a
Ġv ul
Ġv ass
Ġv ouch
Ġv ial
Ġv enture
ct or
ous ins
Ġwhat soever
Ġsh ot
Ġsh own
ul es
Ġpr ate
Ġpr int
Ġpr ating
Ġman hood
Ġam az
ic le
ic ation
Ġbl ue
Ġbl own
Ġbl iss
Ġbl aze
Ġbl ushing
ive d
ive ly
Ġthem e
Ġthere to
ost er
Ġcan op
Ġsw oon
Ġhere in
Ġor ator
Ġbr anch
Ġar ise
Ġun like
Ġun ruly
Ġwor ms
Ġwor ser
Ġgra ss
Ġgra ces
Ġmust ard
Ġsee ks
Ġshould ers
Ġlike li
Ġsa p
Ġsa ck
Ġpl an
Ġpl aint
pe ian
ĠJ up
Ġdis o
Ġdis semb
Ġen forced
Ġen rich
pt ion
un ed
Ġr he
Ġr anc
Ġr ush
Ġr oof
Ġr ushes
Ġoff ences
Ġal ar
Ġal oud
Ġbrother hood
Ġex ceed
Ġfo x
Ġro ses
Ġro aring
Ġdes c
Ġri g
Ġlea p
Ġlea ving
Ġfl ock
Ġsl ily
ap ed
Ġra ce
Ġcomm ends
Ġcl er
Ġsweet est
Ġper d
Ġper fection
Ġper mit
Ġwr ing
Ġother wise
aw ful
Ġmean er
Ġsc ore
Ġnight ing
ĠAn swer
li er
Ġmo e
Ġmo ving
Ġmo iety
Ġdown fall
Ġapp ears
Ġwh ist
Ġke y
ĠThan k
Ġmother s
ran ch
Ġever last
Ġint ents
Ġfriends hip
Ġcons idered
ks bury
Ġru m
Ġrest s
Ġpe er
Ġle vel
Ġhar l
Ġhar vest
Ġhar bour
atter n
ĠPro sper
os es
Ġbest ri
Ġacc omp
Ġhence forth
Ġcomp are
Ġface d
Ġend ured
ult ing
ĠThy self
Ġcha mp
Ġdear th
Ġco ast
Ġtre es
Ġbra nd
Ġchan ces
Ġchan ging
tw ould
ister ous
Ġchar ges
Ġconf idence
Ġconf eder
Ġimp each
Ġlight s
Ġbes ide
Ġroyal ties
Ġfull y
Ġdev our
Ġafter ward
Ġwrong ed
Ġmis chief
Ġlast ing
Ġthousand s
Ġpat ron
Ġfall en
Ġfall ing
Ġob s
Ġob sc
ĠAl ban
Ġstri fe
Ġtalk ing
Ġhum ility
Ġbel ong
Ġbel ieved
Ġdra m
Ġadv ocate
Ġser ious
Ġwel c
Ġbo isterous
Ġpers ons
Ġdan cing
Ġdoubt ful
Ġgr im
Ġhang man
Ġreven ue
Ġdisc harge
Ġcra b
Ġcommand s
Ġwind ow
Ġproud est
ĠSu nday
Ġdep end
Ġyield ing
Ġbreak s
Ġtem ple
ĠCom mit
ĠCom mand
Ġsupp ort
Ġsit ting
Ġcar ries
Ġrequ ire
Ġdef y
Ġtender ness
Ġsad ly
Ġreport ed
Ġcho se
Ġgrow th
ĠMont agues
Ġrec reant
Ġwat ery
Ġask ing
Ġsil k
Ġlearn ing
ĠHa pp
Ġbat tles
Ġcry ing
Ġentreat y
Ġdevil s
sh ine
Ġmur ders
Ġrun s
Ġrevenge ful
Ġquar ter
Ġconfess or
Ġconfess ion
Ġdel icate
Ġspeed y
Ġdesp ised
Ġfore head
Ġter r
Ġmin utes
Ġbosom s
the re
Ġve il
Ġwonder ful
Ġharm ony
Ġguilt less
Ġattend ed
Ġmurder ous
ĠVols cians
ĠVols cian
Tw ixt
Ġsing ular
Ġbur den
Ġdist ra
Ġdist ress
Ġdist urb
Ġact s
Ġmusic ian
Ġwa its
Ġclose d
Ġbegg ars
Ġsuffer ing
Ġsuffer ance
Ġbreast s
Ġwed ded
Ġdu kes
Ġcr im
Ġcr ush
Ġemb ass
Ġred empt
ĠRe ad
ĠRe ady
Ġfeast s
Ġgro om
Ġund o
Ġbow l
Ġinter rupt
Ġev ils
Ġsum m
Ġvisit ation
Ġbab y
Ġfra med
Ġknock s
Ġsafe ly
Ġsafe guard
ĠIsab ella
Ġign oble
Ġopp ression
Ġpu iss
stand ing
Ġsac rament
Ġappro ved
Ġlead en
ĠStand s
Ġlament ation
Ġcle an
Ġpit ied
Ġins inu
Ġunw orthy
Ġunw illing
Ġsecret s
Ġdrink ing
Ġsur feit
Ġmid st
Ġmid wife
Ġdest iny
Ġsmall est
Ġdamn able
Ġut most
ĠAd v
ĠBr itt
Ġeas ily
Ġproceed ings
Ġmild ly
Ġca uses
Ġinj ustice
Ġap art
Ġmed ic
Ġmod el
Ġfam iliar
ĠTw ice
ĠMist ake
Ġreign s
oss ess
ĠTru ly
ĠAnt onio
Ġprosper ity
Ġlen ity
Ġlow ly
Ġbend ing
ĠSc otland
Ġslander ous
Ġpurs ue
Ġpurs uit
ĠCapulet s
Ġmount ain
ang ling
Ġplant s
Ġprov ided
Ġextrem es
Ġba ld
Ġimag ination
Ġglass es
Ġconcl usion
Ġunl ook
Ġunl uck
Ġunp ro
Ġprophe cy
rate ful
she aring
Ġdisg raced
Ġavo ided
Ġdri ft
Ġcre pt
Ġeag er
Ġloath some
Ġloyal ty
Ġaim s
Ġsens ible
Ġpin ch
Ġpil ot
Ġinfect ed
Ġstat utes
Ġstock s
Ġchief est
go vern
Ġcal amity
Ġange ls
Ġlod ged
Ġlod ging
Ġcrack ing
Ġcorrupt ion
Ġconquer or
Ġtut or
Ġfle et
Ġfro zen
ĠARCH BISHOP
Ġclo ak
Ġwhore son
Ġadvance d
Ġmag ist
Ġconc erns
Ġcompass ion
Ġspr ings
Ġswell ing
Ġabhor r
Ġadver se
Ġperj ured
Ġwhisper ing
ĠSupp ose
Ġaffli ct
Ġmult itude
Ġnail s
Ġlin ea
ĠTar peian
Ġinqu ire
Ġmanif est
Ġdisple asure
Ġclim ate
Ġwrink led
Ġcorre ction
ĠConf ess
ĠAnti um
Ġtaunt s
Ġmood y
Ġped lar
ĠSomet ime
Ġste ward
ĠLie utenant
Ġbran ches
Ġincen sed
Ġinnoc ence
Ġflatterer s
Ġeter nal
Ġtig er
Ġmil k
Ġnumb ers
Ġhind er
Ġpear l
Ġbere ft
ĠBre ak
Ġorn aments
Ġunse en
Ġtrif les
Ġcounsell or
Ġserp ent
Ġtard y
Ġsurp r
Ġcab in
Ġlun atic
Ġhist ory
ĠVirt ue
Ġconsequ ence
Ġpop ular
Ġmars hal
Ġmarvell ous
Ġplebe ians
Ġprophes y
Ġceremon ious
uiv ant
Ġack now
Ġafe ard
Ġsixt een
Ġmom ent
Ġmurde red
Ġfrant ic
Ġfift een
Ġnort hern
ĠTun is
ĠTew ksbury
ĠABRA HAM
ĠSyc orax
ĠMur der
Ġforso oth
ĠCart hage
advent ure
ĠPem broke
ĠNep tune
Ġlikeli hood
ĠJup iter
Ġredempt ion
ĠBritt any
A GE
B e
G ain
H e
I EL
M ILIA
R EY
S t
T he
a is
a ld
a ches
a vish
b id
b ell
b les
b earer
c is
c at
c ore
c ast
c ock
c und
d uce
e x
e ks
f ranch
g ood
g age
g rown
g led
g ory
g reed
h ur
i qu
i vers
j ud
k ens
l m
l u
l ook
l eness
m et
m iss
o very
o ps
o pher
p h
p or
p han
p les
p ret
p icious
r ge
s ion
s ide
s cape
u le
u ge
u ish
u ced
u kes
u eless
v il
w it
w ill
w itted
y our
Ġ ire
Ġt on
Ġt ur
Ġt ea
Ġt ink
Ġt reat
Ġt ents
Ġt ainted
Ġt ailor
Ġt amed
Ġt umble
he ard
Ġa v
Ġa fore
ou ches
Ġs ith
Ġs ine
Ġs iege
Ġm ast
Ġm ant
Ġm iles
Ġw ester
Ġw aken
Ġw ilful
Ġw enches
in er
re th
ha eth
ha bit
Ġb ought
Ġb ount
Ġb ishop
is her
is ome
or icles
Ġf et
Ġf est
Ġf em
Ġf its
Ġf ilth
ĠI ll
ll ing
ll ed
it ting
Ġd er
Ġd om
Ġd ed
Ġd il
Ġd ame
Ġd iet
Ġd rows
Ġd umb
Ġc and
Ġc ard
Ġc ave
Ġc uck
Ġc rew
Ġc rest
Ġc urious
Ġc ousins
Ġn on
Ġn aught
Ġn ourish
Ġl ink
Ġl ace
Ġl oose
Ġl ends
Ġl ung
Ġl atest
en y
en own
Ġth res
Ġth rees
ar ation
ar ison
Ġh y
Ġh ood
Ġo bt
Ġto e
Ġto y
Ġto ken
Ġto wer
Ġp ine
Ġp ate
Ġp ull
Ġp edant
Ġp ounds
Ġp run
Ġp attern
ĠT ur
ĠA gain
Ġhe igh
Ġhe dge
st one
st rong
st rel
ow ick
an k
an ish
om ing
om enes
Ġg az
Ġg eld
Ġg ulf
at o
at ient
Ġbe et
Ġbe ads
ĠW orse
ĠW ales
se th
se em
Ġin ve
Ġin herit
Ġha w
Ġha ll
Ġha lt
ce l
et ition
ed iment
ĠB ad
ĠB ON
ĠB ack
Ġme llow
im o
im s
ĠS in
ĠS UR
Ġnot es
Ġnot orious
Ġnot with
ĠH ost
ĠH igh
ĠH erc
ĠH oly
ch ool
ĠM asters
Ġfor n
Ġfor ces
ke y
ĠC y
ĠC her
ĠC old
ĠC arry
ĠC ursed
Ġwe ed
Ġwe al
ill ed
Ġe lo
Ġe bb
her ited
ent ious
ad o
ad em
ad ise
ri on
ri al
ri ef
ri eve
ĠO pen
ĠO bey
Ġst u
Ġst em
Ġst aff
ĠL am
ĠL od
ĠL eft
ĠF ill
ĠF ly
ĠF if
ĠF ran
ĠG old
ĠG rand
ĠG room
ght s
Ġre n
Ġre nt
Ġre nder
id d
id ing
ra ils
Ġli ar
Ġli qu
as y
as ing
as ures
ĠP ho
ĠP res
ĠP atri
ĠP AGE
ĠP haeth
ur vy
al ion
Ġso lic
Ġas semb
Ġde ceive
Ġde fect
ĠR o
ĠR ed
ĠR est
ĠR un
ĠR enown
ro p
ĠN ATH
ain ing
ver se
Ġdo ct
Ġdo ves
Ġdo ors
Ġno ses
ĠE nd
ĠE very
ĠE MILIA
ĠD ef
ĠD ION
ĠD irect
ĠD oricles
Ġse ar
Ġse qu
Ġall ay
Ġall ies
Ġsu ed
Ġsu ng
Ġsu nder
Ġsu gg
Ġsu gar
Ġher bs
Ġan sw
Ġan tic
Ġlo ins
Ġlo cks
ter ate
Ġsp ed
Ġsp ilt
Ġsp ices
Ġsp iders
Ġfa ction
th w
th ing
th row
Ġne gl
Ġkn it
Ġv i
Ġv ine
Ġv ig
Ġsh out
Ġsh ower
ant ime
qu et
ath om
Ġmu m
Ġmu ff
Ġwhe t
Ġwhe el
ĠWhat e
Ġam end
ic ial
ie l
Ġbl ister
Ġbl ade
ive red
ven ient
ĠFor th
ĠFor bear
ĠFor bid
Ġwas p
ol ar
ol ve
ĠHe ctor
Ġhat ch
AN IEL
Ġknow est
Ġcan n
Ġcan ker
Ġsay est
res sed
fe its
Ġor phan
pp et
pp ed
Ġus ing
Ġus ure
all el
Ġar ch
Ġar gu
Ġar bit
Ġun th
Ġun ple
Ġun rest
Ġwor shi
ĠAs s
Ġqu ake
Ġqu aint
el ting
Ġj ade
Ġgra ft
Ġmust y
Ġho le
ci p
ci ally
Ġpro cure
Ġmad ly
Ġmad est
Ġmad man
Ġpl ate
um s
um es
um ps
um ents
um ny
pe cially
ĠJ er
ĠJ un
ĠJ ust
ĠJ ud
Ġdis ting
Ġdis semble
Ġdis order
Ġpo x
Ġpo cket
ful ness
pt ory
Ġtru er
ĠThou ghts
Ġmar r
Ġmar ble
Ġmar iners
Ġr ats
Ġr ites
Ġr ising
ĠIn s
ĠIn fer
Ġal oof
Ġal to
Ġhea p
Ġhear s
ec her
ec hes
Ġab st
Ġab od
Ġex claim
Ġex act
Ġex perience
Ġfo ld
Ġfo il
Ġear l
Ġear ldom
Ġro de
Ġro cks
Ġlook er
erv ing
erv ation
ĠU rge
Ġri dd
Ġri pen
Ġri vers
tis ed
Ġwar n
Ġwar ning
Ġfl ame
Ġsl ack
Ġbre eding
ss es
Ġaf oot
ap able
iz ab
Ġra ges
Ġra sc
Ġra ging
Ġra iment
Ġpre c
Ġpre ced
Ġpre rog
Ġpray s
Ġcl ap
Ġsweet s
Ġper f
Ġple dge
Ġnoble man
Ġwr angling
Ġtr ades
Ġway ward
Ġhead strong
aw s
Ġpres erved
Ġsc our
Ġsc ru
ĠAn y
Ġqueen s
li p
Ġmo an
Ġchi val
Ġcont ri
Ġapp ly
Ġapp ell
Ġapp oint
Ġbeg ot
Ġarm ed
Ġim mediate
Ġma le
Ġrep lied
Ġrep roof
Ġrep ossess
Ġrep etition
lo ve
Ġlong est
Ġint ended
Ġcons pir
Ġcons orted
Ġcons umed
Ġpe rem
ff er
Ġle vy
Ġent ire
Ġent rails
Ġlie utenant
che lor
Ġtri ed
ĠPro f
Ġres ort
Ġres cue
Ġcomp osition
Ġpri vy
Ġcha f
Ġcha p
Ġcha ins
Ġcount ed
ft s
Ġpeace ful
Ġelse whe
ail ing
Ġback ward
Ġco z
Ġco al
Ġco als
Ġneed le
Ġneed less
Ġlady ship
Ġbra ved
Ġbra ss
Ġhigh way
Ġhusband s
Ġchan ges
Ġmind ed
Ġban quet
Ġche st
Ġshow ers
Ġconf er
Ġconf ines
Ġconf usion
Ġbri be
Ġcause d
Ġimp art
Ġimp ud
Ġimp ression
Ġimp atience
Ġimp atient
Ġimp ediment
Ġmist aking
Ġgl ories
Ġbod es
Ġlight ly
Ġlight ness
Ġbes eem
Ġnat ures
Ġpardon s
Ġunder ne
Ġunder go
Ġdev ice
Ġhapp ier
Ġkill ed
Ġfollow ing
Ġbus h
Ġfar m
Ġsun shine
Ġob st
iv al
Ġturn ed
Ġstre et
Ġstre am
Ġcomfort s
Ġcomfort able
Ġsleep s
Ġsleep y
itor ies
ĠHer ald
Ġatt ent
Ġfalse ly
Ġmatter s
Ġbo x
Ġbo on
Ġfight s
Ġfight ing
hold s
Ġprison ers
Ġmerc iful
Ġdan gers
mp h
mp et
Ġass ault
Ġdisc ords
Ġdisc harged
Ġstra it
Ġcommand ing
Ġdream t
ener ate
ken bury
Ġdare d
Ġget ting
Ġsister hood
Ġfoul er
vers y
Ġbreak ing
Ġaw ry
Ġmer rim
Ġden ial
Ġsupp ose
Ġsupp li
Ġrequ ires
Ġrequ ired
Ġbeat ing
Ġval ue
Ġtender ly
Ġfoot man
Ġwoe ful
Ġreturn ed
up on
Ġdeep er
Ġdeep ly
bl own
Ġcho p
Ġcold ly
Ġnurse d
Ġrec over
az on
Ġsuff ice
Ġpluck s
Ġair y
Ġsil ken
Ġjo cund
Ġpast ime
sh ining
Ġfast ing
Ġstrong ly
xt on
Ġfit ted
Ġposs essed
Ġinc onstant
Ġinf ring
Ġiss ued
Ġprof an
Ġprof its
pl ish
vo ke
vo ided
Ġdel ivered
Ġfore t
Ġfore st
Ġdiv ided
Ġdiv ines
Ġdiv ision
Ġpost erity
Ġmock ing
Ġmock ery
Ġresol ute
Ġcounsel s
Ġter rible
Ġmin strel
Ġtrib une
Ġtrib ute
Ġwhi pt
Ġharm less
Ġdraw s
Tw ill
Ġag reed
Ġdist ressed
Ġact or
Ġstir s
Ġstir ring
Ġaff right
Ġsign s
Ġbreat hes
Ġclose ly
Ġsk ulls
Ġforg iveness
Ġwis est
ĠBes hrew
Ġreg iment
Ġpoison ous
Ġcheer fully
Ġta x
Ġdire ful
Ġemb ra
Ġemb raced
Ġpay s
Ġsucc or
Ġmal ign
Ġdark en
ĠAr m
ĠAr ise
Ġbless ings
Ġble ed
Ġble eds
Ġpen ny
Ġinter change
Ġbro ad
Ġcap ital
Ġcap arison
Ġhur ried
Ġchamber lain
Ġcreat ed
Ġcreat ures
Ġcoward ice
Ġlim its
Ġpu ff
Ġpu ppet
Ġreb el
Ġreb uke
Ġscorn s
Ġwitness es
Ġins ulting
ĠMerc y
Ġscar let
ĠChrist opher
Ġid ly
Ġhide ous
Ġbeast ly
ĠGre gory
ĠJo in
Ġfill s
Ġstru mpet
Ġinj urious
Ġinj uries
Ġfam ish
ĠTw enty
ĠBel ike
Ġsole ly
Ġgovern or
Ġmut iny
Ġgrand father
Ġdrunk ard
Ġsch olar
Ġlust ful
Ġthreat s
Ġind iffe
Ġind irect
ĠMe asure
ĠMe antime
ĠEn ough
Ġsaf er
Ġpurs ued
Ġmount ing
Ġfe at
Ġcapt ive
ĠCons ider
ĠVer ily
Ġfoll ies
Ġcontr ad
Ġremed ies
Ġunderstand ing
Ġgent ler
ĠFl ore
ĠFl oriz
Ġdeg rees
Ġdemand s
ĠNe ighb
Ġgreet ings
Ġextrem est
Ġtriumph s
Ġscarce ly
pir ing
Ġba chelor
Ġfart hest
Ġfaint ly
Ġdwell s
Ġthro ats
Ġga it
Ġga ol
Ġga pe
Ġga oler
Ġchast ity
Ġchast isement
Ġmiser ies
Ġcondition s
Ġhung er
Ġfirm ly
Ġhol id
Ġbef al
Ġbef its
Ġincl ination
Ġrel ig
Ġunb orn
Ġunl awful
Ġboot less
Ġschool master
Ġfruit ful
Ġfeed ing
Ġstoop ing
ĠLove l
Ġnecess ary
Ġimport une
Ġcre ate
Ġdec ay
Ġknight ly
Ġknight hood
Ġshr ink
Ġshri ek
Ġfright ed
Ġround ly
Ġtreacher y
Ġassist ance
Ġdelight s
Ġutter ance
act ors
Ġloud er
ĠSha me
Ġstar ve
Ġamb ition
Ġjealous ies
Ġpersu asion
Ġer ror
Ġcal umny
Ġphysic ian
Ġbew are
Ġweight y
Ġsup reme
Ġadm ir
Ġpenit ence
Ġsolemn ity
Ġwol ves
Ġwond ers
Ġbas eness
Ġbud ge
Ġdi adem
Ġreward s
ĠRep ent
Ġcomb at
Ġpronounce d
Ġarg os
Ġtremb les
Ġpublic ly
whe lm
Ġmill ions
Ġmag ic
Ġhaz el
Ġmere ly
ĠCal ais
ĠEl izab
Ġapprehe ns
Ġgrey h
Ġcholer ic
Ġthorn s
Ġglo ves
ĠBra kenbury
ĠSe ize
Ġnobl er
Ġworthi ly
Ġadver tised
Ġperj ury
Ġwitch cra
Ġbraw l
Ġbraw ling
Ġcircumst ances
Th is
gl ass
Ġach ieve
Ġach ieved
Ġsy ll
Ġwing ed
Ġfun ction
Ġdiffe rence
Ġhor ror
ĠTar qu
ĠSm ile
ĠSix th
Ġfors ake
ĠCond emn
Ġevent s
Ġrece ives
ĠDare st
Ġvill any
Ġadmit ted
Ġclim b
Ġbegu ile
ĠAnti ates
gn ant
mong st
Ġtim eless
Ġwid ows
Ġnap kin
ĠAf fection
ĠCle omenes
Ġdeb ase
Ġsuper fl
ĠKn ock
Ġspl it
Ġvol ume
Ġdisgu ised
Ġscold ing
Ġcounc il
Ġcounc ils
Ġcurt ain
ĠAmong st
ĠBetw een
ĠBetw ixt
Ġbag gage
Ġhom age
Ġhig her
ĠAp othecary
ĠWr ite
Ġhaught y
ĠGree ce
ĠPerc y
Ġunfe igned
Ġcontro versy
Ġappea red
Ġrestra int
Ġbank rupt
Ġdrag on
ĠAtt end
ĠDisp atch
Ġtransp orted
Ġsau cy
Ġmour ning
Ġcent re
Ġpict ure
Ġsoci ety
ĠEm ilia
ĠEver more
Ġanch or
Ġshel ter
Ġrag ged
Ġsca pe
Ġimper ial
Ġrestore d
Ġlect ure
Ġsmil ing
Ġmerri ly
Ġinfer ior
Ġdivor ce
ĠWelsh men
Ġexped ition
Ġtroubl ous
Ġinsol ence
Ġconclud ed
Ġtestim ony
Ġreckon ing
eb us
Ġsand s
Ġcord ial
Ġpest ilence
Ġpup il
ĠTouch ing
ĠHar p
Ġug ly
ĠOver done
Ġash ore
Ġvul gar
Ġvass al
Ġamaz ement
oster ous
Ġcanop y
Ġplaint s
Ġdiso bed
Ġranc our
Ġnighting ale
Ġwhist le
Ġharl ot
Ġwelc omes
Ġterr itories
Ġpuiss ant
ĠAdv ance
Ġmedic ine
Ġacknow ledge
Gain st
iqu ity
Ġton ight
Ġsine w
Ġwester n
Ġfest ival
Ġfem ale
Ġcuck old
Ġlung s
Ġobt ain
Ġprun es
ĠBON A
ĠSUR REY
Ġnotwith standing
ĠHerc ules
Ġelo qu
ĠLod owick
ĠFif th
ĠFran cis
ĠGrand am
ĠPho ebus
ĠPatri cian
ĠPhaeth on
Ġsolic it
ĠNATH ANIEL
Ġvine yard
Ġalto gether
Ġrasc als
Ġpreced ent
Ġprerog ative
Ġperem ptory
Ġelsewhe re
Ġunderne ath
Ġmerrim ent
Ġindiffe rent
ĠFloriz el
ĠElizab eth
Ġapprehens ion
Ġwitchcra ft
' !
' --
A LIS
C I
F ore
G ood
H ear
I t
L U
M y
S oul
T y
T ell
W e
a v
a us
a very
a ving
a cious
b u
b on
b es
b at
b ri
b ast
b ook
b el
b red
b ham
b rain
c o
c r
c an
c as
c hard
c ats
c ued
d in
d is
d ent
d ra
d ur
d ro
d ict
d oor
e le
e ch
e ress
e ases
f ly
f end
f ty
f ix
f avour
g om
g her
g one
g ress
g ia
g ging
h ill
h ra
h oop
i as
i ge
i od
i ber
i able
i ction
i by
j ourn
l ord
l as
l ore
l ous
l ves
l orn
l ings
l ause
m y
m in
m ast
m ind
m ak
m ary
m ony
m inous
m ission
n it
n et
n ut
n el
o z
o ison
p se
p ter
p ho
p ol
p eak
p ence
p ire
p ress
p iece
p oses
r ings
r oop
s ong
s ick
s ia
s by
s po
s chool
t e
t on
t est
t ake
t ree
t ered
t sey
u ity
u bs
v ion
v ity
w h
w een
w ench
w orth
w arn
w omen
y ally
y mph
z water
Ġ &
Ġ Ġ
Ġt um
Ġt ire
Ġt atter
Ġt ides
Ġt unes
Ġt ales
Ġt eeming
Ġt umbling
he ar
Ġa u
Ġa qu
Ġa ust
Ġa ery
Ġa ches
Ġs ly
Ġs urn
Ġs ongs
Ġm ot
Ġm ow
Ġm ing
Ġm art
Ġm ap
Ġm ass
Ġm ute
Ġw ra
Ġw are
Ġw aning
Ġw alks
in et
in ance
in able
in ite
re ef
re ach
re ement
ha st
ha pp
nd ers
Ġb one
Ġb au
Ġb ind
Ġb ate
Ġb ust
Ġb ide
Ġb atter
Ġb ier
Ġb ale
Ġb ench
Ġb ash
Ġb ills
is c
is k
is le
Ġf en
Ġf ed
Ġf ut
Ġf ate
Ġf ence
Ġf ile
Ġf ester
Ġf ees
Ġf owl
Ġf ickle
Ġf athom
ĠI rish
er ate
er man
er ia
er whelm
ll a
it an
it che
on ce
on our
Ġd un
Ġd aint
Ġd ial
Ġd astard
Ġd aring
Ġd uteous
Ġd ainty
Ġc y
Ġc ot
Ġc ed
Ġc ri
Ġc as
Ġc ert
Ġc uff
Ġc ele
Ġn a
Ġn ea
Ġn erves
Ġn earer
Ġn iece
Ġn uns
Ġn ymph
Ġn inet
Ġl ain
Ġl ame
Ġl ass
Ġl aughter
Ġl az
Ġl echer
Ġy ard
Ġy ew
Ġy ellow
Ġth ra
Ġth rew
Ġth orough
Ġth reef
ar r
ar th
ar ks
ar ling
ar ated
Ġh ook
Ġh ilt
Ġh int
Ġh ounds
Ġh ills
Ġo x
Ġo st
Ġo ce
Ġo minous
Ġto ss
Ġto ys
Ġp he
Ġp ir
Ġp ith
Ġp oo
Ġp ul
Ġp ark
Ġp ens
Ġp otion
Ġp ines
Ġp als
Ġp iled
Ġp ortion
ĠT r
ĠT end
ĠT ong
ĠT akes
ĠT rem
ĠT iber
ĠA g
Ġhe n
Ġhe w
Ġhe al
ot ing
ot ed
st ood
st ool
an ge
an ous
an ks
Ġg le
Ġg ay
Ġg ir
Ġg ear
Ġg ilt
Ġg ild
Ġg orge
Ġg inger
at in
at han
at ory
at iate
Ġbe ho
ĠW or
ĠW ent
Ġin habit
Ġha b
Ġha ven
ce ives
le x
le ven
le hill
ld ren
ut o
ut us
ut ches
ĠB ore
ĠB ea
ĠB reat
ĠB ase
ĠB ret
ĠB rist
ĠB rand
ĠB anish
ĠB LU
im ple
ĠS ent
ĠS ad
ĠS el
ĠS orrow
ĠS land
ĠS eal
ĠS leep
ĠS ilence
ĠS ALIS
ĠH al
ĠH ard
ĠH ap
ĠH allow
ĠH ung
ch o
ch ild
ĠM eet
ĠM ab
ĠM ount
ĠM ere
Ġfor ms
Ġfor lorn
ke ep
ĠC ot
ĠC ut
ĠC ro
ĠC hi
ĠC are
ĠC arl
Ġwe b
ill e
Ġe g
Ġe l
Ġe w
Ġe gg
ent ing
ent ly
ri an
ri be
ĠO pp
Ġst y
Ġst art
Ġst all
Ġst age
Ġst uck
Ġst int
Ġst ew
Ġst ray
Ġst eter
Ġst ring
Ġst arts
Ġst rat
Ġk ern
Ġk enn
Ġk itche
ĠL ad
ĠL ess
ĠL ast
ĠL uke
ĠL ittle
ĠL ud
ĠL ift
ĠL ives
ĠL atin
ĠF er
ĠF ar
ĠF ound
ĠF RAN
ĠF ool
ĠF ellow
ĠG all
ĠG irl
ĠG iven
Ġre vers
Ġre lish
Ġre lease
Ġre vell
Ġre hear
ra ign
ly sses
Ġli ars
as hy
as ci
as ite
ĠP e
ĠP it
ĠP hi
ĠP il
ĠP ale
ur ity
ur ps
ur bs
ur ope
al o
al ty
Ġso ar
Ġso ber
Ġso lace
Ġas cend
Ġas piring
ĠR us
ĠR ag
ĠR ef
ĠR oss
ĠN ear
ĠN ight
ĠN ine
ĠN athan
AR L
ver ing
ĠY onder
Ġsha med
Ġdo l
Ġdo it
Ġdo ings
Ġno v
am i
ĠE xton
ĠE urope
ĠE ARL
ĠD ou
ĠD re
ĠD ion
ĠD ight
ĠD ie
ĠD ick
ĠD eep
ĠD ukes
us c
us ing
us ale
us ual
Ġse x
Ġse vent
if ter
ge on
ge al
ĠTh ither
ĠTh rong
Ġsu es
Ġsu lp
ĠTo ld
ĠTo gether
Ġher ds
ru ng
ru ised
Ġan t
Ġan gu
ter nal
ard ed
han ce
Ġsp ell
Ġsp ear
Ġsp urn
Ġsp ace
Ġsp aring
ell ows
Ġfa ils
Ġfa bric
th is
th ren
il ver
Ġkn ell
Ġkn ack
Ġkn avery
Ġv est
Ġv io
Ġv ap
Ġv ices
ct s
Ġwhat e
Ġsh ine
Ġsh outs
ul ation
ant ial
Ġup per
Ġgood man
qu is
qu al
qu ess
qu aint
qu iet
Ġmu se
Ġpr y
Ġman ly
Ġman acles
Ġman kind
Ġman gled
Ġat one
ĠV ar
Ġwhe res
Ġwhe els
Ġcon y
Ġcon ver
Ġcon vers
Ġcon vent
Ġam ity
Ġam ended
end om
ic ing
ic an
ic ide
ic ester
ble d
Ġshe pher
Ġshe ets
Ġbl ots
Ġbl asp
ven er
Ġgo est
ĠFor get
ĠFor rest
ĠFor give
em pl
em inate
are th
ol n
ol our
ĠHe len
Ġhat ches
ers ha
ers hire
res seth
Ġsw im
Ġsw ine
Ġsw ifter
Ġor chard
Ġbr ine
Ġbr ittle
pp er
Ġus age
od ity
Ġun ity
Ġun man
Ġun aw
Ġun lo
Ġun sc
Ġun ivers
Ġun usual
ig ation
hy me
Ġqu est
el iver
ĠWhe nce
Ġj ar
Ġj ump
Ġho ped
ci ble
ci pl
Ġpro ver
Ġpro duce
Ġpro ffer
Ġsa ils
Ġpl ent
um n
pe ople
ĠJ ames
ĠJ ule
Ġdis like
Ġdis hes
Ġdis posed
Ġdis loy
Ġdis eases
Ġdis cipl
Ġen roll
Ġen join
Ġen franch
Ġpo ll
Ġout st
Ġhow l
pt ed
pt ure
un ch
Ġtru dge
Ġhand le
Ġsome bod
ĠWe ep
Ġmar quess
Ġr ood
Ġr ings
Ġr ates
ĠIn f
ack et
Ġhear th
Ġab ility
Ġab uses
Ġex ha
Ġex ternal
Ġfo aming
Ġday light
Ġro d
Ġro ad
Ġro pe
Ġro gues
Ġro yally
Ġtell us
Ġwhere upon
ag ine
ag ate
age ms
ust ers
ĠU lysses
Ġri p
Ġri bb
ave d
Ġart icles
Ġart icle
Ġwar y
Ġfl our
Ġfl ag
Ġfl iers
Ġfl ayed
ĠMar iner
Ġsl ide
Ġsl anders
Ġfear less
Ġgreat ly
ĠBe g
ber y
ber ing
Ġbre thren
Ġfair ies
cc ess
cc ustom
ap es
ĠYour self
iz ard
ough by
Ġcall ing
Ġpart ake
Ġpart ial
Ġra w
Ġra rest
Ġra ze
Ġra bble
Ġad ul
Ġad orn
Ġad ult
Ġad der
Ġcomm it
Ġcomm odity
Ġpre gnant
Ġcl othe
Ġsweet en
Ġper used
Ġper chance
Ġper adventure
Ġper iod
Ġpres um
Ġpres ses
Ġpres cri
Ġsc ra
Ġsc are
Ġsc ars
Ġsc outs
Ġnight ly
ass ad
li ction
li vion
Ġmo ans
Ġmo lehill
Ġapp lause
Ġke en
Ġrem iss
Ġrem ote
per y
per or
per ation
ab b
ab our
ilt y
Ġrep aid
Ġrep rieve
Ġlong s
Ġlong ing
Ġint ends
Ġint erest
Ġlive ly
Ġcons ort
Ġcons ume
Ġcons erves
Ġmight ily
ĠSir s
Ġru b
Ġrest eth
Ġrest rain
Ġcrown ed
Ġpe ck
Ġpe asant
ff ic
Ġcour ses
Ġle vied
Ġent ers
Ġhar ms
Ġhar der
Ġtong ueless
ĠSt ir
ĠSt ep
ĠSt op
ĠSt af
ĠPro dig
Ġkeep ing
Ġsle nder
Ġres p
Ġres erved
Ġres idence
for ward
ious ly
Ġcomp ell
Ġhour ly
Ġend ow
Ġend ea
ret ion
Ġpri cks
ield y
Ġpur ged
Ġpur ses
Ġpur poses
Ġcha in
Ġcha ff
Ġsub orn
Ġsub sc
Ġsub mission
Ġsub urbs
Ġsm ack
Ġsm iled
Ġsm elt
ĠWill oughby
ason able
ect ed
Ġtra ged
Ġtra gic
Ġtra ffic
Ġco ats
Ġhus h
Ġtre ble
Ġneed y
Ġbra gg
Ġbra zen
Ġhel ms
Ġseem ed
Ġseem eth
Ġright ly
Ġche ers
Ġchar ms
Ġchar ters
Ġchar itable
Ġconf ined
Ġhands ome
Ġimp re
Ġimp ose
Ġimp osition
Ġserv ing
Ġmist ook
Ġgl ister
Ġfort night
Ġfort unate
Ġbring ing
Ġpass es
Ġplease th
Ġbes hrew
Ġbes iege
Ġthr ong
mb ling
Ġjust ly
Ġjust ify
Ġwrong fully
Ġhapp en
Ġplace d
ens ion
Ġeye b
Ġhelp ing
Ġless on
Ġbus ied
Ġfool ing
Ġch id
Ġch ides
Ġch ron
Ġsun s
Ġob dur
Ġob livion
ĠUn b
ĠUn c
ĠUn w
Ġcourt s
ject s
ĠAl one
Ġstri p
Ġstri de
Ġstri pes
Ġwoman ish
iv ity
ove red
Ġturn ing
Ġstre ak
Ġtalk ed
Ġhum ane
Ġover heard
Ġover throw
Ġbel ongs
Ġi bat
Ġbu ilt
Ġbu rial
Ġinst ance
Ġinst ead
Ġatt ach
Ġplay s
ĠWould st
Ġwel kin
Ġcountry man
Ġdan ces
Ġcur s
Ġcur bs
Ġsend ing
Ġdoubt ed
Ġdoubt less
Ġwish ing
Ġreason able
Ġdisc red
Ġdisc reet
Ġdisc overy
Ġdisc retion
Ġstra in
Ġbreath s
Ġcommand ment
Ġgi ant
Ġstran g
Ġsec urity
Ġsen is
Ġwind ing
Ġremem be
ĠSu b
ĠSu ff
Ġswear ing
Ġtend ing
Ġdep th
Ġgre ed
Ġgre ets
Ġkiss ing
Ġaw e
Ġaw ful
Ġtem perate
Ġsupp le
ey ed
Ġcar rion
Ġrequ ite
Ġrequ ital
Ġspo ils
Ġlam p
Ġmet e
Ġsoon est
ĠJul ius
ĠSp oke
Ġfoot ing
Ġwarrant s
Ġsad dle
ĠPl ain
ĠPl ace
ĠPl uck
ĠPl ashy
Ġreturn s
Ġmarry ing
Ġthrough ly
Ġcho ke
Ġcold er
ĠMont gom
Ġrec ount
Ġstrange ly
Ġask ed
Ġpluck ed
ĠWh ite
Ġbat s
Ġdesire d
Ġentreat ed
Ġinstru ctions
Ġord ain
Ġord inance
ĠSen ators
Ġvis or
ixt ure
Ġwear ing
ĠGl ad
Ġquick en
Ġhard y
Ġwoo ers
Ġfit ter
Ġfit ting
Ġopen ing
Ġbec ame
ĠSee king
Ġexec ut
Ġinc ur
Ġinc apable
Ġinf irm
Ġinf ancy
Ġinf amy
Ġinf lu
Ġinf inite
Ġiss ues
Ġdeli very
Ġquar re
Ġprof ound
vo c
Ġpar le
Ġpar ch
Ġpar cel
Ġpar adise
Ġpar lous
Ġpar asite
ĠBec ome
Ġspeed ily
Ġstreng then
cess ion
Ġfore run
Ġfore father
Ġdiv ide
Ġpost s
Ġpost erns
ĠPr oud
ĠPr inces
Ġshort en
sc ore
sc aped
Ġve he
Ġtit les
Ġwhi pped
Ġwonder ing
Ġbit es
Ġbit ing
Ġseek ing
Ġmurder ing
Ġag ony
Ġag reement
Ġwatch ful
Ġdist rib
Ġdist inct
Ġdist emper
Ġchange ling
Ġact ing
Ġwast ed
ĠTran s
Ġstir ru
Ġcloud ed
Ġenter ing
Ġenter pr
Ġsign ories
Ġdr inks
Ġpra ised
Ġgar lic
Ġbegg ing
Ġbegg ary
Ġdeliver ance
Ġsk in
Ġsick ly
ĠCh urch
Ġorder ing
Ġorder ly
Ġwis hes
ĠLORD S
Ġreg ion
Ġreg reet
Ġconsul s
Ġcheer ful
Ġfour th
Ġdu g
Ġdu cats
Ġcr ad
Ġcr imes
Ġcr utch
Ġcr utches
Ġliber ties
Ġsoft en
Ġsoft ly
ĠRe vol
vern s
Ġenc omp
Ġenc ourage
Ġmove ables
Ġbegin ning
Ġconsent ed
Ġfrown ing
Ġfeast ing
Ġgro ve
Ġexp ost
chan ging
Ġest ab
hem atic
Ġmal icious
Ġbar b
Ġbar r
Ġbar gain
Ġdro pp
Ġdark ly
ĠAb bot
ĠAb hors
Ġspeech less
Ġvict orious
Ġbrief ly
Ġpen ury
Ġgot ten
Ġinter cept
Ġinter cession
Ġev ident
Ġsum mon
Ġrespect s
Ġcompl ices
Ġvisit ing
so e
Ġbro ils
Ġcap able
Ġworship ful
Ġfres her
Ġfres hest
Ġcreat ion
Ġlim b
Ġopp osed
Ġviol ate
Ġappro aches
Ġlead er
ĠStand ing
Ġpatient ly
Ġlament ations
Ġbawd y
Ġcle ft
Ġlack s
Ġlab oured
ĠBl ood
ĠBl ind
ĠBl ack
ĠBl ush
ĠMerc ury
Ġeat ing
ĠThink ing
Ġunw ill
ĠChrist endom
ac key
Ġsur m
Ġsur ly
Ġsur vey
ĠCon st
Ġbirth s
Ġcertain ly
Ġpain ful
ĠAd am
ĠAm azon
ĠBr ought
ĠEx cept
Ġfavour able
Ġproceed ing
Ġtor ches
Ġtor ments
Ġshi ft
Ġwild ly
Ġca us
Ġinj ured
Ġur ging
Ġpleas ures
gg ard
Ġap othecary
Ġsho ck
Ġmed itation
Ġem ulation
Ġdoom s
Ġunc ertain
Ġcontin ued
ĠEnglish man
Ġmut inies
Ġlan e
Ġsteal ing
Ġref uge
Ġtemp or
bb orn
Ġdrown ing
ĠMe aning
Ġeffect s
Ġsto le
ĠEn force
ĠEn vir
Ġswift ly
Ġdesperate ly
Ġpurs ues
Ġdouble t
Ġcounter mand
Ġcounter po
Ġauthor ities
Ġbastard y
Ġfru its
Ġcorn ers
Ġeld ers
Ġstud ies
Ġstud ied
Ġsever ity
Ġenjoy s
Ġwretched ness
Ġbeggar ly
Ġgent ry
Ġdeg enerate
ĠHeaven s
Ġba it
Ġdwell ing
Ġcustom ary
Ġbutcher s
Ġunf it
Ġadd ed
Ġprivate ly
Ġver ge
Ġver ity
Ġwag on
Ġrel ation
Ġrel ieve
Ġdeal ing
Ġshore s
Ġarri val
Ġunp re
Ġsmo king
ĠShow ing
Ġprophe cies
att ling
Ġstab bed
ĠLo ved
Ġspe eches
Ġnecess ities
Ġproof s
Ġprevail s
Ġjoint ure
Ġembrace ments
Ġinnocent s
Ġes c
Ġes pecially
Ġed ict
Ġdri ven
Ġcre eping
Ġele ction
Ġele ments
Ġdec ree
Ġdec rees
Ġsail ors
Ġplot ted
Ġprofess ion
rehe nd
Ġball ads
Ġdet ested
ĠRes cue
Ġamb ush
Ġamb assad
Ġoffend ers
Ġheav iness
Ġheav ily
Ġpersu aded
Ġexpress ly
Ġband y
Ġbond s
Ġbond age
Ġcal f
Ġcens ured
Ġphysic ians
Ġbew ray
Ġbew itch
Ġvan qu
Ġvan ish
Ġdesert s
Ġaffect ed
Ġlean ness
Ġaccus ations
Ġpetition s
Ġpunish ment
Ġbas il
Ġfee ble
Ġfashi ons
Ġdi vers
Ġpi kes
ĠBear ing
ĠCo bham
ĠRep air
Ġsep arated
Ġcomple te
Ġarg ument
Ġarg uments
Ġrose mary
Ġadvance ment
Ġtemper ance
ita e
Ġhost ess
Ġgru b
ĠSet ting
Ġshun n
Ġblock s
Ġung entle
Ġqual ity
Ġqual ities
Ġqual ify
Ġalter ation
Ġconsider ing
Ġcompan ions
Ġmaiden head
Ġvex ation
Ġwait ing
Ġdirect ly
Ġing rateful
Ġmor sel
Ġdig est
Ġthorn y
Ġglo ve
ĠBra ve
Ġmelt ed
ĠSe bast
Ġwealth y
Ġspr ites
Ġworthi er
Ġworthi est
Ġjew els
Ġdisper se
Ġens ue
Ġenforce ment
Ġclam orous
ĠPlay er
Ġaffli ction
Ġsy mp
Ġsal ute
Ġmir ror
Ġfi ends
Ġdim m
Ġdiffe ren
Ġcere mony
Ġlin en
Ġhor rible
Ġport s
ĠAcc ursed
ĠSm all
Ġfors ook
ĠCond ition
Ġrece ipt
Ġreck less
Ġvill anous
Ġmanif ested
Ġune ven
Ġunjust ly
Ġdisple ased
Ġflood s
Ġbegu iled
Ġresist ed
Ġhelm ets
Ġreconci led
Ġcomplaint s
Ġcomplex ions
bod ing
rat itude
Ġtim orous
Ġmess age
Ġbon ny
Ġbon net
Ġbuck le
Ġline al
ĠAf ric
ĠAw ake
ĠAw aked
Ġstumble d
Ġsham eless
ĠKn ows
Ġspect acle
Ġspect ators
Ġfact ious
ĠVal ent
ĠVal eria
Ġdisgu ise
Ġeng ross
Ġcoff in
Ġcoff ers
Ġgrat is
Ġincen se
Ġinnoc ency
Ġacquaint ance
sha pen
we igh
Ġtou cheth
Ġtro d
oubt ed
Ġmat hematic
Ġfret ting
ĠIm agine
Ġnet tle
Ġlur k
Ġlur king
Ġthirst y
Ġhom icide
Ġhig hest
ĠAp ril
ĠWit ness
ĠWit hal
ĠCast le
ĠGu ild
ĠPerc hance
Ġdece ased
ĠDel pho
Ġblast s
Ġhop eless
Ġflint y
Ġprep aration
Ġprep osterous
Ġcontro l
Ġsubd ue
Ġsubd ued
Ġtren ches
Ġtren cher
Ġbeaut ies
Ġbeaut iful
Ġsacrif ice
Ġlengthen s
Ġtransp ort
Ġsess ion
Ġpor ter
Ġpaint ing
Ġgn aw
Ġgam ut
Ġgains ay
ĠSus an
ĠHon est
ĠFit zwater
Ġspot ted
Ġgoss ips
Ġuna voided
Ġuna ccustom
Ġunre vere
Ġprodig y
Ġprodig al
Ġdisin herit
Ġdisin herited
Ġabund ant
Ġabund ance
Ġrobb ers
ĠQu ick
Ġaccom plish
Ġobsequ ies
Ġbuzz ard
Ġattorney s
Ġdroop ing
Ġdetest able
Ġfantast ic
Ġfantast ical
ĠPersu ade
ĠPersu ades
do ing
tin ent
wear y
Ġmas qu
Ġbul k
Ġfif ty
Ġcro pp
Ġcushi on
Ġyester night
Ġpow der
ĠAc quaint
ĠWest min
Ġinvent ion
ĠChe er
Ġeff eminate
Ġstink ing
Ġresemb lance
ĠPurs uivant
Ġdeform ity
Ġdole ful
ĠEr r
Ġbutter fly
ĠDest roy
Ġann oy
Ġancest ors
Ġspark ling
Ġplan et
Ġdissemb ling
Ġrhe um
Ġrig our
Ġcler gy
Ġeverlast ing
Ġrum our
Ġaccomp any
Ġchamp ion
Ġconfeder ate
Ġafterward s
Ġobsc ured
ĠHapp ily
Ġcrim inal
Ġsumm ers
Ġinsinu ate
Ġunluck ily
Ġunpro vided
Ġmagist rate
Ġlinea ments
Ġsurpr ised
Ġmoment ary
pret ation
wit hal
Ġtur tle
Ġtink er
Ġtreat y
Ġav ouch
Ġmant le
Ġfilth y
Ġder ived
Ġdil igence
Ġdrows y
Ġcand le
Ġthres hold
ĠTur ks
Ġbeet le
seem ing
Ġinve terate
Ġinherit ance
imo is
ĠHost ess
Ġforn ication
ĠCher tsey
Ġstu bborn
ĠLam mas
Ġassemb ly
ĠRed eem
ĠRenown ed
Ġvig our
ĠForth with
Ġcann ib
Ġorphan s
Ġusure r
Ġunple asing
Ġworshi ps
ĠAss ist
ĠJer usale
ĠJun o
Ġdisting uish
Ġexclaim s
Ġprec ise
Ġscour ge
Ġchival ry
Ġappell ant
Ġimmediate ly
Ġconspir acy
Ġchaf ed
Ġsuppli ant
Ġinfring e
Ġforet ell
Ġminstrel s
Ġembra ces
Ġmalign ant
Ġargos y
ĠTarqu in
Ġeloqu ence
CI SC
Hear t
Soul s
Ty balt
bes eeming
ige ia
mind ed
mak ers
oz ine
Ġtum ult
Ġaqu a
Ġsurn ame
Ġbau ble
Ġbust le
Ġbatter y
Ġbash ful
Ġfut ure
Ġnea rest
Ġninet een
Ġlaz y
Ġthreef old
Ġpoo rest
ĠTong ue
Ġgir ls
ĠBreat he
ĠBrist ol
ĠBrand on
ĠBLU NT
ĠSALIS BURY
ĠHal f
ĠHallow mas
ĠMere ly
ĠCro sby
ĠChi ldren
ĠCarl isle
Ġsteter at
Ġstrat agems
Ġkenn el
ĠLud low
ĠFRAN CISC
asci vious
ĠPhi lip
ĠRus sia
ĠRag ozine
ĠNathan iel
ĠDight on
Ġsulp hur
Ġangu ish
Ġvio let
Ġshepher ds
Ġunaw ares
Ġdisloy al
Ġsomebod y
Ġadult eress
ĠStaf ford
Ġsubsc ribe
Ġobdur ate
Ġremembe red
ĠMontgom ery
Ġinfirm ity
Ġdistinct ly
Ġenterpr ise
ĠAbhors on
ĠSebast ian
Ġmathematic s
ĠDelpho s
ĠWestmin ster
ĠJerusale m
' m
' ve
A n
A las
B less
C ome
C itizen
C oriol
C ourage
C harge
E AS
F aith
H ow
H ER
H ave
H old
H EY
H RI
L L
L o
M EN
N o
O V
R ome
R em
S ir
S ic
T han
T rue
V er
W hen
W hoop
Y ea
a it
a led
a cheth
b ion
b out
b ol
b ary
b ishop
c re
c er
c ke
c row
c reat
c ence
c orn
c old
c ass
c ont
c up
c ures
c ontent
c ote
c erity
d ish
d ges
d oubt
d eliver
e v
e ing
e ce
e ath
e ction
e xt
f es
f ast
f ond
f ig
f ied
f ellows
g ent
g ess
g entle
g ger
g ier
g ars
g ments
g oose
g ression
h ow
h um
h ings
h onour
i i
i pher
i ency
j urious
k y
k fulness
l ay
l ant
l ive
l ate
l ies
l ave
l ars
m o
m or
m od
m ple
m atch
m erc
m ark
m ock
m usic
m mer
m outh
m asters
m uch
m aker
n z
n ard
n ant
n ity
n ock
n ey
o b
o at
o il
o ise
o ever
o gy
p he
p it
p ar
p an
p ur
p ore
p ate
p ile
p ray
p oint
p ired
p ointed
p ortion
r ine
r ound
r ates
r ons
s u
s erv
s orrow
s uck
s imple
s ilver
t ri
t ong
t age
t ide
t erest
u x
u gh
u ct
u el
u ance
u ft
u ities
u cing
u iced
v ors
v iol
v ial
v als
v ille
w ould
w ood
w est
w ind
w all
w hy
w orn
x y
x com
y r
y ou
y ers
y ves
z es
z alo
Ġ :
Ġ ess
Ġ --
Ġ ounce
Ġt ha
Ġt ar
Ġt esty
Ġt ush
Ġt ithe
Ġt ires
Ġt aming
Ġt ilth
Ġt ables
Ġt alks
Ġt abour
Ġt uft
he ir
he th
he art
he res
he ads
he arts
Ġa ed
Ġa ut
Ġa us
Ġa che
Ġa pes
Ġa vail
ou ched
ou rest
Ġs ce
Ġs out
Ġs ci
Ġs ip
Ġs ainted
Ġs ize
Ġm am
Ġm oth
Ġm ol
Ġm aw
Ġm alm
Ġm att
Ġm akest
Ġm ature
Ġm usc
Ġw ive
Ġw ool
Ġw ield
Ġw ip
Ġw aded
in c
in it
in ent
in est
in ter
in ant
in ish
in ence
in ary
in ions
re ction
re cy
re gia
ha pen
Ġb al
Ġb out
Ġb ower
Ġb ough
Ġb ull
Ġb led
Ġb iss
Ġb its
Ġb ars
Ġb aked
Ġb orough
Ġb ias
Ġb unch
is it
is ans
is heth
or a
or o
or able
or ks
or ged
or por
Ġf ay
Ġf el
Ġf ust
Ġf ert
Ġf ade
Ġf ours
Ġf ined
Ġf ume
Ġf urious
Ġf aded
Ġf ishes
Ġf idd
Ġf uel
ĠI ng
ĠI ron
er al
er th
er ry
er ick
er ness
er bear
er sey
er ween
it le
it ter
it ic
it ied
it ud
it ary
it ution
it tering
on zalo
Ġd ul
Ġd art
Ġd ive
Ġd au
Ġd all
Ġd ough
Ġd ates
Ġd irt
Ġd aunt
Ġd ump
Ġd ally
Ġd iff
Ġd awn
Ġd aff
Ġd arts
Ġd umps
Ġc u
Ġc od
Ġc el
Ġc oy
Ġc ull
Ġc able
Ġc akes
Ġc ured
Ġc ats
Ġc ures
Ġc ities
Ġc amp
Ġc ipher
Ġn ut
Ġn im
Ġn ation
Ġn urs
Ġn uts
Ġl a
Ġl ure
Ġl ime
Ġl ag
Ġl ave
Ġl atter
Ġl ump
Ġl ackey
Ġl itter
es nes
en ious
Ġth igh
Ġth rows
Ġth imble
ar allel
ar bary
Ġh ound
Ġh ild
Ġh ides
Ġh oop
Ġh unts
Ġo il
Ġto t
Ġto re
Ġto es
Ġto kens
Ġp s
Ġp ly
Ġp ea
Ġp ru
Ġp out
Ġp ond
Ġp ence
Ġp ies
Ġp ins
Ġp ile
Ġp ars
Ġp onder
Ġp ump
Ġp ip
Ġp elting
Ġp hra
ĠT or
ĠT hi
ĠT ast
ĠT ick
ĠT ears
ĠT aking
ĠT read
ĠT roth
ĠT IT
ĠT emper
hat ing
ĠA ut
ĠA im
ĠA llow
ĠA lex
ĠA LL
Ġhe nt
Ġhe wn
Ġhe ated
Ġhe arers
ve x
ve ls
ot ent
ot less
ot che
ot hed
ot ions
ot pan
st it
st al
st ain
st ones
st aring
ow ing
an ed
an ied
an ched
om y
om ed
om est
om inable
Ġg as
Ġg ore
Ġg est
Ġg un
Ġg ale
Ġg ird
Ġg iv
Ġg ees
Ġg ames
Ġg azed
Ġg illy
Ġg asp
Ġg hast
Ġg yves
at al
at tle
at isf
Ġbe ck
Ġbe am
Ġbe de
Ġbe ards
Ġbe headed
Ġbe mo
ĠW ot
ĠW ood
ĠW ear
ĠW ond
ĠW ish
ĠW ise
ĠW rong
ĠW orth
ĠW rench
ĠW ords
ĠW ipe
se c
se ed
Ġin her
Ġin de
Ġin ches
Ġin vest
Ġin forced
Ġin ex
Ġin hum
Ġha l
Ġha y
Ġha ck
Ġha unts
Ġha ggard
Ġha mmer
ce ase
ce mber
ce iving
le ad
le cted
ay nard
ld st
ir y
ir and
et ry
ed ic
ut or
ut ish
ut iful
ĠB u
ĠB ro
ĠB ER
ĠB are
ĠB een
ĠB less
ĠB rief
ĠB arbary
ĠB aynard
Ġme as
Ġme ek
im y
im er
im on
ĠS k
ĠS n
ĠS ed
ĠS ith
ĠS her
ĠS ea
ĠS out
ĠS ure
ĠS um
ĠS ister
ĠS ham
ĠS orry
ĠS afe
ĠS imois
ĠS igeia
ith met
Ġnot able
Ġnot hings
ĠH our
ĠH oo
ĠH ouse
ĠH over
ĠH ann
ĠH acket
ĠH ugh
ch ion
ch bishop
ĠM an
ĠM am
ĠM ond
ĠM ort
ĠM atter
ĠM aid
ĠM ortal
ĠM ops
ĠM EAS
ĠM irand
Ġfor k
Ġfor ged
Ġfor ges
Ġfor feits
Ġfor fend
ke eping
ĠC or
ĠC our
ĠC ra
ĠC han
ĠC ARD
ĠC rown
ĠC ull
ĠC ret
ĠC ount
ĠC ertain
ĠC oun
ĠC uts
ĠC HRI
Ġwe an
Ġwe alt
Ġwe eks
oo ing
oo ch
oo sing
ill ius
ill ars
Ġe aster
Ġe ats
Ġe pit
Ġwith holds
her s
her ds
Ġit ch
ent ation
ad d
ad ition
ri d
ri p
ri us
ri de
ri vener
ĠO ly
Ġst am
Ġst if
Ġst ake
Ġst ings
Ġst ee
Ġst ation
Ġst ates
Ġst air
Ġst ains
Ġst ony
Ġst aves
Ġst umbling
Ġk ersey
ĠL ed
ĠL im
ĠL and
ĠL ight
ĠL ist
ĠL earn
ĠL aid
ĠL ament
ĠL iby
ĠL ascivious
ĠL OV
Ġhis s
ĠF a
ĠF e
ĠF an
ĠF ur
ĠF ore
ĠF am
ĠF ast
ĠF ine
ĠF ree
ĠF red
ĠG ro
ĠG ave
ĠG rim
ĠG rief
ĠG onzalo
Ġre el
Ġre ins
Ġre ek
Ġre voke
id s
id ity
id eth
id els
ra v
ra ve
ra wn
ra ise
ra ins
ra ham
ra ught
ra med
ra cted
ĠThe e
Ġli ver
Ġli br
Ġli cence
as hing
as sed
as ury
ĠP en
ĠP ed
ĠP ur
ĠP ast
ĠP ity
ĠP ass
ĠP ier
ĠP ret
ĠP oison
ĠP otpan
ur l
al us
al ian
Ġso l
Ġso ps
Ġso ever
Ġso othing
Ġso othe
Ġas ks
Ġas under
Ġas semble
Ġde em
Ġde ity
Ġde ign
ĠR ain
ĠR oy
ĠR ec
ĠR ise
ĠR age
ro b
ro ve
ro ses
ro ying
ĠN ea
ĠN ort
ĠN ew
ĠN eed
ĠN ican
hi c
hi ly
hi ps
ck ed
ck ets
ĠY orks
Ġsha ped
Ġwill ow
Ġdo ers
Ġdo ff
ea f
Ġno st
Ġno dd
Ġno isome
am our
am ine
ĠE s
ĠE mb
ĠE thi
ĠE arth
ĠE leven
ĠE cho
ĠD i
ĠD ay
ĠD one
ĠD ry
ĠD ig
ĠD ull
ĠD aughter
ĠD uring
ĠD eny
ĠD rop
ĠD rawn
us pect
us hed
Ġse w
Ġse ed
Ġse mb
Ġse ats
Ġse als
Ġse eds
Ġse lves
if s
if ies
if icial
ge nders
Ġall y
Ġall ied
and on
ĠTh rew
Ġsu ms
ĠK ill
ĠK ings
ĠK iss
ĠK ates
ĠK illing
Ġlo gs
Ġlo sing
Ġlo lling
Ġlo gger
ter n
han kfulness
Ġsp ies
Ġsp ran
Ġsp ray
Ġsp right
Ġsp awn
Ġsp acious
Ġsp arks
Ġsp rung
ell ist
th ou
th ree
th read
il ess
il ities
il iments
Ġne cks
Ġne phe
Ġkn ots
ho d
ho lesome
Ġv all
Ġv ail
Ġv aunt
Ġv ouchsafe
Ġv ouches
Ġv izard
Ġv itae
ast ed
Ġsh y
Ġsh in
Ġsh ining
ant ing
Ġup holds
qu er
qu es
qu ent
qu ire
art ing
Ġcom for
ath s
ath y
Ġmu dd
Ġpr one
Ġpr atest
Ġpr ank
Ġpr oro
Ġpr attle
Ġman ors
Ġman sion
ĠV ince
ĠV AU
ĠV ile
ĠV isit
one ly
one ous
Ġcon n
Ġcon v
Ġcon gea
Ġcon venient
Ġcon geal
ĠWhat ever
Ġam ple
Ġam ount
Ġam pl
ic s
ie ving
Ġshe er
Ġshe et
Ġshe ath
Ġshe arers
Ġbl ench
Ġbl oss
Ġbl ushes
Ġbl ank
Ġbl anks
ven ged
ĠFor s
ĠFor ce
ĠFor ward
ĠFor sw
ĠFor ced
em ning
em ents
em aker
em pore
au cas
are ll
are well
ol ate
ol ation
ol ution
ol ogy
ĠHe ld
ĠHe ir
Ġhat es
Ġthere on
Ġthere withal
Ġcan on
Ġcan cell
ond am
ate ful
fe w
fe red
Ġsw an
Ġsw ept
Ġsw arm
Ġhere of
Ġhere tic
Ġlove th
Ġlove lier
Ġor b
Ġor ison
Ġor ators
Ġor ange
Ġor atory
Ġbr ood
Ġbr ats
Ġbr utish
Ġbr ooch
pp ers
Ġus est
Ġus ual
Ġus urps
all ible
Ġar rog
Ġar raign
Ġar ithmet
od y
od es
od ils
Ġlet har
Ġlet ting
Ġun res
Ġun able
Ġun sw
Ġun hall
Ġun fort
Ġun king
Ġun po
Ġun set
Ġun advised
Ġun govern
Ġun happ
Ġun quiet
Ġun people
ig m
ig s
ig en
ig ate
ig ree
ink le
ort s
ort ive
ĠAs k
ĠAs cend
Ġqu aff
Ġqu ondam
el ier
Ġj ay
Ġj ars
Ġj aunt
Ġj ades
KE LEY
Ġgra ver
Ġgra ins
Ġgra vity
reat ion
ak eth
ound ing
Ġho ard
Ġho ping
Ġpro ves
Ġpro li
Ġpro pose
Ġpro bation
Ġpro long
Ġpro gress
Ġsa ves
Ġsa ving
Ġsa vour
Ġsa vours
Ġmad men
Ġpl ight
Ġpl ough
Ġpl ots
Ġpl ume
Ġpl agues
um ing
um bly
pe er
ĠJ oy
ĠJ ew
Ġdis b
Ġdis li
Ġdis pose
Ġdis fig
Ġen cl
Ġen vir
Ġen genders
Ġpo ets
Ġpo etry
Ġout side
Ġfri vol
Ġhow ling
pt on
un ction
de ath
de cess
Ġhand led
Ġhand ker
Ġwho ever
ĠWe igh
ĠWe eping
ign ation
Ġmar ches
Ġr ar
Ġr at
Ġr ite
Ġr ounds
Ġr ayed
Ġr hyme
ĠIn c
ĠIn st
ĠIn ter
ĠIn cl
ĠIn iquity
ĠIn jurious
ĠIn quire
Ġoff icious
ist s
ist ed
har m
wn ess
ĠOf t
Ġhea ved
Ġhea ps
Ġhear ken
Ġhear kens
Ġblood s
Ġab ound
Ġab ides
Ġab ominable
Ġab andon
Ġab ortive
Ġex iled
Ġex amp
Ġex cels
Ġfo em
Ġfo ison
Ġear ls
Ġro e
Ġro be
Ġro ots
Ġro ared
ĠHow e
Ġey ed
ĠQ uit
ag on
ag ion
ag ab
ag ued
Ġdes iring
Ġdes erving
Ġdes peration
Ġgentle women
ĠU s
Ġri ot
Ġri ce
Ġri ft
Ġri der
Ġri cher
Ġri bs
Ġri val
Ġri vals
ave l
Ġart s
Ġart ificial
Ġwar p
Ġhonour ably
Ġfl ing
Ġfl out
Ġfl ap
Ġfl ung
ĠMar quis
Ġsl ower
Ġsl umber
Ġsl ug
Ġsl avish
ĠWhere by
urn ed
urn ish
Ġtw in
Ġtw os
Ġtw igs
Ġhast ily
ĠWho ever
Ġbet ake
Ġcou ch
Ġcou ched
ĠBe hind
ĠBe gg
ber ate
ber ries
Ġbre eder
Ġbre ech
Ġaf ire
Ġaf resh
ap ert
igh ing
Ġmen ace
aster y
ĠIt alian
Ġpart isans
Ġany thing
Ġra m
Ġra v
Ġra pt
Ġra ged
Ġra gs
Ġra ising
Ġra zed
ST OP
Ġad ds
Ġad mon
ree ch
Ġcomm une
Ġpre dom
Ġpre cept
Ġpre cip
Ġpre nz
Ġpre decess
Ġstand ers
Ġstand ards
Ġpray ing
Ġpray ed
Ġcl out
Ġcl oth
Ġcl ime
Ġcl oy
Ġcl os
Ġcl ient
Ġcl ip
Ġcl ang
Ġcl utch
Ġcl ubs
Ġcl usters
Ġsweet ing
Ġper ch
Ġper fid
Ġper ceives
Ġper tinent
ouse d
ĠThere in
ĠThere on
ĠThere of
Ġhead long
aw d
Ġmean est
Ġpres ag
Ġpres ervation
Ġsc ale
Ġsc ared
Ġsc athe
Ġsc urvy
ĠAn ointed
aint ies
ger y
li est
ĠLet ters
Ġmo ons
Ġcont ain
Ġcont end
Ġcont ains
Ġcont empl
Ġcont racted
Ġcont agion
Ġapp le
Ġapp each
Ġrem nant
per ly
ab s
ab y
ab outs
Ġbeg n
Ġbeg s
Ġgrace ful
Ġgrace less
Ġunt r
Ġunt aught
Ġunt ainted
Ġunt hankfulness
ress ing
Ġeyes ight
Ġma im
land ers
ran ge
Ġrep len
Ġrep roach
Ġrep rehend
INA L
lo cks
sw eet
sw oln
ĠShe d
Ġchild hood
Ġwom bs
Ġcons ents
Ġcons pire
led ged
Ġru ng
Ġru ff
Ġru bs
Ġru bb
Ġrest ing
Ġrest less
Ġpe ep
Ġle ather
Ġle ash
Ġent ail
Ġhar p
uck le
erc harged
Ġset ter
Ġset ting
che st
che ss
ors hip
Ġbetter s
ĠSt abb
rant s
Ġwit less
Ġwit ty
Ġtri dent
Ġtri vial
me ant
ĠPro v
ĠPro vo
ĠPro cure
ĠPro vided
ĠPro portion
os sed
Ġsle eve
Ġsle eves
Ġbest ir
Ġbest rew
Ġres cued
Ġacc ent
Ġacc ents
Ġacc ustom
Ġgri pe
Ġcomp et
ĠNot e
ĠNot ice
Ġend less
Ġkind le
Ġkind est
Ġtwo fold
ont ed
Ġpri g
ud ing
Ġpur g
Ġpur ity
Ġpur bl
Ġcha os
Ġsub s
Ġsub mit
Ġcount s
cl oth
Ġgu ide
Ġgu ile
Ġgu ides
Ġsm ear
Ġsm ock
Ġtra ck
Ġtra ined
Ġtra vel
Ġtra mple
Ġco g
Ġco in
Ġco il
Ġco ven
Ġco vet
Ġco cke
Ġco xcom
Ġtre ads
Ġtre asures
Ġtre asury
Ġfind ing
Ġdre gs
Ġbra ke
Ġbra ving
ray be
Ġhigh ly
Ġhusband ry
Ġright eous
Ġchan ts
Ġchan nel
tw enty
Ġban ns
ach ing
Ġche at
Ġche ques
Ġchar ter
ĠDo ing
ĠDo gs
Ġshow ing
Ġconf ine
Ġconf li
Ġconf essed
Ġconf ounds
Ġconf ident
Ġbri ck
Ġbri ers
Ġbri dle
fort able
Ġimp ute
Ġimp iety
Ġimp lore
Ġserv itor
Ġmist a
Ġlaw less
Ġlaw yers
Ġgl ance
Ġgl ittering
Ġevery thing
Ġdou bly
Ġpass ages
Ġpass ado
Ġlight ed
Ġlight ens
Ġbes eeming
Ġnat ivity
Ġthr ongs
ĠOur selves
Ġjust ices
Ġjust ified
Ġpardon ing
Ġunder stood
Ġdev out
Ġdev ised
Ġdev oted
Ġmis led
Ġmis deed
Ġmis pl
Ġmis be
Ġmis adventure
Ġmis doubt
Ġlast s
Ġlast ly
ens ible
Ġstate ly
Ġcare er
Ġcare fully
Ġmeet s
Ġkill s
Ġkill ing
Ġhelp ed
Ġfal ter
Ġfal chion
Ġless en
Ġless ons
ĠEng age
Ġanswer ing
Ġfollow ed
Ġfar mer
Ġfool ery
Ġch in
Ġch oosing
Ġch url
Ġhither ward
Ġpat rim
irt s
ĠSh ort
Ġshame ful
Ġsun set
day s
ĠUn f
ĠUn she
ĠUn happy
ĠUn fold
Ġcourt ship
ĠAl most
ĠAl bion
Ġstri ving
Ġstri kes
Ġstri fes
Ġstre ams
Ġworth less
ild ly
Ġhum ours
Ġhum orous
alt ies
Ġover ta
Ġover board
Ġbel ie
Ġi vy
Ġsound ing
Ġbu g
Ġbu bble
Ġdra in
Ġinst inct
Ġinst igation
ĠHer self
ĠHer bert
Ġthank ings
Ġprove th
Ġplay ers
Ġplay fellow
Ġadv antag
Ġwel com
Ġret ail
Ġvo id
Ġbo at
Ġbo il
Ġbo atswain
Ġeven ing
Ġmerc iless
Ġcur b
Ġcur ds
Ġcur sing
Ġcur rish
Ġcur few
Ġdoubt s
Ġwant ons
Ġgr in
Ġgr ateful
Ġhang men
Ġreven ues
Ġass ay
Ġass ign
pect ing
Ġtruth s
Ġdisc om
Ġdisc ours
Ġdisc ern
Ġcra cks
Ġstra ins
Ġprom ises
Ġprom otions
Ġstran gers
Ġsec recy
Ġproud ly
Ġbea ver
ĠSu gg
ĠSu ccess
Ġdep ends
Ġdep osing
Ġdep ending
ham pton
Ġfree ze
ĠPOMP HEY
ĠWas h
Ġaw aking
Ġaw aken
Ġaw aked
Ġmer its
Ġmer ited
Ġden ies
Ġden ier
Ġhorse man
ĠLook s
ĠLook ing
Ġdru gs
Ġdru dge
ĠCom m
ĠCom pare
Ġsupp oses
ey s
Ġwin ning
Ġcar ver
Ġcar ved
Ġcar ters
Ġcar riage
Ġcar bon
Ġcar cass
Ġspo iled
Ġmon astery
ĠHast e
Ġdef iance
Ġdef aced
Ġuncle an
Ġmet tle
Ġmet hod
Ġsin ful
Ġsin cerity
ĠSp l
ĠSp ur
ĠSp are
ĠSp read
Ġsure ty
Ġsad d
rem acy
Ġgener ation
Ġgener ally
ĠLu cy
ring ed
Ġpurpose d
Ġthrough out
bl ack
ict ment
Ġcho ked
Ġrec reation
Ġperson ally
ĠJuliet ta
az z
mer cies
Ġpluck ing
Ġdisp ute
Ġloss es
Ġjo lly
Ġfly ing
Ġcry stal
Ġtrust ed
Ġentreat s
Ġinstru cted
gu ed
sh ot
Ġord ers
Ġord ered
Ġbold er
Ġfound ation
Ġnear ness
Ġfast s
Ġfast er
Ġvis its
Ġremember ing
Ġwear isome
Ġtouch ing
Ġwoo er
Ġfit ly
Ġfit ness
Ġhu gg
Ġopen ly
Ġgrant s
ĠSee ing
Ġrun n
Ġrun ning
Ġrun agate
Ġfur red
Ġfur the
Ġfur longs
Ġinc aged
Ġinc orpor
Ġinf idels
Ġinf allible
Ġiss uing
Ġdeli vers
Ġdeli berate
Ġquar ters
pl ain
pl us
pl ight
vo cate
Ġfeel s
Ġpar ks
Ġpar ley
Ġpar cels
Ġpar allel
Ġpar agon
ĠBec ame
Ġread iest
Ġdel icious
Ġspeed s
ĠGlou cest
Ġfore most
Ġfore go
Ġfore warn
Ġfield s
Ġpost ure
Ġpost ern
Ġbehold ers
ĠPr onounce
Ġjud ged
Ġmock s
Ġmock ed
Ġbound s
Ġbound less
Ġdam ask
ĠBo otless
Ġwork ing
Ġhonest ly
Ġtrib e
Ġtrib es
pare d
Ġve in
Ġten or
Ġwhi pping
Ġbit terest
ĠCap el
Ġharm ful
Ġguilt iness
Ġattend ance
Ġattend ants
Ġag ue
Ġsing ing
Ġsing led
Ġwatch ing
Ġcor al
Ġcor pse
Ġcor mor
Ġdist ance
Ġdist aff
Ġdist illed
Ġstrength s
Ġact ed
Ġstir r
Ġaff able
Ġaff iance
Ġbrave ly
Ġty pe
Ġsign ified
Ġwa ist
Ġwa ving
Ġwa ft
Ġpie ced
Ġgar ter
Ġgar ish
Ġgar ment
Ġext ir
Ġext ol
Ġext empore
ĠUnt imely
Ġclose t
be it
be at
vour ing
Ġsk ies
Ġsk ull
Ġsk ins
etch y
ĠCh ide
Ġweak er
Ġjest s
Ġplain ness
Ġrich ly
Ġac re
Ġwis er
Ġcast ing
Ġforget fulness
Ġreg ent
Ġven uto
Ġta pe
Ġwed lock
Ġdu gs
Ġdu ellist
Ġdire cted
Ġcr otche
Ġred uce
Ġred oubted
ĠRe qu
ĠRe ward
ĠRe ason
ĠRe ceive
ĠRe bell
Ġenc amp
Ġwrit es
Ġmove able
Ġdangerous ly
Ġbattle ments
Ġlad der
Ġpay ing
Ġpay ment
Ġgro ats
Ġblack er
Ġtrou bles
Ġquarrel s
chan gea
Ġsigh ing
Ġmal ady
Ġmal content
Ġmal apert
Ġbar ber
Ġbar ne
Ġdro ve
Ġthri ves
Ġthri ving
aris m
ĠAb ate
ĠAb raham
ĠAr gier
ĠAr chbishop
Ġund es
Ġund isc
Ġvict or
Ġvict ors
Ġpriv ily
Ġmortal s
Ġmortal ity
Ġble ared
Ġpen et
Ġpen alty
Ġinter r
Ġinter ior
Ġinter pretation
Ġinter changea
Ġev idence
ĠKeep s
Ġflatter y
Ġcompl ots
Ġcompl iment
Ġdread ed
Ġdeny ing
ip ly
ip odes
oun cing
Ġbro il
Ġbro ach
Ġbab ies
Ġfra ught
Ġfra ilty
Ġhur ry
Ġhur ts
ĠDe ad
ĠDe uc
ĠDe cember
Ġprot ection
Ġappear ing
Ġdishon est
Ġdishon ours
ura lly
Ġcross es
Ġcross ing
Ġcoward s
Ġlim ed
Ġopp ort
Ġopp ose
Ġopp ress
right ed
Ġang le
Ġviol ation
Ġkingdom s
Ġappro ve
Ġlead ing
Ġlament ed
Ġsuccess es
Ġsuccess ful
UR E
Ġcle ave
Ġlab ours
Ġow l
Ġow ed
Ġow est
Ġpit ies
Ġgall ed
Ġgall ows
Ġgall ops
Ġins ur
Ġins ide
Ġins atiate
Ġins ensible
ĠBl iss
Ġforward ness
ĠThink est
Ġprin cip
Ġunw ise
Ġunw ieldy
Ġunw holesome
Ġunw onted
Ġscar f
Ġscar r
ac re
ac ulate
Ġsur feits
Ġsur cease
Ġsur plus
Ġdest ined
Ġdest roying
ĠCon venient
ĠCon ceiving
Ġdepart ing
Ġdepart ed
Ġpossess ions
Ġut ters
Ġut tered
Ġbase ly
Ġbirth right
Ġfill ing
ĠAd o
ĠAd rian
ĠHold ing
Ġform al
Ġform ally
Ġeas ier
ĠEx ceed
ĠEx amine
Ġfavour ites
Ġproceed s
Ġperform ed
Ġshi pp
Ġmild er
Ġwalk ing
Ġwild erness
Ġca pe
Ġca vil
Ġforsw ore
Ġshad es
Ġquiet ly
Ġquiet ness
Ġleisure ly
ĠStay s
Ġap ish
Ġap ology
Ġsho ot
Ġmed d
Ġmed lar
read ing
Ġfam ed
Ġlist en
ĠTw elve
Ġhap less
ĠBel ow
Ġnob ody
Ġblow ing
Ġunc rown
Ġunc onstant
Ġunk nit
Ġcontin ency
Ġcontin uance
Ġsecond s
Ġforbid s
Ġencoun ters
Ġsort ed
Ġmut ual
Ġmut ually
Ġmut ton
ĠInt ends
ĠInt ended
Ġcru pper
Ġlan ces
Ġpet tic
Ġstor ies
Ġsteal th
Ġref er
Ġref resh
Ġref lect
Ġproclaim ed
Ġtemp oriz
Ġtent h
Ġfine ly
Ġdrown ed
Ġlow est
Ġbend ed
Ġind u
Ġind ust
Ġind uced
Ġind ignation
Ġind ictment
ĠSc orn
ĠSc urvy
ĠSc roop
ĠHear t
ĠPer form
ĠEn s
ĠEn joy
ĠEn forced
Ġconqu ered
Ġexc used
Ġexc uses
Ġpurs uing
Ġpurs uivant
Ġdouble d
Ġdouble ts
Ġdespair ing
Ġwisdom s
Ġmount ed
Ġmount ains
Ġfe ign
Ġfe igned
Ġdance d
Ġcorn s
Ġcapt ives
Ġpun k
Ġpun y
Ġpun ished
ang led
Ġhair s
Ġstud ying
ĠFri end
ĠDis pose
ĠDis miss
Ġmanner ly
Ġuns k
Ġuns way
Ġuns peak
Ġuns uspect
Ġplant ed
Ġenjoy ing
Ġran ge
Ġran ks
Ġabro ach
Ġfoll ower
Ġcontr ar
Ġstruck en
den ly
Ġteach ing
Ġsim pl
Ġcred ent
Ġcred ulous
Ġgent leness
ĠFl ower
ĠFl atter
ĠFl av
ĠNe xt
ĠNe gle
Ġprov ince
Ġprov ision
Ġaccount ed
Ġpriest s
Ġguard s
Ġextrem ities
Ġcruel ty
Ġwail ing
Ġba its
Ġba ited
Ġdwell est
Ġcustom ers
Ġpack ing
Ġpack thread
Ġga vest
Ġease d
Ġbutcher ies
Ġenvy ing
Ġrid ges
Ġadd ers
Ġadd ition
Ġimag es
Ġimag ined
Ġsubst antial
Ġfellows hip
Ġbenef actors
Ġlaugh ing
Ġver ily
Ġver iest
Ġver ified
Ġver dict
Ġwre ak
Ġwre aths
Ġwag ging
Ġfirm ament
Ġdull est
Ġhol es
vell ing
Ġbef ell
Ġincl ine
ĠBarn et
ĠHence forth
ĠHence forward
Ġformer ly
Ġrel ent
Ġdeal ings
ĠDes ire
ĠDes ires
ĠDes erved
ĠDes erve
ĠDes erves
Ġsport ful
Ġconvey ance
Ġarri ve
Ġunb u
Ġunb ruised
Ġunp itied
Ġunp arallel
Ġroot ed
Ġcounten ances
Ġsmo ke
Ġcover ing
Ġacqu it
Ġschool boy
she ll
she et
Ġfinger ing
llo a
ĠTut or
Ġgross ly
ĠSic ils
ĠSic inius
Ġstab les
Ġnecess aries
Ġdisg racious
Ġimport s
Ġimport ance
Ġimport uned
Ġundert aking
Ġcirc led
oly cus
sp ring
Ġes p
Ġed uc
Ġdri ve
Ġcre ep
Ġlar gess
ĠTurn s
Ġinform ation
Ġele cted
Ġeag les
Ġdec reed
Ġshar per
Ġallow ing
Ġallow ed
Ġknight s
Ġshr ill
Ġshri eks
Ġsail or
Ġrob bed
Ġrob bery
Ġrock y
Ġcommend able
Ġrude ly
Ġassist ed
Ġcondu it
Ġcondu cted
Ġprofess es
Ġdelight ful
Ġlangu ish
act ive
Ġdet ain
Ġdet ect
Ġdur ance
Ġnumber ing
Ġhid den
Ġpin ched
Ġinfect ious
ĠSha ke
rious ly
Ġstar ved
Ġstock ings
ashi on
ĠPre fix
Ġdew s
ĠRes ign
ĠRes olved
ĠRes olve
ĠKnow ing
Ġamb ling
Ġexcell ence
Ġchief ly
Ġdisposition s
Ġprotect ors
Ġpubl ish
ub bering
Ġer r
Ġir ks
Ġtort ures
Ġtort oise
Ġmurderer s
Ġcam bric
Ġcens ures
Ġtop mast
Ġequ ally
Ġstore d
Ġsup remacy
run ning
Ġshut s
Ġconj ur
Ġconj ured
Ġsway s
Ġbrook s
Ġdisd ains
Ġaffect s
Ġaffect ing
Ġrash ly
Ġrash ness
Ġadm ire
Ġadm its
Ġadm ired
Ġadm iring
Ġtrans form
Ġtrans gression
Ġaccus ers
Ġchair s
Ġaccept ance
Ġsolemn ly
Ġconquer ors
Ġspeci ally
dy ed
Ġtut ors
Ġwood cock
Ġbot tle
Ġbot tled
Ġbud s
Ġfle ece
Ġcup bearer
Ġhunt ing
Ġpi pe
Ġpure st
Ġmend ed
Ġweigh ing
que ath
Ġcomb ine
Ġcomb ined
oler able
Ġswallow ed
Ġarg ues
Ġdiss olute
Ġdiss olved
Ġdiss entious
Ġdiss olve
Ġdiss ension
Ġdiss olution
Ġexpect ed
Ġado pted
Ġclo g
Ġclo ven
Ġclo ister
Ġwhore s
Ġcourage ous
Ġgroan ing
Ġcomplain ing
ĠAEd iles
val ued
Ġtest ify
Ġmill ion
Ġmill stones
Ġmag n
Ġhost ile
Ġpol itic
Ġgru dge
Ġgru mbling
Ġmeant ime
ĠLe icester
ĠLong er
Ġrepe at
Ġshun s
Ġconc ern
Ġung racious
Ġung rateful
Ġqual ified
ĠJack s
Ġadvers ary
Ġimm od
Ġintell igen
Ġpurcha sed
Ġcock le
Ġcock atri
Ġimposs ib
Ġmaiden heads
Ġincrease th
Ġoppos ers
Ġearnest ness
GH AN
fl ies
uce ment
Ġing ratitude
Ġing enious
Ġsqu are
Ġsqu ire
Ġsqu ared
Ġsouth ward
Ġfig ured
Ġfurn ished
Ġdig g
Ġchat tering
Ġparent age
Ġmelt ing
ĠLau gh
Ġrevol ted
Ġwilling ness
Ġswell s
Ġprovo ke
Ġens ign
Ġens uing
ĠStri ve
Ġbraw ls
Ġbuild s
Ġbuild eth
ĠSupp osing
ĠPlay s
Ġrecom fort
Ġrecord ed
Ġaffli cted
Ġgarland s
Ġforbear ance
Ġfamous ly
ĠConspir ators
Th ou
Th us
fall ing
ib al
more land
pr oud
ser ver
Ġapt ly
Ġsal ve
Ġsal utation
Ġmir acle
Ġmult itud
Ġmult iply
Ġfun ctions
Ġfun eral
Ġdiffe rent
Ġcat erp
Ġhorn s
Ġpot ent
Ġpot ency
ĠAcc ount
Ġinqu ired
ĠBen edic
ĠHo lla
Ġfors aken
rif ty
Ġsting ing
Ġstout ness
Ġrece iving
Ġrejo icing
ĠDraw s
Ġune x
Ġune asy
Ġunst ain
Ġunst anched
Ġwrink le
Ġwrink les
Ġrust y
Ġprick ing
Ġcharac ters
Ġsmell s
Ġbrace let
Ġsecure ly
Ġagree ing
Ġcorre ct
Ġprett ily
Ġshield s
Ġsubstit utes
bod ied
com fortable
gn able
long eth
mong er
maid s
Ġtail s
Ġtail ors
Ġwid ower
Ġwest ward
Ġbuck ler
Ġped igree
ĠSomet imes
Ġste er
Ġstick s
Ġdecl ined
Ġdecl ines
Ġdecl ining
Ġsham est
Ġsham ef
Ġsucceed ing
Ġsucceed ers
Ġfact or
Ġfawn s
Ġnegle cted
Ġvar iable
Ġvol umes
ĠVen us
Ġeng ine
ĠSoft ly
Ġscandal ous
Ġcareless ly
Ġcurt ains
Ġgrat ify
Ġgrat ulate
Ġcraft s
Ġsuffic iency
Ġestim ate
Ġprophet ess
Ġconceal ment
app arell
but t
sha ped
Ġeter nity
Ġtou ches
Ġtro dden
Ġtig ers
Ġmethought s
Ġfix ed
ĠIm mediate
Ġdate less
Ġnet tles
Ġnice ly
Ġluck y
Ġluck less
Ġpage ant
ĠWr ath
cels a
ĠSit ting
Ġstomach s
ĠGree k
ĠPri ck
ĠPri ami
Ġdece iving
ĠDel ay
ĠDel iver
Ġorn ament
Ġarrest ed
Ġunfe lt
Ġworm wood
Ġbeget ting
Ġrestra ined
Ġcoll ected
Ġcram ps
Ġstraw berries
Ġmonarch y
Ġsacrif iced
Ġrank le
Ġcovert ure
Ġapprehend s
Ġmoral ize
foot ed
wing ed
Ġtack le
Ġaud ience
Ġaud ible
Ġsed ition
Ġsed ges
Ġsess ions
Ġmour ner
Ġmould ed
Ġbru ising
Ġbol t
Ġbol ted
Ġfin est
Ġfin ish
Ġfever ous
Ġlour ing
Ġpill ow
Ġpict ures
Ġpalm ers
ĠAdd ing
Ġgap es
Ġbell s
Ġinv ite
ĠHon our
ĠGra mercies
Ġdem i
Ġdem esnes
ĠName ly
ĠEm peror
Ġanch ors
Ġspot less
Ġshru g
Ġshel ves
Ġgoss ip
Ġhoar se
Ġslipp ery
Ġprefer ment
Ġtrim m
perience d
Ġlect ures
Ġcompound ed
Ġtravell er
Ġcop y
Ġcop est
Ġmisc arried
Ġobsequ ious
Ġattain der
Ġprompt s
Ġlearned ly
Ġdivor ced
ĠWelsh man
Ġcrook ed
Ġinsol ent
ĠDesp ite
ĠDesp ised
Ġtestim on
Ġneglect ing
ĠFalse ly
Ġherald s
avour y
tin o
wear ied
Ġmas ks
Ġfre quent
Ġfan cies
Ġfount ain
Ġfulf il
Ġfulf illed
erp ast
Ġdot ing
Ġdot ard
Ġcushi ons
Ġlinger ing
Ġyester day
Ġthw ack
Ġpant ing
ĠAc cept
ĠAff liction
Ġgust s
ĠWest moreland
ĠBest ride
ĠBold ly
ĠCourage ous
Ġstag gers
ĠFell ows
Ġresemb les
Ġrevive d
ĠRel ent
ĠDiv ine
Ġvial s
Ġunlike ly
Ġalar um
Ġalar ums
Ġexceed s
Ġdesc ant
Ġdesc ried
Ġcler k
Ġperd ition
Ġeverlast ingly
Ġpeer less
ĠProsper o
ĠProsper ity
Ġbestri d
Ġbestri de
Ġaccomp anied
Ġchamp ions
Ġbrand s
Ġconfeder ates
Ġmischief s
Ġpatron ess
Ġobs erve
Ġcrab bed
there a
Ġdistra ction
Ġdistra ught
Ġcrim son
Ġembass ies
Ġembass age
Ġinterrupt ed
Ġinsinu ating
Ġunwilling ness
Ġunluck y
Ġmagist rates
Ġsteward ship
Ġsurpr ise
St ay
jud ged
miss ive
ph in
Ġire ful
Ġtumble d
Ġbount iful
Ġbount eous
Ġfet ter
Ġdom inions
Ġded icate
Ġdiet ed
Ġhy po
Ġgaz ing
ĠCy therea
ĠGold en
Ġren ew
Ġren ounce
Ġliqu or
Ġliqu id
ĠPres ent
Ġdefect s
ĠRo ger
ĠRo bert
Ġdoct ors
Ġdoct rine
ĠEnd ured
Ġsequ el
Ġsugg ested
Ġansw ers
Ġansw ered
thw art
thw ack
Ġnegl igence
Ġnegl igent
Ġvi and
Ġvi per
Ġmuff le
Ġmuff led
Ġamend ment
Ġargu ing
Ġargu ed
Ġarbit rate
Ġunth rifty
Ġgraft ed
ĠJud as
Ġabst inence
Ġabod e
Ġexact ly
Ġexperience d
Ġridd le
Ġperf ume
Ġperf umed
Ġtrades men
Ġscru ple
Ġcontri ve
Ġcontri ved
Ġappoint ment
ĠProf ess
Ġchap el
Ġchest s
Ġimpart ial
Ġimpud ent
Ġobst acles
Ġattent ive
Ġstrait ly
Ġprofan ation
Ġpenny worth
ĠChristopher o
Ġindirect ly
Ġfeat ly
Ġcontrad ict
Ġcontrad iction
ĠFlore nt
ĠFlore nce
ĠNeighb our
ĠNeighb ours
Ġholid ay
Ġholid ame
Ġrelig ion
Ġrelig ious
Ġadmir al
Ġgreyh ound
Ġgreyh ounds
Ġsyll able
Ġsyll ables
Ġsuperfl uous
Ġsuperfl uity
Ġdisobed ience
Ġdisobed ient
Ġsinew s
Ġcuckold s
bri dge
din and
dis p
pol itan
spo ken
Ġau gment
Ġaust erity
Ġmot ive
Ġming le
Ġmass acre
Ġwra pt
Ġbale ful
erate ly
Ġcy press
Ġcot tage
Ġced ar
Ġcas que
Ġcert ainty
Ġcele br
Ġna vy
Ġlecher y
Ġthra ll
Ġthorough ly
Ġost entation
Ġoce an
Ġphe asant
Ġpir ate
Ġpul ing
Ġpens ive
Ġpals ied
ĠTend ering
ĠTrem ble
Ġgle an
Ġgild ed
Ġgorge ous
Ġbeho ve
ĠWor cester
Ġhab iliments
ĠBret on
ĠSad dle
ĠSel f
ĠSland er
ĠHap ly
ĠHung ary
ĠCot us
Ġeg gs
Ġel bow
Ġew es
Ġstall s
Ġstint ed
Ġkern els
Ġkitche n
ĠLad ies
ĠFer dinand
Ġrevers ion
Ġrelease d
Ġrehear se
ĠPit chers
ĠPil ate
ĠNight ly
Ġdol our
Ġnov ice
ĠDou bly
Ġsevent een
Ġherds men
Ġvest al
ĠVar rius
Ġwheres oe
Ġconver ts
Ġconvers ation
Ġconvent ed
Ġblasp hem
ersha des
Ġunivers al
Ġprover b
Ġplent eous
Ġdiscipl ine
Ġenroll ed
Ġoutst ret
Ġexha les
Ġrip est
Ġribb ons
Ġadul ter
Ġpresum ption
Ġprescri ption
ĠStir r
ĠStep hen
ĠProdig ious
Ġresp ite
Ġendea vours
Ġtraged y
Ġbragg art
Ġimpre gnable
Ġglister ing
Ġeyeb rows
ĠUnw orthy
Ġstrip ling
Ġstreak s
Ġstrang eness
ĠSuff olk
Ġgreed iness
Ġtemperate ly
ĠPlain ly
Ġexecut ing
Ġinflu ences
Ġquarre lling
Ġparch ment
Ġvehe ment
Ġstirru p
Ġcrad le
Ġencomp ass
Ġencourage ment
Ġexpost ulate
Ġestab lish
Ġbarb arism
ĠBlood y
Ġunwill ingly
ĠAmazon ian
Ġcaus er
Ġtempor al
ĠEnvir oned
Ġcounterpo ised
Ġwagon er
Ġunpre pared
Ġesc aped
Ġambassad or
Ġvanqu ish
Ġbasil isk
Ġsymp athy
Ġdifferen ces
weigh s
ĠGuild hall
Ġunrevere nt
Ġmasqu ers
ĠCheer ly
ĠErr oneous
Ġclergy men
ĠRedeem er
Ġcannib als
Ġtumult uous
ĠFRANCISC A
Ġsulphur ous
Ġviolet s
Citizen s
Coriol anus
Rome o
Rem ember
Than ks
Ver ily
creat ure
corn er
merc y
tong ued
Ġtha w
Ġtar get
Ġaed iles
Ġaut umn
Ġaus picious
Ġsce pter
Ġsout hern
Ġmalm sey
Ġmatt ock
Ġbiss on
Ġfours core
Ġdaff odils
Ġcod piece
Ġnim bly
Ġhunts men
Ġponder ous
Ġphra se
ĠThi eves
ĠTast e
ĠTIT US
ĠAut olycus
ĠAlex ander
Ġgas ping
Ġgees e
Ġgilly vors
Ġghast ly
ĠWond rous
Ġinde x
Ġinex orable
Ġinhum an
ĠBER KELEY
ĠSher iff
ĠSout ham
ĠSum mon
ĠHann ibal
ĠMam illius
ĠMond ay
ĠMort imer
ĠMops a
ĠMEAS URE
ĠMirand a
ĠChan ge
ĠCARD INAL
ĠCrown s
ĠCull ing
ĠCertain ly
ĠCoun sel
ĠCHRI STOP
Ġwealt hily
Ġeaster n
ĠOly mp
Ġstam ps
Ġstates man
ĠLiby a
ĠLOV EL
ĠFur ther
ĠFred erick
Ġlibr ary
ĠPret ty
ĠNea politan
ĠNort hampton
ĠNican or
ĠYorks hire
Ġsemb lance
Ġspran g
Ġnephe w
Ġcomfor ter
Ġmudd y
ĠVince tino
ĠVAU GHAN
Ġcongea led
ĠForsw ear
Ġorison s
Ġarrog ance
Ġarithmet ic
Ġlethar gy
Ġunhall ow
Ġunfort unate
Ġunpo ss
Ġunset tled
Ġproli x
Ġfrivol ous
Ġhandker chief
Ġexamp les
agab ond
Ġadmon ition
Ġpredom inant
Ġprecip itation
Ġprenz ie
Ġpredecess ors
Ġpurbl ind
Ġcocke rel
Ġpatrim ony
ĠUnshe athe
Ġwelcom ed
Ġdiscours es
ĠSugg est
Ġfurthe st
Ġincorpor ate
ĠGloucest ershire
Ġcormor ant
Ġaffiance d
Ġcrotche ts
Ġinterchangea bly
ĠDeuc alion
Ġprincip al
Ġpettic oat
Ġunspeak able
Ġunsuspect ed
ĠFlav ius
Ġschoolboy s
Ġeduc ation
Ġcockatri ce
Ġcaterp illars
ĠBenedic ite
ĠCHRISTOP HER
