{"version":"1.0","truncation":null,"padding":null,"added_tokens":[{"id":0,"content":"<pad>","single_word":false,"lstrip":false,"rstrip":false,"normalized":false,"special":true},{"id":1,"content":"<bos>","single_word":false,"lstrip":false,"rstrip":false,"normalized":false,"special":true},{"id":2,"content":"<eos>","single_word":false,"lstrip":false,"rstrip":false,"normalized":false,"special":true}],"normalizer":null,"pre_tokenizer":{"type":"ByteLevel","add_prefix_space":true,"trim_offsets":true,"use_regex":true},"post_processor":{"type":"TemplateProcessing","single":[{"SpecialToken":{"id":"<bos>","type_id":0}},{"Sequence":{"id":"A","type_id":0}},{"SpecialToken":{"id":"<eos>","type_id":0}}],"pair":[{"SpecialToken":{"id":"<bos>","type_id":0}},{"Sequence":{"id":"A","type_id":0}},{"SpecialToken":{"id":"<eos>","type_id":0}},{"Sequence":{"id":"B","type_id":1}}],"special_tokens":{"<bos>":{"id":"<bos>","ids":[1],"tokens":["<bos>"]},"<eos>":{"id":"<eos>","ids":[2],"tokens":["<eos>"]},"<pad>":{"id":"<pad>","ids":[0],"tokens":["<pad>"]}}},"decoder":{"type":"ByteLevel","add_prefix_space":true,"trim_offsets":true,"use_regex":true},"model":{"type":"BPE","dropout":null,"unk_token":null,"continuing_subword_prefix":null,"end_of_word_suffix":null,"fuse_unk":false,"byte_fallback":true,"ignore_merges":false,"vocab":{"<pad>":0,"<bos>":1,"<eos>":2,"!":3,"$":4,"&":5,"'":6,",":7,"-":8,".":9,"3":10,":":11,";":12,"?":13,"A":14,"B":15,"C":16,"D":17,"E":18,"F":19,"G":20,"H":21,"I":22,"J":23,"K":24,"L":25,"M":26,"N":27,"O":28,"P":29,"Q":30,"R":31,"S":32,"T":33,"U":34,"V":35,"W":36,"X":37,"Y":38,"Z":39,"a":40,"b":41,"c":42,"d":43,"e":44,"f":45,"g":46,"h":47,"i":48,"j":49,"k":50,"l":51,"m":52,"n":53,"o":54,"p":55,"q":56,"r":57,"s":58,"t":59,"u":60,"v":61,"w":62,"x":63,"y":64,"z":65,"Ġ":66,"Ġt":67,"he":68,"Ġa":69,"ou":70,"Ġs":71,"Ġm":72,"Ġw":73,"in":74,"re":75,"ha":76,"Ġthe":77,"nd":78,"Ġb":79,"is":80,"or":81,"Ġf":82,"ĠI":83,"er":84,"ll":85,"it":86,"on":87,"Ġd":88,"Ġc":89,"Ġn":90,"Ġl":91,"Ġy":92,"es":93,"en":94,"Ġth":95,"ar":96,"Ġh":97,"Ġo":98,"Ġto":99,"Ġyou":100,"Ġp":101,"ĠT":102,"hat":103,"ĠA":104,"Ġhe":105,"ve":106,"ot":107,"Ġand":108,"st":109,"ow":110,"ing":111,"Ġof":112,"an":113,"om":114,"Ġg":115,"at":116,"Ġbe":117,"ĠW":118,"se":119,"Ġmy":120,"Ġin":121,"Ġha":122,"ce":123,"le":124,"ay":125,"ld":126,"ir":127,"et":128,"ed":129,"ut":130,"ĠB":131,"Ġme":132,"im":133,"ĠS":134,"ith":135,"Ġnot":136,"'s":137,"ĠH":138,"ch":139,"Ġthat":140,"Ġis":141,"ĠM":142,"gh":143,"ĠAnd":144,"Ġfor":145,"Ġu":146,"ke":147,"ĠC":148,"Ġwe":149,"our":150,"oo":151,"ill":152,"Ġe":153,"Ġwith":154,"her":155,"Ġit":156,"ent":157,"Ġyour":158,"ad":159,"ri":160,"ĠO":161,"Ġthou":162,"Ġst":163,"Ġk":164,"ĠL":165,"'d":166,"ome":167,"Ġhis":168,"ĠF":169,"ĠG":170,"ght":171,"EN":172,"Ġre":173,"ord":174,"id":175,"ra":176,"ĠThe":177,"Ġhave":178,"Ġhim":179,"IN":180,"ly":181,"Ġli":182,"as":183,"ĠP":184,"Ġthis":185,"ur":186,"IO":187,"al":188,"Ġso":189,"Ġas":190,"Ġde":191,"Ġon":192,"ĠR":193,"ore":194,"ro":195,"ĠN":196,"hi":197,"ould":198,"ood":199,"AR":200,"ck":201,"ain":202,"ver":203,"ĠY":204,"est":205,"Ġsha":206,"Ġthy":207,"ess":208,"Ġwill":209,"Ġdo":210,"ea":211,"Ġno":212,"am":213,"ĠE":214,"Ġbut":215,"ĠD":216,"us":217,"Ġse":218,"US":219,"if":220,"Ġ'":221,"ge":222,"Ġall":223,"and":224,"ĠTh":225,"Ġsu":226,"ake":227,"ĠTo":228,"Ġher":229,"ru":230,"ion":231,"Ġan":232,"ĠK":233,"Ġlo":234,"ter":235,"ard":236,"han":237,"Ġsp":238,"ell":239,"ear":240,"Ġthee":241,"Ġfa":242,"Ġshall":243,"Ġour":244,"Ġby":245,"th":246,"UC":247,"Ġare":248,"il":249,"ING":250,"Ġne":251,"Ġkn":252,"rom":253,"ho":254,"Ġv":255,"ĠThat":256,"ER":257,"OR":258,"ast":259,"ct":260,"ous":261,"Ġwhat":262,"Ġsh":263,"ight":264,"ul":265,"ET":266,"ant":267,"Ġup":268,"Ġgood":269,"sel":270,"qu":271,"ĠBut":272,"art":273,"row":274,"ine":275,"Ġcom":276,"ath":277,"Ġmu":278,"Ġlord":279,"hich":280,"nt":281,"Ġpr":282,"Ġman":283,"'ll":284,"Ġat":285,"ĠV":286,"one":287,"Ġwhe":288,"Ġcon":289,"ĠWhat":290,"Ġam":291,"end":292,"ic":293,"ES":294,"ble":295,"ry":296,"Ġfrom":297,"ong":298,"ie":299,"Ġshe":300,"Ġbl":301,"ive":302,"ven":303,"Ġgo":304,"Ġmore":305,"ĠFor":306,"Ġthem":307,"em":308,"Ġwas":309,"IC":310,"out":311,"au":312,"Ġsir":313,"other":314,"are":315,"oth":316,"ol":317,"Ġif":318,"Ġnow":319,"ĠHe":320,"Ġhat":321,"Ġthere":322,"Ġwould":323,"AN":324,"ost":325,"Ġknow":326,"Ġcan":327,"LO":328,"ind":329,"ers":330,"IUS":331,"ep":332,"self":333,"Ġsay":334,"ARD":335,"ĠKING":336,"ather":337,"ond":338,"res":339,"ate":340,"fe":341,"Ġsw":342,"Ġhere":343,"Ġlove":344,"Ġtheir":345,"Ġor":346,"Ġthan":347,"ĠMy":348,"Ġbr":349,"pp":350,"--":351,"Ġthey":352,"Ġus":353,"Ġking":354,"Ġthen":355,"all":356,"Ġar":357,"od":358,"Ġlet":359,"Ġun":360,"ig":361,"Ġwor":362,"ure":363,"ink":364,"Ġmay":365,"hy":366,"Ġcome":367,"ame":368,"fore":369,"ort":370,"ĠAs":371,"Ġqu":372,"ook":373,"Ġwell":374,"el":375,"ish":376,"LI":377,"ĠWhe":378,"Ġj":379,"KE":380,"ves":381,"Ġone":382,"Ġhath":383,"irst":384,"Ġmake":385,"ĠYou":386,"Ġgra":387,"reat":388,"ak":389,"ng":390,"Ġmust":391,"gain":392,"ound":393,"Ġwere":394,"Ġho":395,"Ġsee":396,"Ġshould":397,"Ġlike":398,"ci":399,"Ġpro":400,"ue":401,"eak":402,"TIO":403,"Ġsa":404,"ity":405,"Ġmad":406,"Ġpl":407,"Ġfather":408,"Ġhad":409,"um":410,"Ġdid":411,"Ġupon":412,"OM":413,"ime":414,"pe":415,"Ġtoo":416,"ice":417,"ON":418,"ĠJ":419,"Ġdis":420,"ence":421,"Ġdeath":422,"ward":423,"Ġwhich":424,"Ġen":425,"ĠIf":426,"ose":427,"own":428,"Ġspeak":429,"Ġpo":430,"Ġwhen":431,"ful":432,"Ġout":433,"Ġfri":434,"Ġhow":435,"entle":436,"io":437,"pt":438,"un":439,"Ġagain":440,"ICH":441,"ĠRICH":442,"Ġtru":443,"OL":444,"UKE":445,"de":446,"ĠDUKE":447,"man":448,"Ġheart":449,"Ġyet":450,"ick":451,"Ġhand":452,"very":453,"ĠWith":454,"ĠRICHARD":455,"Ġwho":456,"ENTIO":457,"ĠThou":458,"Ġsome":459,"ĠWe":460,"ign":461,"ance":462,"ĠWhich":463,"Ġmar":464,"Ġhon":465,"nce":466,"ies":467,"Ġr":468,"Ġson":469,"ĠIn":470,"ire":471,"Ġmine":472,"Ġoff":473,"ist":474,"Ġal":475,"ince":476,"INC":477,"har":478,"orn":479,"ack":480,"ĠWhy":481,"'t":482,"wn":483,"ĠOf":484,"ĠGod":485,"EL":486,"Ġtime":487,"Ġhea":488,"Ġsuch":489,"oy":490,"ĠFirst":491,"Ġhear":492,"ĠSo":493,"ness":494,"Ġbrother":495,"ec":496,"Ġthese":497,"ĠCl":498,"Ġblood":499,"Ġab":500,"ither":501,"Ġex":502,"Ġgive":503,"UE":504,"Ġfo":505,"ĠIs":506,"Ġday":507,"ĠNo":508,"Ġear":509,"Ġro":510,"Ġlook":511,"Ġthink":512,"Ġtell":513,"ĠII":514,"ĠHow":515,"Ġlife":516,"TER":517,"ise":518,"Ġey":519,"AB":520,"eet":521,"Ġwhere":522,"Ġtake":523,"Ġword":524,"UCH":525,"oul":526,"Ġfriend":527,"ther":528,"ĠQ":529,"ĠThis":530,"ag":531,"age":532,"Ġdes":533,"ĠGLO":534,"UCES":535,"ĠGLOUCES":536,"ĠGLOUCESTER":537,"ef":538,"een":539,"erv":540,"ĠCome":541,"ust":542,"Ġgentle":543,"ady":544,"rown":545,"ings":546,"ĠLord":547,"ĠU":548,"Ġri":549,"urse":550,"ave":551,"RY":552,"ase":553,"ĠRome":554,"tis":555,"Ġlea":556,"ĠVINC":557,"Ġart":558,"UEEN":559,"ĠQUEEN":560,"ĠVINCENTIO":561,"way":562,"Ġwar":563,"ĠOF":564,"Ġmost":565,"Ġhonour":566,"Ġfl":567,"ĠMar":568,"Ġmuch":569,"UM":570,"LAN":571,"Ġsl":572,"ĠWhere":573,"AM":574,"urn":575,"Ġmade":576,"Ġtw":577,"ment":578,"Ġfear":579,"Ġhast":580,"ĠNow":581,"ĠWho":582,"Ġbet":583,"ĠHEN":584,"aught":585,"ĠHENRY":586,"Ġcou":587,"Ġgreat":588,"ĠBe":589,"ber":590,"not":591,"Ġbre":592,"ved":593,"Ġnever":594,"Ġfair":595,"Ġnew":596,"cc":597,"ee":598,"ss":599,"Ġaf":600,"ower":601,"ap":602,"igh":603,"Ġmen":604,"ĠAN":605,"tle":606,"orrow":607,"ĠYour":608,"aster":609,"uke":610,"ĠIt":611,"iz":612,"ough":613,"ĠYOR":614,"ĠYORK":615,"Ġcall":616,"Ġpart":617,"Ġany":618,"Ġra":619,"ation":620,"ĠOr":621,"INIUS":622,"ST":623,"Ġad":624,"ree":625,"ide":626,"Ġcomm":627,"Ġcannot":628,"Ġpre":629,"Ġstand":630,"Ġtrue":631,"Ġheaven":632,"Ġname":633,"ĠPET":634,"AU":635,"Ġbeen":636,"Ġpray":637,"hing":638,"old":639,"Ġcl":640,"Ġsweet":641,"DW":642,"Ġper":643,"Ġple":644,"ĠEDW":645,"ĠEDWARD":646,"ple":647,"ĠGR":648,",--":649,"Ġdoth":650,"Ġnoble":651,"Ġwr":652,"Ġown":653,"ears":654,"ĠLUC":655,"ouse":656,"Ġdone":657,"ĠThere":658,"ull":659,"Ġtr":660,"Ġway":661,"Ġother":662,"Ġhead":663,"ife":664,"RO":665,"aw":666,"Ġmean":667,"Ġpres":668,"UT":669,"Ġbear":670,"ĠEd":671,"Ġsc":672,"red":673,"Ġnor":674,"AP":675,"EO":676,"Ġvery":677,"Ġsoul":678,"ĠAy":679,"ĠROM":680,"ĠWhen":681,"ĠEdward":682,"ĠROMEO":683,"ving":684,"Ġboth":685,"Ġnight":686,"ĠAn":687,"Ġbefore":688,"ĠMEN":689,"ENIUS":690,"ass":691,"aint":692,"Ġworld":693,"ĠMENENIUS":694,"ace":695,"ger":696,"ĠBy":697,"ause":698,"Ġqueen":699,"li":700,"ĠLet":701,"TH":702,"Ġmo":703,"Ġchi":704,"aughter":705,"RUCH":706,"ĠThen":707,"ĠHere":708,"ĠPETRUCH":709,"ĠPETRUCHIO":710,"able":711,"Ġdown":712,"Ġdead":713,"Ġcont":714,"TES":715,"Ġapp":716,"Ġwh":717,"ite":718,"Ġke":719,"Ġbeing":720,"Ġrem":721,"per":722,"Ġmyself":723,"ab":724,"les":725,"ĠThan":726,"ĠMAR":727,"Ġbeg":728,"Ġarm":729,"Ġthus":730,"ĠCOR":731,"IOLAN":732,"ilt":733,"Ġleave":734,"ĠCORIOLAN":735,"ĠCORIOLANUS":736,"ĠSec":737,"Ġgrace":738,"ĠSecond":739,"Ġunt":740,"ction":741,"ĠNor":742,"ress":743,"Ġeyes":744,"Ġim":745,"Ġmother":746,"ĠLE":747,"less":748,"Ġma":749,"Ġold":750,"land":751,"ran":752,"Ġrep":753,"INA":754,"itiz":755,"Ġever":756,"itizen":757,"lo":758,"ps":759,"sw":760,"Ġwife":761,"Ġlong":762,"Ġint":763,"ĠShe":764,"Ġlive":765,"Ġchild":766,"Ġwom":767,"Ġpoor":768,"Ġfriends":769,"Ġaway":770,"Ġcons":771,"ĠIII":772,"ĠGo":773,"Ġmight":774,"ford":775,"nder":776,"Ġdie":777,"ĠSir":778,"Ġstay":779,"eace":780,"Ġcomes":781,"ks":782,"wick":783,"oud":784,"atch":785,"ĠWar":786,"led":787,"Ġmany":788,"Ġru":789,"Ġhouse":790,"Ġrest":791,"Ġcrown":792,"Ġpe":793,"ĠWarwick":794,"ff":795,"Ġcour":796,"Ġle":797,"ows":798,"Tis":799,"come":800,"Ġent":801,"ison":802,"Ġhar":803,"ĠHis":804,"Ġthought":805,"LA":806,"SAB":807,"ĠISAB":808,"Ġlie":809,"ELLA":810,"ĠISABELLA":811,"ian":812,"uck":813,"iss":814,"erc":815,"RAN":816,"Ġset":817,"Ġdaughter":818,"che":819,"ĠWell":820,"Ġnothing":821,"ĠRomeo":822,"ULI":823,"Ġtong":824,"ors":825,"atter":826,"ONTES":827,"ĠJULI":828,"Ġbetter":829,"ĠLEONTES":830,"ĠJULIET":831,"ittle":832,"Ġgone":833,"ĠSt":834,"ĠNay":835,"Ġprince":836,"ĠVI":837,"rant":838,"AD":839,"ought":840,"Ġwit":841,"int":842,"ĠLAD":843,"ĠLADY":844,"AL":845,"CE":846,"well":847,"Ġtri":848,"ENCE":849,"ied":850,"me":851,"ĠPro":852,"Ġnews":853,"Ġkeep":854,"os":855,"Ġsle":856,"Ġbest":857,"Ġres":858,"Ġagainst":859,"ces":860,"for":861,"ious":862,"hall":863,"Ġthose":864,"ĠServ":865,"ier":866,"Ġacc":867,"Ġlittle":868,"Ġhence":869,"Ġgri":870,"ĠSIC":871,"ĠCitizen":872,"ool":873,"Ġcomp":874,"hard":875,"ĠSICINIUS":876,"Ġthing":877,"Ġhour":878,"ĠNot":879,"Ġlords":880,"ty":881,"Ġput":882,"ardon":883,"Ġface":884,"akes":885,"une":886,"lse":887,"llow":888,"sed":889,"Ġend":890,"ĠOn":891,"Ġkind":892,"EY":893,"Ġyoung":894,"Ġstill":895,"ult":896,"Ġtwo":897,"ret":898,"ork":899,"ont":900,"Ġpri":901,"Ġhimself":902,"ield":903,"ud":904,"Ġpur":905,"Ġpower":906,"alk":907,"ĠThy":908,"ĠLUCIO":909,"ale":910,"ins":911,"ĠIV":912,"ert":913,"Ġcha":914,"ĠRic":915,"ĠRichard":916,"ew":917,"ĠCL":918,"Ġsub":919,"Ġtherefore":920,"Ġcount":921,"TI":922,"cl":923,"ft":924,"iness":925,"Ġfirst":926,"Ġpeace":927,"Ġgu":928,"Ġelse":929,"ried":930,"Ġdear":931,"cious":932,"Ġunto":933,"Ġtill":934,"Ġsm":935,"Ġduke":936,"Ġcould":937,"ĠWill":938,"ĠBR":939,"ĠHave":940,"ason":941,"hile":942,"ail":943,"ect":944,"ile":945,"Ġtra":946,"Ġback":947,"Ġco":948,"Ġhus":949,"uty":950,"Ġthough":951,"Ġwords":952,"ZAB":953,"Ġtre":954,"Ġbid":955,"Ġfell":956,"Ġfind":957,"Ġdre":958,"ĠYork":959,"ĠELI":960,"Ġneed":961,"ETH":962,"Ġearth":963,"Ġtongue":964,"ZABETH":965,"ĠELIZABETH":966,"band":967,"ius":968,"ople":969,"yal":970,"Ġlady":971,"Ġthine":972,"IAN":973,"men":974,"Ġbra":975,"orse":976,"Ġhome":977,"Ġhel":978,"Ġforth":979,"Ġseem":980,"Ġhope":981,"eech":982,"ray":983,"enry":984,"ark":985,"Ġhigh":986,"eth":987,"ĠHenry":988,"ĠYet":989,"Ġhusband":990,"vere":991,"ĠGood":992,"Ġright":993,"get":994,"Ġchan":995,"WIC":996,"tw":997,"Ġmind":998,"Ġban":999,"ĠWAR":1000,"uth":1001,"Ġpeople":1002,"WICK":1003,"ĠWARWICK":1004,"AST":1005,"ach":1006,"ds":1007,"ix":1008,"rer":1009,"ister":1010,"Ġche":1011,"Ġchar":1012,"ĠAll":1013,"ĠShall":1014,"hip":1015,"ĠDo":1016,"Ġshow":1017,"Ġconf":1018,"ged":1019,"Ġbri":1020,"Ġhands":1021,"HAM":1022,"fort":1023,"Ġmaster":1024,"Ġwhy":1025,"Ġcause":1026,"ĠNurse":1027,"Ġjoy":1028,"Ġimp":1029,"LET":1030,"ULET":1031,"Ġserv":1032,"Ġmist":1033,"Ġnone":1034,"Ġlaw":1035,"Ġgl":1036,"ĠCAP":1037,"ĠThey":1038,"Ġonce":1039,"Ġsaid":1040,"ĠCAPULET":1041,"Ġfort":1042,"Ġevery":1043,"GE":1044,"IL":1045,"MIO":1046,"ren":1047,"Ġbod":1048,"ousin":1049,"Ġbring":1050,"RI":1051,"bt":1052,"Ġdou":1053,"KING":1054,"eed":1055,"Ġpass":1056,"ates":1057,"ĠBUC":1058,"Ġplease":1059,"UTUS":1060,"ĠBRUTUS":1061,"KINGHAM":1062,"ĠBUCKINGHAM":1063,"BRO":1064,"iet":1065,"lt":1066,"ĠTRAN":1067,"ird":1068,"ĠBOL":1069,"ĠFrom":1070,"Ġlight":1071,"INGBRO":1072,"ESS":1073,"ĠTRANIO":1074,"ĠBOLINGBRO":1075,"ĠBOLINGBROKE":1076,"eel":1077,"vost":1078,"Ġtears":1079,"Ġwo":1080,"Ġbes":1081,"Ġnat":1082,"Ġthr":1083,"Ġwhose":1084,"Ġroyal":1085,"Ġpresent":1086,"swer":1087,"cle":1088,"mb":1089,"Ġsince":1090,"Ġboy":1091,"its":1092,"Ġcame":1093,"ary":1094,"ĠOur":1095,"Ġjust":1096,"lf":1097,"ock":1098,"vy":1099,"ory":1100,"Ġfull":1101,"Ġpardon":1102,"Ġheard":1103,"Ġunder":1104,"Ġdev":1105,"roke":1106,"Ġafter":1107,"Ġwrong":1108,"GAR":1109,"NE":1110,"pose":1111,"Ġland":1112,"Ġhapp":1113,"Ġplace":1114,"ĠMARGAR":1115,"ĠMARGARET":1116,"ATH":1117,"Ġmis":1118,"Ġlast":1119,"ens":1120,"Ġere":1121,"Ġstate":1122,"ĠKing":1123,"AMIL":1124,"sand":1125,"Ġsorrow":1126,"Ġcare":1127,"Ġmeet":1128,"Ġkill":1129,"Ġhold":1130,"cent":1131,"ition":1132,"Ġthousand":1133,"esty":1134,"ORD":1135,"Ġeye":1136,"ĠANGE":1137,"ĠGRE":1138,"Ġwhom":1139,"Ġhelp":1140,"ĠANGELO":1141,"Ġfal":1142,"Ġless":1143,"ARINA":1144,"ĠEng":1145,"Ġanswer":1146,"arence":1147,"Ġfollow":1148,"SC":1149,"Ġbus":1150,"Ġfar":1151,"Ġfool":1152,"Ġch":1153,"Ġhither":1154,"Ġpat":1155,"ceive":1156,"irt":1157,"ĠSh":1158,"Ġweep":1159,"Ġshame":1160,"Ġsun":1161,"ĠKATH":1162,"selves":1163,"cius":1164,"Ġenem":1165,"ĠClarence":1166,"Ġabout":1167,"ĠKATHARINA":1168,"iol":1169,"urde":1170,"Ġfall":1171,"Ġgentleman":1172,"ĠMarcius":1173,"Ġmaid":1174,"day":1175,"Ġob":1176,"asure":1177,"Ġinto":1178,"Ġmakes":1179,"Ġcousin":1180,"ĠESC":1181,"Ġhate":1182,"Ġgracious":1183,"ĠUn":1184,"ĠUp":1185,"Ġcoun":1186,"Ġcourt":1187,"ALUS":1188,"Ġgrief":1189,"ĠESCALUS":1190,"air":1191,"ject":1192,"ĠAl":1193,"imes":1194,"Ġstri":1195,"Ġwoman":1196,"iv":1197,"ove":1198,"Ġturn":1199,"ĠHath":1200,"Ġstre":1201,"Ġcomfort":1202,"Ġworth":1203,"ild":1204,"ling":1205,"Ġtalk":1206,"Ġwilt":1207,"ons":1208,"Ġhum":1209,"Ġbed":1210,"alt":1211,"Ġdost":1212,"ĠDUCH":1213,"ĠDuke":1214,"ices":1215,"deed":1216,"Ġsleep":1217,"urderer":1218,"ĠDUCHESS":1219,"pher":1220,"ount":1221,"itor":1222,"Ġover":1223,"Ġbel":1224,"ERC":1225,"ĠAnge":1226,"Ġbody":1227,"morrow":1228,"Ġi":1229,"Ġsound":1230,"Ġbu":1231,"Ġdra":1232,"Ġinst":1233,"ute":1234,"ĠHer":1235,"Ġfault":1236,"Ġatt":1237,"Ġthank":1238,"ĠAngelo":1239,"IA":1240,"ience":1241,"ised":1242,"Ġindeed":1243,"ĠCAMIL":1244,"Ġanother":1245,"Ġprove":1246,"Ġplay":1247,"Ġadv":1248,"Ġfalse":1249,"ĠCAMILLO":1250,"ily":1251,"Ġser":1252,"omet":1253,"ĠWould":1254,"Ġhas":1255,"Ġuse":1256,"Ġwel":1257,"Ġret":1258,"Ġdeed":1259,"ĠEven":1260,"Ġvo":1261,"ieve":1262,"Ġsword":1263,"ĠProvost":1264,"Ġfellow":1265,"TEN":1266,"Ġmatter":1267,"Ġbo":1268,"Ġfight":1269,"Ġpers":1270,"ans":1271,"ĠHOR":1272,"illain":1273,"Ġeven":1274,"ade":1275,"Ġfortune":1276,"TENS":1277,"ĠHORTENS":1278,"Ġsent":1279,"ĠFRI":1280,"Ġsovere":1281,"hold":1282,"Ġprison":1283,"Ġgrave":1284,"Ġcountry":1285,"ĠUpon":1286,"ĠHORTENSIO":1287,"ĠFRIAR":1288,",'":1289,"eal":1290,"Ġmerc":1291,"Ġdan":1292,"Ġcur":1293,"Ġyears":1294,"ĠAre":1295,"ĠBAP":1296,"ury":1297,"Ġsend":1298,"Ġvirt":1299,"Ġrather":1300,"STA":1301,"TISTA":1302,"Ġbanish":1303,"Ġdoubt":1304,"ĠBAPTISTA":1305,"CUS":1306,"YCUS":1307,"mp":1308,"ouch":1309,"Ġwant":1310,"Ġwish":1311,"ĠTy":1312,"ĠAUT":1313,"Ġgr":1314,"Ġhang":1315,"ĠCOM":1316,"Ġreven":1317,"Ġass":1318,"fect":1319,"pect":1320,"OLYCUS":1321,"Ġtruth":1322,"Ġbusiness":1323,"ĠAUTOLYCUS":1324,"ĠCOMINIUS":1325,".'":1326,"dd":1327,"ĠAt":1328,"ĠMore":1329,"Ġreason":1330,"Ġlies":1331,"Ġonly":1332,"ARENCE":1333,"Ġshalt":1334,"ĠThird":1335,"Ġdisc":1336,"ĠCLARENCE":1337,"ere":1338,"ior":1339,"ms":1340,"pen":1341,"rance":1342,"Ġsea":1343,"Ġcra":1344,"Ġstra":1345,"ENES":1346,"Ġbreath":1347,"Ġcommand":1348,"Ġarms":1349,"Ġdream":1350,"pherd":1351,"VOL":1352,"der":1353,"Ġlay":1354,"ener":1355,"Ġprom":1356,"Ġgi":1357,"ĠBEN":1358,"Ġstran":1359,"ĠGentle":1360,"ĠNOR":1361,"Ġsec":1362,"ĠClown":1363,"VOLIO":1364,"ĠBENVOLIO":1365,"PER":1366,"SPER":1367,"Ġsen":1368,"Ġsomet":1369,"Ġwind":1370,"Ġpity":1371,"ĠTake":1372,"ĠPRO":1373,"Ġproud":1374,"Ġholy":1375,"Ġenough":1376,"UMIO":1377,"ĠGRUMIO":1378,"Ġcontent":1379,"Ġremem":1380,"SPERO":1381,"ĠPROSPERO":1382,"UTIO":1383,"ia":1384,"ken":1385,"ten":1386,"hed":1387,"Ġdare":1388,"Ġthree":1389,"ator":1390,"Ġbea":1391,"ĠSu":1392,"ĠMurderer":1393,"ĠMERC":1394,"Ġlives":1395,"Ġsold":1396,"ĠDid":1397,"ĠKate":1398,"Ġspir":1399,"Ġfare":1400,"Ġswear":1401,"ĠMERCUTIO":1402,"IS":1403,"ike":1404,"Ġtend":1405,"Ġget":1406,"eter":1407,"Ġwithin":1408,"Ġdep":1409,"Ġvillain":1410,"Ġgods":1411,"ĠWere":1412,"ĠLUCENTIO":1413,"ĠServant":1414,"Ġnature":1415,"Ġwelcome":1416,"Ġsister":1417,"ham":1418,"Ġfoul":1419,"Ġfree":1420,"Ġthings":1421,"ars":1422,"Ġgre":1423,"Ġkiss":1424,"ĠPOM":1425,"ester":1426,"Ġsaw":1427,"Ġmadam":1428,"LAND":1429,"Ġmistress":1430,"Ġhappy":1431,"Ġsovereign":1432,"ĠPOMP":1433,"LINA":1434,"apt":1435,"ient":1436,"unt":1437,"hal":1438,"Ġcity":1439,"Ġyield":1440,"any":1441,"ĠWas":1442,"ĠGive":1443,"ĠPAU":1444,"vers":1445,"Ġbreak":1446,"Ġmeans":1447,"Ġsubject":1448,"Ġbeseech":1449,"ĠPAULINA":1450,"Ġaw":1451,"Ġmer":1452,"Ġborn":1453,"ery":1454,"Ġden":1455,"Ġhorse":1456,"Ġoath":1457,"ĠSay":1458,"Ġyours":1459,"ĠLook":1460,"onder":1461,"gainst":1462,"ague":1463,"eft":1464,"gether":1465,"ĠGREMIO":1466,"ĠPOMPEY":1467,"NIA":1468,"OLI":1469,"XENES":1470,"balt":1471,"Ġtem":1472,"Ġwound":1473,"Ġwhile":1474,"Ġfire":1475,"Ġdru":1476,"anc":1477,"ĠCom":1478,"Ġyourself":1479,"ĠPOLI":1480,"usic":1481,"Ġsupp":1482,"Ġfaith":1483,"ĠVOL":1484,"Ġbloody":1485,"Ġlooks":1486,"UMNIA":1487,"ches":1488,"ĠEngland":1489,"ĠPOLIXENES":1490,"ĠVOLUMNIA":1491,"ey":1492,"ues":1493,"Ġsit":1494,"Ġwin":1495,"Ġcar":1496,"Ġcond":1497,"enger":1498,"ingman":1499,"ĠHAST":1500,"ĠFare":1501,"Ġrequ":1502,"Ġspo":1503,"INGS":1504,"Ġcommon":1505,"Ġmaj":1506,"ĠServingman":1507,"Ġtraitor":1508,"centio":1509,"ĠHASTINGS":1510,"RENCE":1511,"by":1512,"broke":1513,"rong":1514,"Ġmon":1515,"Ġlam":1516,"ĠHast":1517,"ĠMay":1518,"ĠCan":1519,"ĠLAU":1520,"Ġdef":1521,"essenger":1522,"Ġuncle":1523,"Ġmark":1524,"Ġchildren":1525,"ertain":1526,"ĠLAURENCE":1527,"BY":1528,"BER":1529,"Ġsight":1530,"Ġmet":1531,"Ġlate":1532,"Ġleft":1533,"ĠAh":1534,"Ġbeat":1535,"Ġsoon":1536,"Ġval":1537,"ĠJul":1538,"ĠTherefore":1539,"form":1540,"Ġdanger":1541,"ĠTybalt":1542,"Ġtender":1543,"Ġmajesty":1544,"FF":1545,"use":1546,"Ġsin":1547,"Ġtold":1548,"ĠSp":1549,"Ġseen":1550,"Ġsure":1551,"LIFF":1552,"Ġsave":1553,"Ġfoot":1554,"Ġdays":1555,"Ġwarrant":1556,"UMBER":1557,"like":1558,"THUMBER":1559,"Ġwoe":1560,"ĠNORTHUMBER":1561,"ĠNORTHUMBERLAND":1562,"ID":1563,"TA":1564,"ting":1565,"Ġsad":1566,"rem":1567,"Ġgener":1568,"ĠLu":1569,"ides":1570,"idow":1571,"ĠPl":1572,"Ġdoes":1573,"Ġreport":1574,"Ġreturn":1575,"Ġmercy":1576,"Ġfarewell":1577,"dom":1578,"ring":1579,"up":1580,"hes":1581,"rel":1582,"Ġtogether":1583,"Ġwithout":1584,"Ġdeep":1585,"ters":1586,"earn":1587,"Ġgold":1588,"unes":1589,"ĠThough":1590,"Ġmarry":1591,"Ġheavy":1592,"ĠANNE":1593,"Ġpurpose":1594,"Ġthrough":1595,"RINC":1596,"aim":1597,"bl":1598,"ca":1599,"cher":1600,"ict":1601,"vent":1602,"Ġill":1603,"Ġcho":1604,"Ġcold":1605,"Ġnurse":1606,"Ġgrow":1607,"ĠHad":1608,"ĠMont":1609,"Ġrec":1610,"ĠPRINC":1611,"ifford":1612,"Ġlost":1613,"ERD":1614,"ignior":1615,"ĠClifford":1616,"Ġears":1617,"Ġdeser":1618,"ments":1619,"Ġperson":1620,"Ġstrange":1621,"ĠJuliet":1622,"ĠPRINCE":1623,"az":1624,"mer":1625,"Ġtimes":1626,"Ġwat":1627,"oriol":1628,"ĠTell":1629,"ingbroke":1630,"ceed":1631,"ĠBol":1632,"ĠMI":1633,"ĠCam":1634,"ours":1635,"enty":1636,"Ġask":1637,"ĠRi":1638,"ross":1639,"Ġthyself":1640,"ush":1641,"Ġsuff":1642,"Ġpluck":1643,"Ġdisp":1644,"Ġliege":1645,"Ġbelieve":1646,"Ġspirit":1647,"ĠBolingbroke":1648,"ever":1649,"Ġair":1650,"Ġage":1651,"Ġsil":1652,"Ġlearn":1653,"ĠAway":1654,"Ġheir":1655,"ĠWh":1656,"ets":1657,"ĠSome":1658,"ĠSignior":1659,"ĠHa":1660,"ains":1661,"ift":1662,"Ġloss":1663,"Ġsays":1664,"Ġjo":1665,"Ġpoint":1666,"ĠWhose":1667,"ĠOne":1668,"ĠShould":1669,"aid":1670,"ial":1671,"ner":1672,"Ġbat":1673,"Ġfly":1674,"Ġcry":1675,"Ġpast":1676,"ced":1677,"ĠCoriol":1678,"Ġfriar":1679,"Ġtrust":1680,"Ġdesire":1681,"Ġhaste":1682,"Ġentreat":1683,"Ġjustice":1684,"Ġdevil":1685,"Ġinstru":1686,"Ġground":1687,"ĠFarewell":1688,"gu":1689,"ges":1690,"night":1691,"sh":1692,"Ġord":1693,"outh":1694,"Ġmur":1695,"ina":1696,"ined":1697,"Ġbold":1698,"Ġfound":1699,"Ġnear":1700,"Ġtoward":1701,"ĠSen":1702,"ĠLike":1703,"ĠFrance":1704,"ĠPray":1705,"Ġfast":1706,"Ġvis":1707,"aud":1708,"aking":1709,"Ġslain":1710,"Ġbetw":1711,"ixt":1712,"Ġservice":1713,"Ġstraight":1714,"Ġremember":1715,"FID":1716,"IZ":1717,"LE":1718,"LOR":1719,"UFID":1720,"Ġcurse":1721,"ĠAUFID":1722,"oman":1723,"ution":1724,"ĠMessenger":1725,"Ġwear":1726,"Ġstrong":1727,"ĠFLOR":1728,"ĠGl":1729,"ĠThese":1730,"Ġquick":1731,"Ġmarried":1732,"Ġalone":1733,"Ġhard":1734,"Ġworthy":1735,"Ġbeauty":1736,"IZEL":1737,"ĠAUFIDIUS":1738,"ĠFLORIZEL":1739,"TON":1740,"ning":1741,"xt":1742,"Ġtouch":1743,"Ġwoo":1744,"Ġfit":1745,"ithe":1746,"Ġhu":1747,"Ġopen":1748,"Ġgrant":1749,"Ġbec":1750,"let":1751,"ĠSee":1752,"adam":1753,"Ġready":1754,"ION":1755,"Ġbrought":1756,"ured":1757,"Ġposs":1758,"ĠClaud":1759,"Ġexec":1760,"Ġrun":1761,"Ġenemy":1762,"Ġrevenge":1763,"Ġgeneral":1764,"ĠClaudio":1765,"!'":1766,"bs":1767,"gs":1768,"ible":1769,"Ġfur":1770,"Ġduty":1771,"Ġyouth":1772,"Ġinc":1773,"Ġinf":1774,"cept":1775,"Ġiss":1776,"Ġitself":1777,"Ġdeli":1778,"Ġlose":1779,"ERS":1780,"aunt":1781,"Ġknows":1782,"Ġcanst":1783,"inks":1784,"Ġquar":1785,"Ġprof":1786,"umber":1787,"Ġthoughts":1788,"Ġhours":1789,"Ġcharge":1790,"Ġconfess":1791,"ĠGentleman":1792,"ĠSenator":1793,"AS":1794,"BAST":1795,"CIUS":1796,"EBAST":1797,"cester":1798,"pl":1799,"ship":1800,"ua":1801,"vo":1802,"Ġmorn":1803,"Ġfeel":1804,"Ġpar":1805,"ĠAgainst":1806,"ĠBec":1807,"ĠSEBAST":1808,"ĠMaster":1809,"ĠMadam":1810,"illo":1811,"riage":1812,"Ġread":1813,"Ġdel":1814,"Ġspeed":1815,"Ġdesp":1816,"Ġtwenty":1817,"Ġstands":1818,"ĠMARCIUS":1819,"ĠShepherd":1820,"ched":1821,"Ġstreng":1822,"ĠMontague":1823,"ĠGlou":1824,"ithee":1825,"ĠSEBASTIAN":1826,"OW":1827,"cess":1828,"eep":1829,"op":1830,"ted":1831,"Ġfore":1832,"Ġfield":1833,"Ġdiv":1834,"Ġpost":1835,"Ġhell":1836,"ingham":1837,"Ġbehold":1838,"Ġhalf":1839,"oop":1840,"ĠPr":1841,"olk":1842,"fection":1843,"Ġjud":1844,"ump":1845,"Ġfearful":1846,"Ġmock":1847,"Ġresol":1848,"Ġcounsel":1849,"ĠCamillo":1850,"DEL":1851,"no":1852,"Ġter":1853,"Ġmin":1854,"Ġwret":1855,"Ġbound":1856,"Ġbos":1857,"Ġdam":1858,"Ġcut":1859,"Ġye":1860,"ĠTill":1861,"ĠBo":1862,"ĠBuck":1863,"ĠBION":1864,"Ġeach":1865,"ads":1866,"alm":1867,"Ġshort":1868,"ĠVol":1869,"Ġknown":1870,"Ġwork":1871,"ortal":1872,"Ġhearts":1873,"Ġmarriage":1874,"Ġhonest":1875,"Ġtrib":1876,"ĠHastings":1877,"ĠGloucester":1878,"DELLO":1879,"Ġbosom":1880,"ĠBuckingham":1881,"ĠBIONDELLO":1882,"folk":1883,"iers":1884,"of":1885,"pare":1886,"sc":1887,"the":1888,"Ġve":1889,"Ġtit":1890,"Ġten":1891,"Ġtale":1892,"Ġwhi":1893,"Ġwonder":1894,"Ġwidow":1895,"Ġbit":1896,"ones":1897,"Ġdish":1898,"ench":1899,"ĠCap":1900,"rah":1901,"ĠThus":1902,"Ġsuit":1903,"Ġseek":1904,"ĠNorfolk":1905,"Ġwomen":1906,"Ġharm":1907,"Ġcompany":1908,"Ġguilt":1909,"Ġhighness":1910,"Ġstrike":1911,"Ġdraw":1912,"Ġattend":1913,"Ġserve":1914,"Ġvoices":1915,"Ġsomething":1916,"Ġmurder":1917,"ĠVols":1918,"OP":1919,"Tw":1920,"hood":1921,"most":1922,"Ġag":1923,"Ġsing":1924,"Ġsat":1925,"Ġside":1926,"Ġwatch":1927,"Ġbur":1928,"ished":1929,"Ġcor":1930,"ĠAUM":1931,"ĠCA":1932,"ander":1933,"Ġloving":1934,"Ġknew":1935,"ERLE":1936,"Ġdidst":1937,"Ġdist":1938,"Ġgentlemen":1939,"ĠANTON":1940,"Ġpret":1941,"Ġheavens":1942,"Ġchange":1943,"ĠLucentio":1944,"Ġstrength":1945,"ĠAUMERLE":1946,"ĠANTONIO":1947,"ALO":1948,"ZALO":1949,"Ġact":1950,"Ġsake":1951,"Ġwast":1952,"ĠTran":1953,"ĠWel":1954,"ĠBian":1955,"ents":1956,"Ġstir":1957,"ĠLanc":1958,"ĠGON":1959,"ĠPet":1960,"ĠMarry":1961,"Ġaff":1962,"Ġcloud":1963,"Ġpleasure":1964,"Ġenter":1965,"Ġbrave":1966,"ethinks":1967,"Ġenemies":1968,"ĠLancaster":1969,"ĠGONZALO":1970,"bly":1971,"fid":1972,"ives":1973,"Ġty":1974,"Ġsign":1975,"Ġmusic":1976,"Ġwa":1977,"rew":1978,"Ġbreat":1979,"Ġdr":1980,"Ġpra":1981,"Ġpie":1982,"Ġpale":1983,"Ġgar":1984,"Ġgates":1985,"ĠSw":1986,"ĠHER":1987,"ĠMost":1988,"oose":1989,"ĠLady":1990,"ĠPom":1991,"ils":1992,"Ġnext":1993,"Ġcoming":1994,"Ġthanks":1995,"Ġext":1996,"ĠUnt":1997,"Ġclose":1998,"Ġsouls":1999,"Ġbegg":2000,"Ġcourse":2001,"Ġwithal":2002,"Ġchee":2003,"ceived":2004,"Ġsuffer":2005,"Ġdeliver":2006,"Ġtitle":2007,"ĠBianca":2008,"DIO":2009,"be":2010,"vour":2011,"Ġsk":2012,"Ġsick":2013,"ĠAu":2014,"oward":2015,"Ġbecome":2016,"etch":2017,"Ġforg":2018,"ĠCh":2019,"ĠCLIFF":2020,"Ġweak":2021,"Ġeither":2022,"Ġlips":2023,"Ġthemselves":2024,"els":2025,"Ġjest":2026,"Ġplain":2027,"Ġabs":2028,"Ġrich":2029,"AUDIO":2030,"Ġgrie":2031,"ĠCLAUDIO":2032,"claim":2033,"MIONE":2034,"Ġpatience":2035,"ĠRich":2036,"Ġorder":2037,"ĠPetru":2038,"ĠHERMIONE":2039,"ĠCLIFFORD":2040,"DA":2041,"kes":2042,"ses":2043,"Ġac":2044,"Ġsame":2045,"Ġwis":2046,"Ġwall":2047,"rest":2048,"ready":2049,"isf":2050,"lly":2051,"Ġcast":2052,"arry":2053,"irth":2054,"ĠBes":2055,"ĠSince":2056,"chio":2057,"ĠMake":2058,"Ġforb":2059,"Ġforget":2060,"ĠCall":2061,"oof":2062,"ries":2063,"ĠLORD":2064,"Ġreg":2065,"race":2066,"urp":2067,"east":2068,"ĠEL":2069,"Ġven":2070,"Ġsworn":2071,"Ġworse":2072,"Ġprop":2073,"Ġtook":2074,"ĠJO":2075,"Ġpoison":2076,"Ġalong":2077,"ĠBeing":2078,"Ġbreast":2079,"Ġconsul":2080,"RANDA":2081,"twas":2082,"twere":2083,"Ġcheer":2084,"Ġvirtue":2085,"Ġmerry":2086,"ĠMIRANDA":2087,"Ġfurther":2088,"ĠTranio":2089,"fidius":2090,"ĠAufidius":2091,"ĠPetruchio":2092,"HN":2093,"SON":2094,"cy":2095,"lst":2096,"mit":2097,"Ġta":2098,"Ġmouth":2099,"Ġwed":2100,"Ġwise":2101,"Ġbad":2102,"Ġbook":2103,"Ġfour":2104,"Ġdu":2105,"Ġdire":2106,"Ġcr":2107,"Ġgave":2108,"Ġemb":2109,"Ġred":2110,"Ġliber":2111,"Ġsoft":2112,"ĠRe":2113,"vern":2114,"Ġself":2115,"rust":2116,"ions":2117,"Ġloves":2118,"rows":2119,"ally":2120,"Ġenc":2121,"Ġoffice":2122,"Ġalready":2123,"Ġwrit":2124,"Ġmove":2125,"ĠHereford":2126,"Ġbegin":2127,"Ġconsent":2128,"ĠAlas":2129,"Ġgiven":2130,"Ġrequest":2131,"Ġdangerous":2132,"Ġbattle":2133,"Ġissue":2134,"Ġmorning":2135,"ĠJOHN":2136,"fter":2137,"mond":2138,"mber":2139,"nk":2140,"pes":2141,"rist":2142,"uous":2143,"used":2144,"Ġburn":2145,"orge":2146,"Ġfrown":2147,"Ġfeast":2148,"Ġlad":2149,"Ġpay":2150,"ĠTower":2151,"anus":2152,"Ġgro":2153,"ats":2154,"ĠYes":2155,"each":2156,"Ġsucc":2157,"Ġneither":2158,"icer":2159,"Ġblack":2160,"Ġgoes":2161,"Ġsons":2162,"Ġexp":2163,"Ġfoe":2164,"ĠBefore":2165,"Ġtrou":2166,"dden":2167,"Ġsoldiers":2168,"Ġwounds":2169,"ĠSpeak":2170,"Ġbetween":2171,"Ġquarrel":2172,"Ġsatisf":2173,"ĠRichmond":2174,"NT":2175,"chan":2176,"ging":2177,"gare":2178,"ires":2179,"ures":2180,"Ġest":2181,"hem":2182,"Ġsigh":2183,"Ġmal":2184,"Ġbar":2185,"Ġbaw":2186,"Ġdro":2187,"Ġdark":2188,"Ġcase":2189,"Ġthri":2190,"aris":2191,"Ġhot":2192,"ĠAb":2193,"ĠAr":2194,"ots":2195,"owers":2196,"Ġoften":2197,"Ġhaving":2198,"ĠMust":2199,"Ġund":2200,"Ġspeech":2201,"Ġvict":2202,"Ġbless":2203,"empt":2204,"Ġthence":2205,"Ġpresence":2206,"TESBY":2207,"Ġpriv":2208,"Ġbride":2209,"Ġbrief":2210,"Ġservant":2211,"ĠUnless":2212,"ĠSuch":2213,"Ġwater":2214,"ĠBecause":2215,"ĠCATESBY":2216,"ĠWelcome":2217,"garet":2218,"ILI":2219,"oint":2220,"Ġmortal":2221,"Ġbow":2222,"Ġble":2223,"ona":2224,"Ġtown":2225,"Ġpen":2226,"Ġgot":2227,"Ġinter":2228,"irm":2229,"ĠBoth":2230,"ĠBapt":2231,"ĠSaint":2232,"Ġev":2233,"ĠLond":2234,"ĠTheir":2235,"alth":2236,"Ġsum":2237,"ĠKeep":2238,"ends":2239,"emn":2240,"Ġloved":2241,"Ġkings":2242,"cient":2243,"Ġwars":2244,"Ġflatter":2245,"ĠMargaret":2246,"ĠGREY":2247,"Ġmighty":2248,"Ġrespect":2249,"Ġcompl":2250,"Ġdread":2251,"Ġseems":2252,"Ġthrone":2253,"Ġvoice":2254,"Ġdeny":2255,"Ġspoke":2256,"ĠWhom":2257,"ĠCoriolanus":2258,"Ġvisit":2259,"ĠBaptist":2260,"ĠLondon":2261,"CA":2262,"IV":2263,"bed":2264,"eorge":2265,"ip":2266,"iant":2267,"so":2268,"ught":2269,"Ġaction":2270,"oun":2271,"Ġbro":2272,"Ġbab":2273,"Ġfra":2274,"ern":2275,"Ġcol":2276,"Ġcap":2277,"Ġhur":2278,"ĠBIAN":2279,"ourn":2280,"ĠLest":2281,"ĠGeorge":2282,"ided":2283,"ĠParis":2284,"ĠRIV":2285,"ĠEre":2286,"ĠDe":2287,"Ġsudden":2288,"Ġancient":2289,"Ġknock":2290,"Ġvow":2291,"Ġprot":2292,"Ġworship":2293,"Ġsafe":2294,"ired":2295,"ĠIsab":2296,"Ġprayers":2297,"ainted":2298,"Ġappear":2299,"Ġprincely":2300,"Ġchamber":2301,"Ġbuy":2302,"Ġdeeds":2303,"Ġpromise":2304,"Ġbitter":2305,"Ġdishon":2306,"ILIA":2307,"ĠBaptista":2308,"ĠBIANCA":2309,"ĠRIVERS":2310,"BOW":2311,"ls":2312,"lish":2313,"now":2314,"nown":2315,"ura":2316,"Ġign":2317,"Ġfres":2318,"Ġfetch":2319,"Ġcreat":2320,"Ġcross":2321,"Ġcoward":2322,"Ġlim":2323,"esh":2324,"essed":2325,"Ġopp":2326,"Ġpu":2327,"otion":2328,"stand":2329,"ated":2330,"right":2331,"ĠGAU":2332,"Ġreb":2333,"urch":2334,"ĠRoman":2335,"cks":2336,"Ġang":2337,"Ġviol":2338,"antage":2339,"oney":2340,"Ġkingdom":2341,"Ġsac":2342,"Ġflesh":2343,"Ġrage":2344,"Ġprepare":2345,"Ġheads":2346,"Ġscorn":2347,"Ġappro":2348,"Ġlead":2349,"ĠStand":2350,"Ġwitness":2351,"Ġtriump":2352,"Ġpresently":2353,"Ġpatient":2354,"Ġlament":2355,"Ġvaliant":2356,"ĠELBOW":2357,"Ġsuccess":2358,"Ġbawd":2359,"ĠGAUNT":2360,"GUE":2361,"UR":2362,"bit":2363,"ler":2364,"mand":2365,"sper":2366,"to":2367,"xford":2368,"Ġ3":2369,"Ġcle":2370,"Ġlack":2371,"Ġlab":2372,"Ġthrow":2373,"Ġow":2374,"Ġpit":2375,"ĠTY":2376,"Ġgall":2377,"Ġins":2378,"ĠBl":2379,"ĠHort":2380,"ĠMON":2381,"ĠMerc":2382,"Ġforward":2383,"Ġeat":2384,"ĠOxford":2385,"Ġkins":2386,"urs":2387,"iff":2388,"ĠThink":2389,"antag":2390,"Ġprin":2391,"Ġprithee":2392,"Ġwash":2393,"Ġunw":2394,"aken":2395,"Ġoffer":2396,"Ġleast":2397,"Ġslave":2398,"Ġscar":2399,"Ġmoon":2400,"ensio":2401,"Ġfaults":2402,"Ġsecret":2403,"Ġdefend":2404,"TAGUE":2405,"Ġtribunes":2406,"Ġdrink":2407,"ĠChrist":2408,"ĠHortensio":2409,"ĠMONTAGUE":2410,"ac":2411,"aul":2412,"ees":2413,"king":2414,"po":2415,"ued":2416,"vest":2417,"ying":2418,"Ġid":2419,"Ġsur":2420,"Ġmid":2421,"ines":2422,"Ġben":2423,"Ġfie":2424,"Ġdest":2425,"Ġnay":2426,"Ġthither":2427,"Ġhide":2428,"Ġocc":2429,"athar":2430,"Ġbeast":2431,"ĠWhi":2432,"ley":2433,"ĠHark":2434,"ĠCon":2435,"ĠGre":2436,"als":2437,"ĠDoth":2438,"ĠKathar":2439,"thumber":2440,"host":2441,"asters":2442,"feit":2443,"aked":2444,"pey":2445,"ĠJo":2446,"Ġalmost":2447,"Ġslaughter":2448,"ully":2449,"ĠNorthumber":2450,"Ġsmall":2451,"Ġchance":2452,"Ġdepart":2453,"Ġsubjects":2454,"Ġpossess":2455,"Ġexecution":2456,"Ġdamn":2457,"ĠBohem":2458,"Ġpretty":2459,"ĠPompey":2460,"ĠKatharina":2461,"ĠNorthumberland":2462,"GILIA":2463,"ITA":2464,"RGILIA":2465,"hind":2466,"Ġut":2467,"Ġtear":2468,"Ġwert":2469,"Ġbase":2470,"Ġbirth":2471,"Ġfill":2472,"Ġfond":2473,"Ġcertain":2474,"arl":2475,"Ġpain":2476,"ĠAd":2477,"ĠAm":2478,"inger":2479,"Ġinno":2480,"ĠBr":2481,"ĠHold":2482,"Ġform":2483,"ĠCa":2484,"Ġeas":2485,"Ġstru":2486,"Ġliving":2487,"ĠPeace":2488,"ĠPERD":2489,"ĠPaul":2490,"ĠEx":2491,"rum":2492,"Ġfavour":2493,"Ġgoodly":2494,"Ġusurp":2495,"cience":2496,"Ġproceed":2497,"Ġhadst":2498,"umb":2499,"Ġwhence":2500,"Ġtrump":2501,"Ġoffence":2502,"Ġhearing":2503,"Ġperform":2504,"perate":2505,"ledge":2506,"ĠVIRGILIA":2507,"Ġglad":2508,"Ġvirtuous":2509,"Ġawhile":2510,"Ġquickly":2511,"then":2512,"ĠSweet":2513,"ural":2514,"ĠBohemia":2515,"ĠPERDITA":2516,"LY":2517,"ding":2518,"dge":2519,"eem":2520,"iest":2521,"over":2522,"ror":2523,"ze":2524,"Ġtor":2525,"Ġay":2526,"Ġshi":2527,"Ġmatch":2528,"Ġmild":2529,"Ġwalk":2530,"Ġwild":2531,"isure":2532,"orth":2533,"Ġfier":2534,"ities":2535,"Ġca":2536,"omes":2537,"Ġinj":2538,"eds":2539,"edant":2540,"ĠSLY":2541,"Ġforsw":2542,"Ġur":2543,"raw":2544,"ĠYea":2545,"Ġshad":2546,"Ġknee":2547,"Ġkneel":2548,"astard":2549,"Ġblows":2550,"Ġworst":2551,"Ġquiet":2552,"ĠOff":2553,"ustom":2554,"Ġgreater":2555,"Ġaffection":2556,"Ġpleas":2557,"ĠMARIAN":2558,"Ġleisure":2559,"ĠStay":2560,"Ġslew":2561,"force":2562,"Ġtreason":2563,"Ġlawful":2564,"Ġchurch":2565,"Ġweeping":2566,"Ġsoldier":2567,"Ġdeserved":2568,"Ġguilty":2569,"ĠIsabel":2570,"Ġangry":2571,"ĠMARIANA":2572,"awn":2573,"fully":2574,"gg":2575,"gue":2576,"joy":2577,"ked":2578,"med":2579,"ual":2580,"vol":2581,"zen":2582,"Ġap":2583,"Ġsho":2584,"Ġmed":2585,"Ġmod":2586,"Ġwon":2587,"read":2588,"Ġfam":2589,"Ġfled":2590,"ony":2591,"Ġcitizen":2592,"Ġlist":2593,"Ġyear":2594,"eness":2595,"arn":2596,"aring":2597,"ĠTw":2598,"Ġbehind":2599,"ĠWatch":2600,"ĠWhile":2601,"Ġhap":2602,"ĠBel":2603,"Ġmeasure":2604,"ĠST":2605,"ĠMen":2606,"ĠMist":2607,"Ġem":2608,"adua":2609,"ĠOut":2610,"ĠGrem":2611,"ĠGrum":2612,"Ġreign":2613,"ĠPAR":2614,"ĠPadua":2615,"Ġsole":2616,"Ġdoom":2617,"Ġnob":2618,"ames":2619,"rupt":2620,"Ġourselves":2621,"Ġneck":2622,"Ġshows":2623,"ended":2624,"Ġshepherd":2625,"Ġblow":2626,"Ġgovern":2627,"Ġwouldst":2628,"Ġletter":2629,"Ġletters":2630,"Ġunc":2631,"Ġunk":2632,"Ġspeaks":2633,"Ġmarch":2634,"ighb":2635,"Ġcontin":2636,"osition":2637,"Ġneeds":2638,"ĠEnglish":2639,"Ġsentence":2640,"Ġprisoner":2641,"Ġbanishment":2642,"Ġsecond":2643,"Ġsense":2644,"Ġcondemn":2645,"ĠPlantag":2646,"Ġbecause":2647,"Ġclouds":2648,"Ġbreathe":2649,"Ġforbid":2650,"Ġliberty":2651,"Ġencoun":2652,"Ġladies":2653,"Ġtrouble":2654,"Ġdishonour":2655,"Ġignor":2656,"ĠGremio":2657,"ĠGrumio":2658,"ĠPARIS":2659,"ĠPlantagen":2660,":'":2661,"aves":2662,"acle":2663,"dle":2664,"oor":2665,"oss":2666,"rous":2667,"ĠX":2668,"Ġsort":2669,"Ġmut":2670,"Ġmorrow":2671,"ndred":2672,"Ġbig":2673,"Ġbones":2674,"Ġfive":2675,"ĠInt":2676,"Ġdry":2677,"Ġcru":2678,"Ġlan":2679,"Ġlaid":2680,"Ġpet":2681,"ĠToo":2682,"ĠTru":2683,"ĠAnt":2684,"Ġheld":2685,"vel":2686,"ster":2687,"ingly":2688,"Ġoft":2689,"ators":2690,"Ġnote":2691,"ĠHea":2692,"Ġstor":2693,"Ġsteal":2694,"ĠFear":2695,"ĠGaunt":2696,"Ġref":2697,"ider":2698,"Ġlived":2699,"Ġaside":2700,"Ġdog":2701,"Ġnoise":2702,"Ġseat":2703,"iles":2704,"Ġvain":2705,"Ġgrand":2706,"Ġproclaim":2707,"Ġprosper":2708,"Ġrough":2709,"Ġabove":2710,"ize":2711,"ĠPETER":2712,"Ġappare":2713,"Ġremain":2714,"Ġlonger":2715,"Ġwomb":2716,"Ġconscience":2717,"ĠSirrah":2718,"Ġchoose":2719,"Ġobey":2720,"Ġtemp":2721,"Ġdrunk":2722,"Ġgolden":2723,"Ġdispatch":2724,"Ġjoin":2725,"Ġhundred":2726,"Ġpiece":2727,"Ġvictory":2728,"ointed":2729,"Ġfresh":2730,"ĠPlantagenet":2731,"!--":2732,"TIUS":2733,"WIS":2734,"aith":2735,"bb":2736,"ban":2737,"ffect":2738,"hn":2739,"iled":2740,"ny":2741,"rim":2742,"ts":2743,"ulet":2744,"Ġtent":2745,"Ġsch":2746,"Ġsus":2747,"Ġsaint":2748,"inius":2749,"Ġbroke":2750,"Ġfat":2751,"Ġfine":2752,"erle":2753,"Ġdrown":2754,"Ġlen":2755,"Ġlow":2756,"Ġlau":2757,"Ġlust":2758,"Ġthreat":2759,"ĠARI":2760,"vey":2761,"Ġbend":2762,"set":2763,"Ġind":2764,"ceit":2765,"lease":2766,"ety":2767,"ĠSc":2768,"ĠHear":2769,"ĠMe":2770,"ĠCould":2771,"ĠCates":2772,"Ġeffect":2773,"Ġyourselves":2774,"Ġsto":2775,"Ġstood":2776,"Ġstain":2777,"Ġsteel":2778,"ĠLAR":2779,"Ġrevere":2780,"asion":2781,"ĠPer":2782,"Ġdoing":2783,"ĠEn":2784,"ĠEarl":2785,"ĠDOR":2786,"Ġknees":2787,"ular":2788,"Ġconqu":2789,"icious":2790,"ieu":2791,"Ġshed":2792,"Ġblessed":2793,"Ġknowledge":2794,"Ġswift":2795,"ounds":2796,"Ġsaf":2797,"ume":2798,"Ġexc":2799,"Ġdesperate":2800,"Ġwarm":2801,"Ġslander":2802,"Ġprecious":2803,"Ġbears":2804,"ĠLEWIS":2805,"Ġentertain":2806,"Ġpride":2807,"Ġpurs":2808,"uthor":2809,"Ġglory":2810,"Ġdouble":2811,"Ġwoes":2812,"posed":2813,"Ġlands":2814,"Ġobed":2815,"Ġcounter":2816,"Ġtowards":2817,"Ġdespair":2818,"ĠCapulet":2819,"ĠUnto":2820,"Ġforgot":2821,"Ġwisdom":2822,"Ġvenge":2823,"Ġlabour":2824,"Ġkinsman":2825,"Ġcitizens":2826,"ĠWatchman":2827,"Ġencounter":2828,"ĠXI":2829,"ĠARIEL":2830,"ĠCatesby":2831,"ĠLARTIUS":2832,";'":2833,"PSON":2834,"bray":2835,"gment":2836,"iance":2837,"ude":2838,"uff":2839,"vail":2840,"Ġauthor":2841,"Ġsour":2842,"Ġmount":2843,"Ġmethinks":2844,"Ġmoney":2845,"Ġmasters":2846,"rent":2847,"rence":2848,"Ġbastard":2849,"Ġfe":2850,"Ġfru":2851,"Ġfought":2852,"Ġfew":2853,"itors":2854,"Ġdance":2855,"Ġdied":2856,"Ġdeter":2857,"Ġcorn":2858,"Ġcapt":2859,"Ġpun":2860,"ĠAum":2861,"Ġhealth":2862,"owbray":2863,"ang":2864,"Ġhair":2865,"irl":2866,"ĠSAM":2867,"ĠMowbray":2868,"ĠCons":2869,"ĠCUR":2870,"Ġeld":2871,"Ġstud":2872,"ĠFri":2873,"ĠPedant":2874,"estion":2875,"ease":2876,"ĠDis":2877,"Ġseal":2878,"Ġsever":2879,"iful":2880,"ility":2881,"cted":2882,"Ġmanner":2883,"ĠVer":2884,"Ġconst":2885,"Ġuns":2886,"Ġquoth":2887,"Ġplant":2888,"Ġenjoy":2889,"ĠWithin":2890,"Ġran":2891,"Ġalive":2892,"Ġabro":2893,"Ġfoll":2894,"Ġhonours":2895,"Ġflowers":2896,"ations":2897,"Ġdeadly":2898,"Ġcontr":2899,"Ġwhite":2900,"Ġkept":2901,"Ġremed":2902,"Ġarmy":2903,"Ġlordship":2904,"ontent":2905,"TIS":2906,"Ġguest":2907,"Ġguess":2908,"Ġunderstand":2909,"Ġpromised":2910,"Ġwretched":2911,"Ġbeggar":2912,"Ġcheeks":2913,"ĠKeeper":2914,"ĠJohn":2915,"Ġstruck":2916,"Ġdeterm":2917,"ĠAumerle":2918,"ĠSAMPSON":2919,"ĠCURTIS":2920,"'re":2921,":--":2922,"AT":2923,"BU":2924,"GON":2925,"LEY":2926,"bury":2927,"den":2928,"ne":2929,"Ġtry":2930,"Ġteach":2931,"head":2932,"Ġaid":2933,"ounce":2934,"Ġsim":2935,"reed":2936,"orious":2937,"ited":2938,"Ġcred":2939,"Ġcried":2940,"Ġpal":2941,"Ġgent":2942,"utio":2943,"ĠMine":2944,"Ġstars":2945,"ĠLew":2946,"ĠFl":2947,"Ġliest":2948,"ash":2949,"ĠPut":2950,"ĠPardon":2951,"ĠPoor":2952,"Ġdeg":2953,"Ġdemand":2954,"ĠNe":2955,"Ġshake":2956,"ament":2957,"ĠEX":2958,"ĠEither":2959,"Ġseven":2960,"Ġherself":2961,"Ġspent":2962,"Ġneighb":2963,"Ġwhether":2964,"Ġamong":2965,"ief":2966,"Ġgoing":2967,"ppy":2968,"Ġprov":2969,"osed":2970,"Ġtruly":2971,"Ġrot":2972,"Ġofficer":2973,"Ġbrothers":2974,"Ġearly":2975,"ways":2976,"Ġhonourable":2977,"ĠANTI":2978,"Ġcalls":2979,"Ġmoved":2980,"Ġaccount":2981,"ĠCitizens":2982,"Ġkindred":2983,"Ġpriest":2984,"Ġguard":2985,"Ġcharity":2986,"Ġfoolish":2987,"Ġhumble":2988,"Ġdreams":2989,"Ġgreet":2990,"Ġvalour":2991,"Ġjudge":2992,"Ġwretch":2993,"Ġextrem":2994,"Ġsummer":2995,"Ġtriumph":2996,"ĠMercutio":2997,"Ġscarce":2998,"Ġcruel":2999,"ĠHeaven":3000,"BURY":3001,"GONUS":3002,"ĠLewis":3003,"ĠANTIGONUS":3004,"BR":3005,"CLIFF":3006,"house":3007,"lp":3008,"mble":3009,"pir":3010,"under":3011,"Ġwail":3012,"ining":3013,"Ġba":3014,"Ġfart":3015,"Ġfaint":3016,"ites":3017,"Ġdin":3018,"Ġdwell":3019,"Ġcir":3020,"Ġcustom":3021,"Ġyea":3022,"Ġthro":3023,"Ġpack":3024,"Ġga":3025,"Ġbeha":3026,"leep":3027,"ĠBet":3028,"ĠBid":3029,"ĠHarry":3030,"ĠMade":3031,"ĠMusic":3032,"Ġforce":3033,"Ġweary":3034,"Ġease":3035,"ĠOnce":3036,"Ġstone":3037,"ĠFaith":3038,"ask":3039,"ĠRAT":3040,"roy":3041,"ĠNever":3042,"Ġbutcher":3043,"ify":3044,"Ġanon":3045,"Ġfaire":3046,"Ġours":3047,"though":3048,"Ġvie":3049,"arted":3050,"Ġblame":3051,"Ġthereof":3052,"Ġunf":3053,"Ġprovost":3054,"Ġdism":3055,"Ġenvy":3056,"Ġrise":3057,"Ġthinks":3058,"Ġwherefore":3059,"Ġrid":3060,"ĠMars":3061,"Ġparty":3062,"Ġadd":3063,"Ġothers":3064,"Ġimag":3065,"ians":3066,"Ġtrial":3067,"Ġkindness":3068,"Ġchast":3069,"Ġsubst":3070,"Ġbids":3071,"Ġfellows":3072,"Ġbright":3073,"Ġglass":3074,"Ġmiser":3075,"ĠAlack":3076,"Ġcrave":3077,"ĠCominius":3078,"Ġwinter":3079,"Ġcondition":3080,"Ġmonth":3081,"Ġhung":3082,"Ġminister":3083,"ĠVolsces":3084,"Twas":3085,"Ġwalls":3086,"Ġsatisfied":3087,"Ġmalice":3088,"Ġprivate":3089,"Ġidle":3090,"Ġbenef":3091,"orthy":3092,"Ġlaugh":3093,"Ġvengeance":3094,"Ġabroad":3095,"BRA":3096,"ĠRATCLIFF":3097,"Ġview":3098,"BAL":3099,"HOP":3100,"ners":3101,"ope":3102,"vious":3103,"with":3104,"Ġver":3105,"Ġwre":3106,"Ġwag":3107,"Ġwench":3108,"incentio":3109,"rees":3110,"Ġbite":3111,"orous":3112,"Ġfirm":3113,"Ġdull":3114,"Ġcorse":3115,"Ġlest":3116,"enes":3117,"Ġhol":3118,"ĠAfter":3119,"vell":3120,"omas":3121,"Ġgown":3122,"ating":3123,"Ġbef":3124,"Ġincl":3125,"cell":3126,"utland":3127,"ĠBarn":3128,"Ġmeat":3129,"ĠHence":3130,"ĠMant":3131,"ĠMethinks":3132,"Ġformer":3133,"ĠFie":3134,"Ġrel":3135,"Ġreceived":3136,"ident":3137,"ĠPeter":3138,"ĠPlease":3139,"Ġdeal":3140,"ĠRutland":3141,"amp":3142,"ĠDes":3143,"ĠThomas":3144,"Ġsport":3145,"Ġvice":3146,"Ġvile":3147,"Ġshore":3148,"Ġshrew":3149,"ĠVincentio":3150,"Ġconcl":3151,"Ġconvey":3152,"Ġblind":3153,"Ġgod":3154,"ANLEY":3155,"allow":3156,"Ġarri":3157,"Ġunb":3158,"Ġunl":3159,"Ġunp":3160,"Ġmayst":3161,"Ġquite":3162,"Ġquestion":3163,"eless":3164,"icked":3165,"Ġhonesty":3166,"Ġfoes":3167,"Ġroot":3168,"ĠLords":3169,"ĠUnder":3170,"Ġflower":3171,"Ġafford":3172,"lock":3173,"Ġtongues":3174,"Ġcounten":3175,"Ġsmo":3176,"ailor":3177,"Ġcover":3178,"Ġchanged":3179,"rench":3180,"ĠShow":3181,"Ġhumour":3182,"Ġswords":3183,"Ġboot":3184,"ISHOP":3185,"Ġdeputy":3186,"ĠCorioli":3187,"Ġjudgment":3188,"scal":3189,"Ġtyrant":3190,"Ġacqu":3191,"Ġprophe":3192,"Ġevil":3193,"ĠTYBAL":3194,"ĠWhilst":3195,"Ġeasy":3196,"ĠPaulina":3197,"ĠSTANLEY":3198,"ĠTrue":3199,"Ġschool":3200,"Ġexcuse":3201,"Ġfruit":3202,"ĠMantua":3203,"ĠTYBALT":3204,"'?":3205,"AK":3206,"HOM":3207,"acher":3208,"ek":3209,"ead":3210,"ered":3211,"mon":3212,"roth":3213,"rate":3214,"rison":3215,"she":3216,"und":3217,"vish":3218,"woman":3219,"Ġtaken":3220,"Ġwither":3221,"Ġwicked":3222,"Ġbrow":3223,"Ġbrows":3224,"Ġfain":3225,"Ġfeed":3226,"Ġfinger":3227,"ĠInd":3228,"llo":3229,"Ġdust":3230,"Ġcure":3231,"Ġthunder":3232,"Ġpains":3233,"ĠTut":3234,"ĠTHOM":3235,"anley":3236,"omer":3237,"Ġgrown":3238,"Ġgross":3239,"Ġgift":3240,"Ġghost":3241,"Ġgirl":3242,"att":3243,"ĠWilt":3244,"ĠSic":3245,"Ġstab":3246,"Ġstop":3247,"Ġstoop":3248,"ĠLo":3249,"ĠLove":3250,"ENBURY":3251,"idings":3252,"ract":3253,"Ġdoor":3254,"Ġnose":3255,"ĠDost":3256,"arden":3257,"Ġspe":3258,"Ġspake":3259,"Ġspring":3260,"ilia":3261,"Ġnecess":3262,"Ġknave":3263,"Ġproof":3264,"Ġsheep":3265,"Ġblest":3266,"ement":3267,"Ġsirrah":3268,"Ġtherein":3269,"AND":3270,"cians":3271,"ĠJove":3272,"Ġdisg":3273,"Ġalways":3274,"ursed":3275,"Ġleaves":3276,"Ġtwice":3277,"aper":3278,"Ġprevent":3279,"Ġprevail":3280,"Ġperceive":3281,"Ġrepent":3282,"ĠStanley":3283,"ĠBRAK":3284,"Ġtraitors":3285,"twixt":3286,"Ġimport":3287,"Ġundert":3288,"Ġwrongs":3289,"Ġburied":3290,"ealous":3291,"Ġreasons":3292,"Ġsenate":3293,"Ġgreen":3294,"Ġchoice":3295,"azed":3296,"Ġsilence":3297,"Ġjoint":3298,"Ġdivine":3299,"ĠPrince":3300,"Ġwhilst":3301,"Ġaffair":3302,"Ġtyran":3303,"ĠBesides":3304,"Ġembrace":3305,"ĠArt":3306,"ĠDeath":3307,"Ġcreature":3308,"Ġsacred":3309,"Ġoccasion":3310,"Ġinnocent":3311,"ĠBrother":3312,"ĠCaius":3313,"Ġfiery":3314,"ĠMistress":3315,"Ġleng":3316,"Ġsafety":3317,"ĠFriar":3318,"ĠVerona":3319,"Ġremedy":3320,"Ġcirc":3321,"ĠTHOMAS":3322,"ĠBRAKENBURY":3323,"?'":3324,"GOR":3325,"RESS":3326,"VERD":3327,"ault":3328,"eld":3329,"jo":3330,"loy":3331,"mn":3332,"nat":3333,"oly":3334,"oard":3335,"pin":3336,"sp":3337,"shi":3338,"sic":3339,"Ġes":3340,"Ġed":3341,"Ġtast":3342,"Ġavo":3343,"Ġship":3344,"Ġsits":3345,"Ġwent":3346,"Ġwings":3347,"inous":3348,"Ġbark":3349,"orry":3350,"Ġfury":3351,"itol":3352,"itted":3353,"Ġdri":3354,"Ġcre":3355,"Ġlar":3356,"enius":3357,"ĠTurn":3358,"ĠAE":3359,"ĠApo":3360,"anch":3361,"omp":3362,"Ġgarden":3363,"Ġbelly":3364,"Ġinform":3365,"edious":3366,"ĠSomer":3367,"Ġused":3368,"Ġweeds":3369,"Ġele":3370,"Ġeag":3371,"Ġemp":3372,"ĠOVERD":3373,"Ġstones":3374,"Ġrenown":3375,"Ġdec":3376,"Ġdeceived":3377,"Ġshar":3378,"ĠDER":3379,"Ġallow":3380,"Ġanger":3381,"Ġloath":3382,"Ġloyal":3383,"ardine":3384,"hant":3385,"Ġfares":3386,"Ġknight":3387,"ctise":3388,"Ġshr":3389,"Ġshri":3390,"othing":3391,"Ġoracle":3392,"ĠMyself":3393,"Ġmayor":3394,"hysic":3395,"elve":3396,"Ġhollow":3397,"Ġsail":3398,"Ġplot":3399,"Ġplague":3400,"ONE":3401,"Ġfright":3402,"unning":3403,"ĠWithout":3404,"Ġround":3405,"Ġrob":3406,"Ġrock":3407,"Ġwherein":3408,"Ġdesign":3409,"ĠWherein":3410,"aughters":3411,"STRESS":3412,"Ġadieu":3413,"Ġcommend":3414,"Ġprayer":3415,"Ġclaim":3416,"Ġplead":3417,"Ġtroth":3418,"aced":3419,"Ġrude":3420,"Ġsmile":3421,"Ġtreacher":3422,"Ġimprison":3423,"Ġcares":3424,"ĠGREGOR":3425,"Ġmaids":3426,"Ġdrawn":3427,"Ġwanton":3428,"Ġassist":3429,"unts":3430,"Ġtempt":3431,"Ġcondu":3432,"Ġdeserve":3433,"ĠMISTRESS":3434,"ĠHaving":3435,"Ġprofess":3436,"Ġdelight":3437,"Ġdespite":3438,"ĠPrithee":3439,"ĠCapitol":3440,"Ġpractise":3441,"Ġcheek":3442,"Ġabsence":3443,"Ġdrop":3444,"Ġbroken":3445,"Ġviolent":3446,"Ġutter":3447,"Ġtrumpets":3448,"ĠMenenius":3449,"Ġempt":3450,"Ġignorant":3451,"Ġlangu":3452,"Ġrotten":3453,"ĠBarnardine":3454,"Ġcountenance":3455,"ĠIndeed":3456,"ĠSomerset":3457,"ĠOVERDONE":3458,"ĠDERBY":3459,"ĠGREGORY":3460,"FORD":3461,"MON":3462,"XFORD":3463,"act":3464,"cha":3465,"draw":3466,"eous":3467,"mion":3468,"pet":3469,"Ġtune":3470,"Ġtidings":3471,"Ġtedious":3472,"held":3473,"Ġaim":3474,"Ġaught":3475,"Ġsix":3476,"Ġsens":3477,"Ġmotion":3478,"Ġwont":3479,"Ġwives":3480,"rehe":3481,"haps":3482,"Ġball":3483,"isa":3484,"ises":3485,"onounce":3486,"Ġdet":3487,"Ġdur":3488,"Ġdue":3489,"Ġcell":3490,"Ġcries":3491,"Ġnine":3492,"Ġnumber":3493,"Ġnames":3494,"Ġloud":3495,"esy":3496,"Ġthrust":3497,"Ġhit":3498,"Ġhid":3499,"Ġpin":3500,"Ġpil":3501,"Ġpair":3502,"Ġpawn":3503,"othe":3504,"Ġgain":3505,"semb":3506,"Ġinfect":3507,"cend":3508,"utes":3509,"iment":3510,"ĠSha":3511,"ĠSOM":3512,"ĠCousin":3513,"rious":3514,"ĠOXFORD":3515,"Ġstar":3516,"Ġstat":3517,"Ġsteed":3518,"Ġstock":3519,"Ġstuff":3520,"ĠLea":3521,"ĠGreat":3522,"Ġreceive":3523,"rand":3524,"ashi":3525,"ĠPre":3526,"ĠPol":3527,"ĠPisa":3528,"Ġasleep":3529,"Ġdew":3530,"Ġdeare":3531,"Ġdeposed":3532,"Ġones":3533,"ĠRes":3534,"ĠThree":3535,"ĠThurs":3536,"ĠKnow":3537,"ards":3538,"Ġvantage":3539,"ERIA":3540,"ĠVAL":3541,"Ġamb":3542,"ongs":3543,"Ġjealous":3544,"Ġshouldst":3545,"Ġproper":3546,"Ġenvious":3547,"Ġoutward":3548,"ĠRICHMON":3549,"Ġwhole":3550,"Ġoffend":3551,"Ġalas":3552,"Ġheav":3553,"Ġexcell":3554,"Ġearn":3555,"eeth":3556,"ĠMark":3557,"Ġmeaning":3558,"Ġchief":3559,"Ġbegins":3560,"Ġruin":3561,"ission":3562,"Ġresign":3563,"Ġtread":3564,"ethought":3565,"Ġbanished":3566,"Ġpassing":3567,"Ġpleased":3568,"Ġwoful":3569,"Ġdevise":3570,"Ġfollowers":3571,"Ġfools":3572,"ĠHermion":3573,"Ġadvise":3574,"Ġpersu":3575,"Ġhanging":3576,"Ġgives":3577,"Ġrememb":3578,"Ġawake":3579,"Ġborne":3580,"Ġsupper":3581,"Ġcarry":3582,"Ġlamb":3583,"aze":3584,"ĠRivers":3585,"Ġdisposition":3586,"Ġbecomes":3587,"Ġpossible":3588,"ERSET":3589,"Ġburthen":3590,"Ġgarments":3591,"Ġcastle":3592,"Ġexpress":3593,"change":3594,"Ġsighs":3595,"Ġthrive":3596,"Ġundone":3597,"Ġdreadful":3598,"Ġbabe":3599,"Ġcolour":3600,"Ġprotect":3601,"Ġpubl":3602,"Ġprepared":3603,"ĠChristian":3604,"ĠGrey":3605,"Ġdamned":3606,"Ġnobles":3607,"ĠInto":3608,"Ġstorm":3609,"Ġfatal":3610,"Ġauthority":3611,"Ġfollows":3612,"Ġsimple":3613,"Ġfarther":3614,"Ġthroat":3615,"ĠMusician":3616,"Ġbenefit":3617,"Ġaffairs":3618,"pinion":3619,"ĠApollo":3620,"ĠSOMERSET":3621,"ĠThursday":3622,"ĠVALERIA":3623,"ĠRICHMOND":3624,"ĠHermione":3625,"BH":3626,"HY":3627,"LIUS":3628,"SA":3629,"after":3630,"cing":3631,"eg":3632,"go":3633,"gle":3634,"iond":3635,"ron":3636,"thi":3637,"ub":3638,"yard":3639,"yond":3640,"Ġer":3641,"Ġir":3642,"Ġtort":3643,"Ġteeth":3644,"Ġsan":3645,"Ġsorry":3646,"Ġmurderer":3647,"Ġmourn":3648,"Ġwine":3649,"Ġwander":3650,"Ġband":3651,"Ġbond":3652,"erved":3653,"itude":3654,"Ġdaughters":3655,"Ġcal":3656,"Ġcam":3657,"Ġcens":3658,"Ġcunning":3659,"Ġlend":3660,"ene":3661,"enn":3662,"arch":3663,"Ġtop":3664,"Ġpaper":3665,"Ġphysic":3666,"ĠTailor":3667,"ĠABH":3668,"Ġgage":3669,"atsw":3670,"Ġbew":3671,"Ġbelike":3672,"Ġbeheld":3673,"ldom":3674,"eding":3675,"utation":3676,"ĠBUS":3677,"ĠBoy":3678,"ĠBona":3679,"ĠBiond":3680,"ĠHas":3681,"ĠMAMIL":3682,"ĠMOW":3683,"ĠMOP":3684,"Ġweight":3685,"Ġweap":3686,"ills":3687,"illing":3688,"Ġequ":3689,"enture":3690,"rib":3691,"Ġstore":3692,"Ġstep":3693,"ords":3694,"Ġlip":3695,"room":3696,"usion":3697,"Ġseas":3698,"iffe":3699,"Ġsup":3700,"run":3701,"Ġange":3702,"Ġlod":3703,"Ġspend":3704,"Ġspare":3705,"ello":3706,"ellow":3707,"hop":3708,"Ġvan":3709,"ORSON":3710,"ouses":3711,"Ġshut":3712,"ETER":3713,"Ġgoodness":3714,"ĠVery":3715,"Ġconj":3716,"ĠHelp":3717,"Ġsway":3718,"Ġbrook":3719,"Ġkingly":3720,"Ġunnat":3721,"ortion":3722,"Ġquit":3723,"imely":3724,"Ġdisd":3725,"Ġexile":3726,"Ġroom":3727,"Ġdesert":3728,"Ġgentlewoman":3729,"Ġflight":3730,"Ġtwelve":3731,"Ġaffect":3732,"Ġparts":3733,"Ġpartic":3734,"Ġrash":3735,"Ġadm":3736,"Ġprey":3737,"Ġperil":3738,"Ġperish":3739,"Ġperfect":3740,"Ġwrath":3741,"Ġtrans":3742,"Ġwhither":3743,"iteous":3744,"Ġuntil":3745,"loved":3746,"Ġintend":3747,"Ġlean":3748,"Ġlegs":3749,"orses":3750,"ĠStill":3751,"Ġkeeps":3752,"Ġaccess":3753,"Ġaccus":3754,"Ġaccuse":3755,"Ġprize":3756,"Ġchair":3757,"ixenes":3758,"Ġcourtesy":3759,"Ġhumbly":3760,"ounty":3761,"Ġadvantage":3762,"Ġcurst":3763,"Ġcrack":3764,"Ġspirits":3765,"Ġdenied":3766,"Ġdrum":3767,"ancy":3768,"Ġsilver":3769,"Ġbetwixt":3770,"place":3771,"Ġdelay":3772,"Ġresolve":3773,"Ġresolved":3774,"Ġcorrupt":3775,"Ġaccept":3776,"Ġwedding":3777,"Ġpenit":3778,"Ġhurt":3779,"Ġprotest":3780,"Ġclear":3781,"Ġowe":3782,"Ġforsworn":3783,"Ġshadow":3784,"ĠOfficer":3785,"Ġpleasant":3786,"ĠBelieve":3787,"Ġsolemn":3788,"Ġcontinue":3789,"Ġpetition":3790,"Ġthreaten":3791,"Ġconquer":3792,"Ġpunish":3793,"Ġseveral":3794,"Ġcontrary":3795,"Ġpalace":3796,"ĠEXETER":3797,"Ġneighbour":3798,"Ġdinner":3799,"Ġmiserable":3800,"BRAY":3801,"Ġspeci":3802,"Ġcircum":3803,"Ġtaste":3804,"Ġempty":3805,"ĠLeave":3806,"ĠPolixenes":3807,"Ġsanct":3808,"ĠABHORSON":3809,"atswain":3810,"ĠBUSHY":3811,"ĠBiondello":3812,"ĠMAMILLIUS":3813,"ĠMOWBRAY":3814,"ĠMOPSA":3815,"CH":3816,"RCH":3817,"af":3818,"aff":3819,"clock":3820,"dy":3821,"mity":3822,"oot":3823,"oke":3824,"ping":3825,"pic":3826,"rt":3827,"sing":3828,"tune":3829,"ung":3830,"urious":3831,"Ġtut":3832,"Ġtable":3833,"hearted":3834,"Ġscept":3835,"Ġmiss":3836,"Ġmaking":3837,"Ġwot":3838,"Ġwood":3839,"Ġwol":3840,"Ġwond":3841,"rease":3842,"Ġbot":3843,"Ġbas":3844,"Ġbare":3845,"Ġbud":3846,"ising":3847,"Ġfle":3848,"Ġfro":3849,"Ġfee":3850,"Ġfashi":3851,"erve":3852,"Ġdi":3853,"Ġdign":3854,"Ġdies":3855,"Ġdag":3856,"Ġcup":3857,"Ġcalm":3858,"Ġnaked":3859,"Ġyonder":3860,"ency":3861,"aries":3862,"Ġhunt":3863,"Ġhorses":3864,"Ġopinion":3865,"Ġtomb":3866,"Ġpi":3867,"Ġpure":3868,"Ġpainted":3869,"Ġpiteous":3870,"ĠARCH":3871,"Ġheed":3872,"ote":3873,"ane":3874,"Ġgate":3875,"Ġbeyond":3876,"Ġbeloved":3877,"sequ":3878,"irg":3879,"uted":3880,"ĠBear":3881,"ĠBAL":3882,"ĠBISHOP":3883,"Ġmend":3884,"ĠMight":3885,"ĠCo":3886,"Ġweigh":3887,"ourish":3888,"Ġstory":3889,"ĠFather":3890,"ĠFrench":3891,"Ġreward":3892,"ĠPERC":3893,"urance":3894,"Ġdebt":3895,"ĠRight":3896,"ĠRep":3897,"ĠNone":3898,"ĠNap":3899,"ĠNothing":3900,"amed":3901,"Ġsep":3902,"Ġseest":3903,"Ġfail":3904,"Ġfaces":3905,"que":3906,"Ġcomb":3907,"Ġcomple":3908,"Ġpronounce":3909,"Ġamen":3910,"outs":3911,"oler":3912,"Ġhatred":3913,"Ġswallow":3914,"Ġhereafter":3915,"Ġtheirs":3916,"pping":3917,"Ġarg":3918,"igence":3919,"Ġquench":3920,"Ġhopes":3921,"Ġseeing":3922,"cio":3923,"cian":3924,"umble":3925,"Ġdiss":3926,"Ġexpect":3927,"Ġfolly":3928,"Ġrose":3929,"Ġlooking":3930,"ustice":3931,"Ġslow":3932,"Ġfairly":3933,"Ġcalled":3934,"Ġado":3935,"Ġclo":3936,"Ġperpet":3937,"Ġways":3938,"THAS":3939,"Ġwhore":3940,"Ġremains":3941,"lesome":3942,"Ġintent":3943,"Ġcrowns":3944,"Ġcourage":3945,"Ġhark":3946,"Ġwits":3947,"Ġends":3948,"Ġendure":3949,"ĠOnly":3950,"Ġtremb":3951,"Ġneedful":3952,"Ġjoys":3953,"Ġjoyful":3954,"Ġservices":3955,"Ġmistake":3956,"Ġfortunes":3957,"Ġbodies":3958,"Ġnatural":3959,"Ġhappiness":3960,"Ġmisery":3961,"Ġchide":3962,"Ġturns":3963,"Ġattempt":3964,"Ġadvance":3965,"Ġcurses":3966,"Ġassurance":3967,"Ġdiscover":3968,"Ġdiscontent":3969,"Ġcommanded":3970,"Ġsenators":3971,"Ġsometime":3972,"Ġsometimes":3973,"Ġdares":3974,"Ġtemper":3975,"Ġwounded":3976,"Ġspoken":3977,"ĠMayor":3978,"Ġmarket":3979,"cape":3980,"Ġwaters":3981,"Ġinstruct":3982,"Ġinstrument":3983,"Ġcursed":3984,"Ġterror":3985,"Ġshortly":3986,"Ġwhiles":3987,"Ġgriev":3988,"ĠBeseech":3989,"Ġduked":3990,"Ġgroan":3991,"Ġcomplain":3992,"Ġcolours":3993,"Ġprinces":3994,"Ġprincess":3995,"ĠTwo":3996,"Ġgovernment":3997,"Ġapparel":3998,"Ġobedience":3999,"Ġcounterfeit":4000,"Ġcredit":4001,"ĠMarshal":4002,"Ġwreck":4003,"Ġundertake":4004,"Ġlarge":4005,"ĠAEd":4006,"Ġemploy":4007,"Ġsharp":4008,"Ġlanguage":4009,"Ġdurst":4010,"Ġexcellent":4011,"Ġremembrance":4012,"Ġpublic":4013,"Ġunnatural":4014,"picion":4015,"ĠBALTHAS":4016,"ĠPERCY":4017,"Ġdukedom":4018,"ĠBALTHASAR":4019,"?--":4020,"CAS":4021,"FOL":4022,"OS":4023,"afe":4024,"bow":4025,"born":4026,"dds":4027,"fer":4028,"gers":4029,"hor":4030,"lar":4031,"lic":4032,"oe":4033,"oved":4034,"same":4035,"uary":4036,"val":4037,"vours":4038,"whe":4039,"what":4040,"wise":4041,"ys":4042,"Ġtest":4043,"Ġtap":4044,"hest":4045,"Ġsink":4046,"Ġsins":4047,"Ġmill":4048,"Ġmag":4049,"Ġmaint":4050,"Ġmile":4051,"ination":4052,"happy":4053,"isper":4054,"ishop":4055,"Ġfame":4056,"ita":4057,"Ġcease":4058,"Ġnought":4059,"Ġled":4060,"ences":4061,"Ġthief":4062,"Ġhost":4063,"Ġhouses":4064,"Ġodd":4065,"Ġodds":4066,"Ġpol":4067,"Ġpowers":4068,"ĠTit":4069,"ĠApp":4070,"ĠAmen":4071,"strous":4072,"Ġgru":4073,"atic":4074,"Ġbeth":4075,"ĠWidow":4076,"ĠWorthy":4077,"Ġhaz":4078,"Ġmere":4079,"Ġmeant":4080,"ĠSet":4081,"Ġisle":4082,"Ġisland":4083,"ĠCal":4084,"Ġweather":4085,"ourage":4086,"Ġeast":4087,"Ġits":4088,"Ġstol":4089,"Ġkin":4090,"ĠLe":4091,"ĠLay":4092,"ĠLong":4093,"ĠFour":4094,"Ġrepe":4095,"Ġrealm":4096,"idence":4097,"ĠPost":4098,"ĠPage":4099,"ĠRet":4100,"ĠRem":4101,"ĠRos":4102,"ĠROS":4103,"Ġshape":4104,"ĠEl":4105,"ĠDear":4106,"ĠDorse":4107,"uses":4108,"Ġseize":4109,"ified":4110,"ĠThose":4111,"Ġspite":4112,"Ġknife":4113,"Ġvirg":4114,"Ġshun":4115,"ants":4116,"arts":4117,"Ġcomest":4118,"Ġmanners":4119,"Ġconc":4120,"ieved":4121,"Ġblock":4122,"Ġblush":4123,"ared":4124,"arent":4125,"olute":4126,"Ġbrings":4127,"Ġung":4128,"Ġworn":4129,"Ġqual":4130,"Ġjourn":4131,"ĠYoung":4132,"akest":4133,"Ġfathers":4134,"ument":4135,"ĠJack":4136,"Ġenmity":4137,"Ġring":4138,"Ġalter":4139,"ĠSold":4140,"Ġrogue":4141,"Ġfriendly":4142,"Ġflies":4143,"ĠMarch":4144,"Ġslay":4145,"tled":4146,"Ġadvers":4147,"Ġwrite":4148,"Ġtrade":4149,"Ġscope":4150,"Ġscene":4151,"Ġcontract":4152,"Ġapprehe":4153,"Ġarmour":4154,"Ġuntimely":4155,"ctions":4156,"ression":4157,"Ġimm":4158,"Ġrepair":4159,"Ġintell":4160,"Ġconsider":4161,"Ġrule":4162,"Ġleads":4163,"Ġtrick":4164,"Ġslept":4165,"Ġaccord":4166,"Ġcompan":4167,"Ġcompass":4168,"Ġpurcha":4169,"Ġcock":4170,"Ġbrain":4171,"Ġseeming":4172,"Ġimposs":4173,"Ġglorious":4174,"Ġpassion":4175,"Ġpassage":4176,"Ġmaiden":4177,"Ġhateful":4178,"Ġstrew":4179,"Ġinstant":4180,"uteous":4181,"Ġserves":4182,"Ġboar":4183,"Ġwants":4184,"ĠGentlemen":4185,"ĠNORFOL":4186,"Ġwinds":4187,"Ġcontented":4188,"Ġfreely":4189,"Ġgrey":4190,"Ġdrums":4191,"Ġmonstrous":4192,"ĠLucio":4193,"Ġcholer":4194,"Ġgrows":4195,"Ġdeserves":4196,"ĠWhither":4197,"Ġgranted":4198,"Ġincrease":4199,"Ġresolution":4200,"noon":4201,"Ġterms":4202,"ĠBoatswain":4203,"Ġvex":4204,"ĠVolsce":4205,"Ġwait":4206,"Ġpraise":4207,"Ġsky":4208,"Ġabsent":4209,"Ġvenom":4210,"Ġdirect":4211,"chance":4212,"Ġdrops":4213,"Ġprivile":4214,"Ġrespected":4215,"Ġframe":4216,"Ġoppos":4217,"Ġapproach":4218,"ĠExeter":4219,"Ġtorment":4220,"Ġunknown":4221,"Ġprosperous":4222,"Ġsuspicion":4223,"Ġreverend":4224,"ĠDORCAS":4225,"Ġcaptain":4226,"Ġdegree":4227,"Ġbehalf":4228,"Ġsmooth":4229,"Ġtreacherous":4230,"Ġearnest":4231,"Ġcamest":4232,"Ġdisdain":4233,"Ġparticular":4234,"Ġsceptre":4235,"Ġdagger":4236,"ĠNaples":4237,"ĠROSS":4238,"ĠDorset":4239,"ĠNORFOLK":4240,"GH":4241,"God":4242,"NS":4243,"RR":4244,"SET":4245,"aily":4246,"fl":4247,"fret":4248,"iven":4249,"iate":4250,"just":4251,"kin":4252,"mend":4253,"ped":4254,"uce":4255,"Ġing":4256,"Ġtame":4257,"Ġtaught":4258,"Ġtide":4259,"Ġable":4260,"Ġsqu":4261,"Ġsouth":4262,"Ġmor":4263,"Ġmessenger":4264,"iny":4265,"rey":4266,"reland":4267,"reme":4268,"Ġbird":4269,"Ġbury":4270,"Ġfig":4271,"Ġfurn":4272,"ĠIreland":4273,"Ġdig":4274,"Ġdress":4275,"Ġdying":4276,"Ġdaily":4277,"Ġchat":4278,"Ġcatch":4279,"Ġlark":4280,"Ġthorn":4281,"Ġthird":4282,"Ġpurse":4283,"Ġparent":4284,"ĠALO":4285,"ances":4286,"omans":4287,"Ġglo":4288,"ature":4289,"atcl":4290,"atience":4291,"Ġbeard":4292,"ĠBer":4293,"ĠBra":4294,"ĠBring":4295,"Ġmelt":4296,"ĠSe":4297,"ĠSon":4298,"ĠSave":4299,"ĠHunts":4300,"ĠMil":4301,"ĠCame":4302,"Ġwept":4303,"Ġwealth":4304,"ades":4305,"ric":4306,"ricians":4307,"Ġstamp":4308,"ĠLau":4309,"ĠFERD":4310,"ĠFroth":4311,"ĠGhost":4312,"Ġrevol":4313,"rain":4314,"raced":4315,"INAND":4316,"Ġlion":4317,"ales":4318,"aline":4319,"ĠRomans":4320,"ĠRatcl":4321,"ĠYe":4322,"Ġwilling":4323,"Ġwillingly":4324,"Ġnobl":4325,"Ġnobly":4326,"ĠDown":4327,"Ġseason":4328,"andal":4329,"Ġsuck":4330,"Ġspr":4331,"Ġspur":4332,"Ġvows":4333,"Ġvault":4334,"Ġconce":4335,"Ġconceit":4336,"Ġamazed":4337,"ember":4338,"Ġswell":4339,"Ġlovely":4340,"Ġunless":4341,"Ġworthi":4342,"elt":4343,"Ġjew":4344,"Ġmuster":4345,"Ġshoulder":4346,"Ġprovo":4347,"Ġdisper":4348,"Ġens":4349,"Ġenforce":4350,"Ġruth":4351,"Ġalike":4352,"Ġaboard":4353,"Ġabhor":4354,"Ġroar":4355,"Ġtells":4356,"Ġwhereof":4357,"Ġwarlike":4358,"Ġflatt":4359,"Ġfears":4360,"Ġhasty":4361,"Ġgreatest":4362,"Ġrap":4363,"Ġraise":4364,"Ġrascal":4365,"Ġadver":4366,"Ġcommitted":4367,"Ġcommission":4368,"Ġclam":4369,"Ġperj":4370,"Ġperforce":4371,"Ġwrought":4372,"Ġpress":4373,"Ġbearing":4374,"Ġnorth":4375,"liament":4376,"Ġwhisper":4377,"ĠThanks":4378,"Ġbegun":4379,"Ġpeers":4380,"ĠStri":4381,"Ġwitch":4382,"Ġaccused":4383,"Ġputs":4384,"Ġkindly":4385,"Ġcounty":4386,"Ġsmiles":4387,"Ġfinds":4388,"Ġbraw":4389,"Ġcharged":4390,"Ġafternoon":4391,"Ġholds":4392,"ĠGREEN":4393,"Ġstreets":4394,"Ġsoundly":4395,"Ġbuild":4396,"Ġadvice":4397,"Ġboots":4398,"Ġcurrent":4399,"Ġsends":4400,"Ġhanged":4401,"Ġrevenged":4402,"Ġassured":4403,"Ġgiving":4404,"Ġdarest":4405,"ĠSupp":4406,"Ġsupposed":4407,"ĠPlay":4408,"Ġrecom":4409,"Ġrecord":4410,"Ġsilent":4411,"Ġinstruments":4412,"Ġhardly":4413,"Ġprofit":4414,"Ġparliament":4415,"Ġveins":4416,"Ġsingle":4417,"Ġwaste":4418,"Ġaffli":4419,"Ġpieces":4420,"Ġgarland":4421,"ĠPomfret":4422,"ĠUntil":4423,"Ġgrieve":4424,"Ġforbear":4425,"Ġgroans":4426,"Ġestate":4427,"Ġthrice":4428,"ĠAbout":4429,"erns":4430,"Ġrebell":4431,"ĠTYRR":4432,"Ġdestroy":4433,"Ġurged":4434,"Ġaffections":4435,"Ġfamous":4436,"Ġhaply":4437,"Ġlusty":4438,"ĠDORSET":4439,"ĠConspir":4440,"Ġelder":4441,"Ġstudy":4442,"Ġconstant":4443,"Ġgently":4444,"Ġarrived":4445,"ĠSicilia":4446,"Ġavoid":4447,"Ġimprisonment":4448,"Ġconduct":4449,"Ġprotector":4450,"Ġspecial":4451,"Ġcircumst":4452,"Ġsanctuary":4453,"Ġperpetual":4454,"Ġgrievous":4455,"ĠAEdile":4456,"Ġmaintain":4457,"ĠTitus":4458,"Ġbethink":4459,"ĠRosaline":4460,"Ġvirgin":4461,"Ġjourney":4462,"ĠSoldier":4463,"NSO":4464,"ĠALONSO":4465,"ĠHuntsman":4466,"ĠFERDINAND":4467,"ĠRatcliff":4468,"ĠTYRREL":4469,";--":4470,"Th":4471,"aly":4472,"aces":4473,"con":4474,"dig":4475,"eat":4476,"erer":4477,"father":4478,"fall":4479,"faced":4480,"gl":4481,"gar":4482,"grim":4483,"groom":4484,"ib":4485,"ipp":4486,"ipe":4487,"iving":4488,"ienn":4489,"ker":4490,"law":4491,"lanch":4492,"more":4493,"mory":4494,"nal":4495,"pr":4496,"pass":4497,"rrel":4498,"ser":4499,"time":4500,"ties":4501,"uing":4502,"uch":4503,"upt":4504,"vior":4505,"zz":4506,"Ġz":4507,"Ġtall":4508,"Ġtarry":4509,"Ġtask":4510,"Ġach":4511,"Ġapt":4512,"Ġaunt":4513,"Ġsy":4514,"Ġsal":4515,"Ġsire":4516,"Ġsalt":4517,"Ġsnow":4518,"Ġmir":4519,"Ġmult":4520,"Ġwing":4521,"Ġwide":4522,"Ġwhip":4523,"Ġwaking":4524,"Ġbade":4525,"isbury":4526,"Ġfi":4527,"Ġfood":4528,"Ġfrow":4529,"Ġfun":4530,"Ġfeet":4531,"Ġfires":4532,"Ġfancy":4533,"erity":4534,"erby":4535,"llen":4536,"itation":4537,"onci":4538,"Ġdow":4539,"Ġdim":4540,"Ġdiffe":4541,"Ġcat":4542,"Ġcher":4543,"Ġcaught":4544,"Ġcere":4545,"Ġnail":4546,"Ġlin":4547,"Ġlent":4548,"Ġyond":4549,"Ġyoke":4550,"esar":4551,"essel":4552,"enant":4553,"Ġhor":4554,"Ġhie":4555,"Ġhorn":4556,"Ġoak":4557,"Ġpot":4558,"Ġport":4559,"Ġpound":4560,"Ġpier":4561,"ĠTar":4562,"ĠAcc":4563,"vet":4564,"omen":4565,"ative":4566,"semble":4567,"Ġinqu":4568,"Ġhabit":4569,"etite":4570,"eder":4571,"utenant":4572,"ĠBen":4573,"ĠBus":4574,"Ġmelanch":4575,"ĠSm":4576,"ĠSal":4577,"ĠSix":4578,"ĠHo":4579,"ĠMin":4580,"ĠMakes":4581,"Ġfors":4582,"Ġforced":4583,"Ġforfeit":4584,"ĠCond":4585,"ourse":4586,"Ġevent":4587,"aded":4588,"rif":4589,"Ġsting":4590,"Ġstro":4591,"Ġstout":4592,"Ġstret":4593,"Ġstroke":4594,"ĠFo":4595,"Ġrece":4596,"Ġreck":4597,"Ġrede":4598,"Ġrejo":4599,"rac":4600,"Ġsore":4601,"Ġsooth":4602,"Ġdeceit":4603,"ĠRather":4604,"roll":4605,"ested":4606,"ams":4607,"aming":4608,"ĠDare":4609,"ĠDraw":4610,"ĠDerby":4611,"Ġsell":4612,"Ġsees":4613,"Ġalliance":4614,"Ġsue":4615,"ruction":4616,"Ġsple":4617,"Ġknaves":4618,"Ġvill":4619,"Ġvessel":4620,"ulf":4621,"ulate":4622,"nty":4623,"Ġmanif":4624,"ĠVienn":4625,"Ġconfe":4626,"icy":4627,"Ġblunt":4628,"Ġsaying":4629,"Ġune":4630,"Ġunst":4631,"Ġunhappy":4632,"Ġunjust":4633,"ignty":4634,"orted":4635,"LIS":4636,"Ġgraves":4637,"Ġdisple":4638,"Ġwholesome":4639,"Ġoffended":4640,"Ġalack":4641,"Ġalthough":4642,"harge":4643,"Ġabide":4644,"Ġexerc":4645,"Ġexchange":4646,"ĠNoble":4647,"ages":4648,"Ġdesires":4649,"Ġdescend":4650,"Ġflood":4651,"ĠMarian":4652,"Ġslaves":4653,"Ġtwain":4654,"Ġbetray":4655,"Ġbetimes":4656,"Ġnewly":4657,"Ġparting":4658,"Ġpartly":4659,"Ġrare":4660,"Ġraised":4661,"Ġadmit":4662,"Ġcommons":4663,"Ġstanding":4664,"Ġclim":4665,"Ġwrink":4666,"ullus":4667,"Ġcontempt":4668,"Ġappeal":4669,"Ġappetite":4670,"Ġbegu":4671,"Ġimage":4672,"Ġrust":4673,"Ġruled":4674,"Ġhousehold":4675,"Ġsets":4676,"ĠProceed":4677,"osing":4678,"Ġresist":4679,"forth":4680,"forced":4681,"Ġaccident":4682,"Ġprick":4683,"Ġpowerful":4684,"Ġchase":4685,"Ġcharac":4686,"clam":4687,"Ġsmell":4688,"Ġtreasure":4689,"Ġtremble":4690,"Ġbrace":4691,"Ġhelm":4692,"Ġmistrust":4693,"iety":4694,"Ġbesides":4695,"Ġnative":4696,"Ġboys":4697,"Ġdevotion":4698,"Ġpatricians":4699,"Ġweeps":4700,"Ġbelow":4701,"Ġfalsehood":4702,"Ġsovereignty":4703,"Ġvirtues":4704,"ouchs":4705,"ĠTyrrel":4706,"Ġassure":4707,"Ġsecure":4708,"Ġmerit":4709,"Ġoaths":4710,"Ġfaithful":4711,"ĠCannot":4712,"Ġdefence":4713,"Ġsurely":4714,"Ġreconci":4715,"Ġpoints":4716,"Ġfeeling":4717,"Ġbeholding":4718,"Twere":4719,"Ġago":4720,"Ġagree":4721,"Ġcorre":4722,"Ġprett":4723,"Ġbreathed":4724,"Ġsickness":4725,"Ġforgive":4726,"Ġweakness":4727,"Ġregal":4728,"Ġregard":4729,"Ġmouths":4730,"Ġbooks":4731,"Ġbarren":4732,"Ġbridegroom":4733,"Ġcomplaint":4734,"soever":4735,"Ġpitch":4736,"Ġbeasts":4737,"ĠConf":4738,"ĠCaesar":4739,"Ġtrumpet":4740,"eeming":4741,"Ġshield":4742,"Ġforswear":4743,"Ġunkind":4744,"ĠAnti":4745,"Ġapparent":4746,"Ġtempest":4747,"Ġsuspect":4748,"Ġstopp":4749,"Ġreverence":4750,"Ġentertainment":4751,"Ġobedient":4752,"Ġdetermined":4753,"Ġfairer":4754,"Ġfairest":4755,"Ġsubstit":4756,"Ġholp":4757,"Ġstabb":4758,"Ġdisgrace":4759,"Ġtyranny":4760,"Ġlength":4761,"shire":4762,"Ġrenowned":4763,"Ġballad":4764,"Ġpilgrim":4765,"Ġequal":4766,"Ġpenitent":4767,"Ġfashion":4768,"Ġdignity":4769,"Ġcomplex":4770,"ĠFourth":4771,"Ġaccording":4772,"Ġimpossible":4773,"ĠMilan":4774,"Ġrebellion":4775,"Ġfroward":4776,"Ġmelancholy":4777,"ĠSalisbury":4778,"Ġredeem":4779,"ĠVienna":4780,"Ġconference":4781,".--":4782,"Ay":4783,"DR":4784,"EOM":4785,"IT":4786,"UGH":4787,"bear":4788,"bod":4789,"bation":4790,"com":4791,"cate":4792,"cary":4793,"cceed":4794,"dita":4795,"eve":4796,"fold":4797,"gn":4798,"iam":4799,"long":4800,"mong":4801,"maid":4802,"ns":4803,"nes":4804,"rs":4805,"rat":4806,"rough":4807,"tic":4808,"teen":4809,"tles":4810,"uit":4811,"uries":4812,"wife":4813,"weal":4814,"xe":4815,"Ġtim":4816,"Ġtres":4817,"Ġtakes":4818,"Ġtail":4819,"Ġtaunt":4820,"Ġaxe":4821,"Ġmood":4822,"Ġmess":4823,"Ġmirth":4824,"Ġwid":4825,"Ġwest":4826,"Ġwake":4827,"Ġwink":4828,"Ġwakes":4829,"inct":4830,"Ġbon":4831,"Ġbir":4832,"Ġbuck":4833,"ories":4834,"Ġfish":4835,"erves":4836,"iter":4837,"itable":4838,"onst":4839,"onation":4840,"Ġcost":4841,"Ġchall":4842,"Ġciv":4843,"Ġnap":4844,"Ġline":4845,"Ġlap":4846,"Ġyes":4847,"Ġthir":4848,"Ġthick":4849,"Ġthread":4850,"Ġope":4851,"Ġtoad":4852,"Ġtoil":4853,"Ġtooth":4854,"Ġped":4855,"Ġpee":4856,"Ġpause":4857,"ĠTime":4858,"ĠTush":4859,"ĠTullus":4860,"ĠAf":4861,"ĠAw":4862,"ĠADR":4863,"othes":4864,"stery":4865,"aning":4866,"omach":4867,"Ġgaze":4868,"ĠWIL":4869,"sell":4870,"Ġmystery":4871,"Ġinfection":4872,"Ġmemory":4873,"imble":4874,"ĠSound":4875,"ĠSomet":4876,"ĠHim":4877,"ĠHail":4878,"ĠMany":4879,"ĠCle":4880,"ĠCur":4881,"ĠCry":4882,"ĠCounty":4883,"illy":4884,"Ġwithdraw":4885,"herit":4886,"Ġste":4887,"Ġstick":4888,"Ġstumble":4889,"ĠLart":4890,"ĠLie":4891,"ĠFRO":4892,"ĠGet":4893,"Ġreap":4894,"Ġlift":4895,"Ġliken":4896,"ases":4897,"Ġdeb":4898,"Ġdeck":4899,"Ġdecl":4900,"ĠRa":4901,"Ġsham":4902,"earer":4903,"ĠEach":4904,"ushes":4905,"Ġseiz":4906,"Ġseldom":4907,"ĠThrough":4908,"Ġsuper":4909,"Ġsuitor":4910,"Ġsullen":4911,"Ġsucceed":4912,"ĠKn":4913,"Ġlover":4914,"Ġlovest":4915,"Ġspl":4916,"Ġspy":4917,"Ġspit":4918,"Ġspect":4919,"Ġfact":4920,"Ġfawn":4921,"Ġnegle":4922,"Ġknot":4923,"Ġvar":4924,"Ġvol":4925,"ulch":4926,"seless":4927,"Ġmanage":4928,"ĠVen":4929,"ĠVal":4930,"ĠVillain":4931,"ical":4932,"icles":4933,"Ġhated":4934,"LOUGH":4935,"Ġswain":4936,"Ġbran":4937,"ĠWhether":4938,"Ġjot":4939,"cies":4940,"Ġproclam":4941,"Ġdisgu":4942,"Ġdeaths":4943,"Ġeng":4944,"Ġheartily":4945,"Ġmarks":4946,"irect":4947,"Ġoffic":4948,"ĠSoft":4949,"Ġabused":4950,"Ġdescent":4951,"Ġripe":4952,"Ġride":4953,"Ġleague":4954,"Ġwarri":4955,"Ġslip":4956,"Ġgreatness":4957,"ĠBehold":4958,"Ġbred":4959,"ĠItaly":4960,"Ġrain":4961,"Ġrail":4962,"Ġheavenly":4963,"Ġclothes":4964,"Ġsweeter":4965,"Ġperhaps":4966,"Ġscold":4967,"Ġscandal":4968,"ĠAnon":4969,"Ġappointed":4970,"Ġwhit":4971,"Ġremorse":4972,"Ġremove":4973,"Ġremoved":4974,"Ġbegan":4975,"Ġrepose":4976,"Ġharsh":4977,"Ġkeeper":4978,"Ġaccursed":4979,"Ġyounger":4980,"Ġyoungest":4981,"ĠCLEOM":4982,"Ġsubtle":4983,"Ġdearly":4984,"ĠWilliam":4985,"Ġcoff":4986,"Ġrights":4987,"Ġminds":4988,"Ġconfirm":4989,"Ġmischance":4990,"Ġsorrows":4991,"Ġcareless":4992,"Ġmeeting":4993,"Ġlesser":4994,"Ġobject":4995,"ĠUncle":4996,"Ġcounc":4997,"Ġgriefs":4998,"Ġhuman":4999,"Ġadventure":5000,"Ġserved":5001,"Ġretire":5002,"Ġcountrymen":5003,"Ġcurt":5004,"Ġgrat":5005,"Ġhangs":5006,"Ġcraves":5007,"Ġcraft":5008,"Ġstranger":5009,"Ġwindows":5010,"Ġbeauteous":5011,"ĠDidst":5012,"Ġyielded":5013,"ĠCommend":5014,"Ġsupply":5015,"Ġcommonweal":5016,"Ġmonument":5017,"Ġsights":5018,"Ġgrowing":5019,"Ġsuffic":5020,"Ġheirs":5021,"ĠHappy":5022,"Ġtrusty":5023,"Ġinstruction":5024,"Ġvisage":5025,"Ġstronger":5026,"Ġexecuted":5027,"Ġincen":5028,"Ġinfant":5029,"Ġforeign":5030,"Ġvel":5031,"Ġburst":5032,"Ġplainly":5033,"Ġabsolute":5034,"Ġfourteen":5035,"Ġdirection":5036,"Ġredress":5037,"Ġselfsame":5038,"Ġwriting":5039,"Ġfrowns":5040,"Ġsatisfy":5041,"Ġestim":5042,"Ġservants":5043,"Ġblem":5044,"Ġbabes":5045,"Ġtriumphant":5046,"Ġgallant":5047,"Ġoccup":5048,"Ġexecutioner":5049,"ĠAmong":5050,"Ġinnoc":5051,"Ġfierce":5052,"Ġshadows":5053,"Ġpleasing":5054,"Ġmodest":5055,"Ġmodesty":5056,"Ġuncles":5057,"Ġignorance":5058,"Ġbigger":5059,"Ġrefuse":5060,"banished":5061,"ĠPerdita":5062,"Ġfeather":5063,"Ġdetermine":5064,"Ġextremity":5065,"ĠBetw":5066,"ĠBetter":5067,"Ġdismal":5068,"Ġchaste":5069,"Ġwager":5070,"Ġshrewd":5071,"Ġacquaint":5072,"Ġprophet":5073,"Ġedge":5074,"Ġeagle":5075,"Ġshroud":5076,"othecary":5077,"Ġsteeds":5078,"Ġdearest":5079,"Ġiron":5080,"Ġtorture":5081,"Ġwondrous":5082,"Ġsepulch":5083,"Ġtrembling":5084,"Ġpolicy":5085,"Ġrepeal":5086,"ĠReturn":5087,"Ġadversaries":5088,"Ġpurchase":5089,"Ġprivilege":5090,"Ġopposite":5091,"Ġconceal":5092,"Ġflatterer":5093,"ĠConspirator":5094,"Ġdowry":5095,"Ġpierce":5096,"ĠBushy":5097,"Ġstrokes":5098,"ĠFollow":5099,"Ġexercise":5100,"ĠMariana":5101,"ouchsafe":5102,"Ġtrespass":5103,"Ġcivil":5104,"Ġthirty":5105,"ĠADRIAN":5106,"ĠWILLOUGH":5107,"ĠLartius":5108,"ĠFROTH":5109,"ĠCLEOMENES":5110,"ĠWILLOUGHBY":5111,"EP":5112,"NARD":5113,"ax":5114,"app":5115,"but":5116,"bble":5117,"bio":5118,"cest":5119,"cue":5120,"ded":5121,"ders":5122,"fellow":5123,"gy":5124,"ghan":5125,"hrew":5126,"iar":5127,"iver":5128,"ips":5129,"mas":5130,"master":5131,"nken":5132,"nicious":5133,"oon":5134,"pardon":5135,"rity":5136,"ratch":5137,"sha":5138,"son":5139,"some":5140,"sire":5141,"sop":5142,"tom":5143,"vive":5144,"vied":5145,"we":5146,"Ġeter":5147,"Ġtou":5148,"Ġtro":5149,"Ġtig":5150,"Ġah":5151,"Ġale":5152,"Ġages":5153,"oubt":5154,"Ġsn":5155,"Ġsings":5156,"Ġsought":5157,"Ġmat":5158,"Ġmain":5159,"Ġmil":5160,"Ġmethought":5161,"Ġwore":5162,"Ġward":5163,"inate":5164,"Ġbill":5165,"Ġbore":5166,"Ġbag":5167,"Ġbrown":5168,"Ġborrow":5169,"ision":5170,"orough":5171,"Ġfard":5172,"Ġfant":5173,"Ġfran":5174,"Ġfret":5175,"Ġfix":5176,"Ġfreed":5177,"ĠIm":5178,"ĠImp":5179,"ering":5180,"itt":5181,"ital":5182,"itiff":5183,"Ġdate":5184,"Ġdower":5185,"Ġcrow":5186,"Ġnet":5187,"Ġnest":5188,"Ġnice":5189,"Ġnumb":5190,"Ġnupt":5191,"Ġlur":5192,"Ġlance":5193,"Ġlower":5194,"Ġluck":5195,"Ġlying":5196,"Ġyon":5197,"esu":5198,"enge":5199,"Ġthin":5200,"Ġthie":5201,"Ġthirst":5202,"Ġthumb":5203,"Ġhom":5204,"Ġhind":5205,"Ġhig":5206,"Ġhire":5207,"Ġhoney":5208,"Ġomit":5209,"Ġtomorrow":5210,"Ġpear":5211,"Ġpath":5212,"Ġpage":5213,"Ġpaid":5214,"ĠAp":5215,"Ġheat":5216,"Ġheels":5217,"owl":5218,"ingers":5219,"ann":5220,"Ġgid":5221,"atri":5222,"atest":5223,"Ġbere":5224,"ĠWr":5225,"ĠWit":5226,"ĠWed":5227,"ĠWife":5228,"ĠWoe":5229,"sey":5230,"Ġink":5231,"Ġhare":5232,"Ġhaught":5233,"cels":5234,"ayed":5235,"ĠBre":5236,"ĠBur":5237,"ĠBAR":5238,"ĠSit":5239,"ĠSur":5240,"ĠSend":5241,"Ġnoted":5242,"ĠHang":5243,"chief":5244,"ĠMaking":5245,"ĠMethought":5246,"Ġforty":5247,"keley":5248,"ĠCast":5249,"oops":5250,"hern":5251,"rible":5252,"ĠOh":5253,"ĠOld":5254,"Ġstale":5255,"Ġstern":5256,"Ġstomach":5257,"ĠLic":5258,"ĠFal":5259,"ĠFind":5260,"ĠFair":5261,"ĠGu":5262,"ĠGree":5263,"ĠGrace":5264,"raid":5265,"rage":5266,"INE":5267,"Ġlivery":5268,"Ġliking":5269,"ĠPri":5270,"ĠPerc":5271,"Ġdece":5272,"Ġdeaf":5273,"ĠRUT":5274,"Ġshare":5275,"Ġshapes":5276,"Ġwills":5277,"Ġdove":5278,"Ġdogs":5279,"Ġdozen":5280,"ĠEly":5281,"ĠEscal":5282,"Ġbutt":5283,"ĠDel":5284,"ushing":5285,"Ġsuits":5286,"Ġhers":5287,"Ġanointed":5288,"Ġshallow":5289,"ilth":5290,"ilence":5291,"Ġneat":5292,"Ġvent":5293,"Ġshook":5294,"Ġshines":5295,"Ġupright":5296,"Ġgoods":5297,"Ġprime":5298,"ĠVau":5299,"Ġconceive":5300,"Ġamiss":5301,"ending":5302,"icate":5303,"iege":5304,"Ġblast":5305,"Ġgodd":5306,"ĠFortune":5307,"Ġsirs":5308,"ares":5309,"ola":5310,"Ġthereby":5311,"ept":5312,"eping":5313,"Ġswore":5314,"Ġsweat":5315,"Ġorn":5316,"Ġarrest":5317,"Ġlets":5318,"Ġunm":5319,"Ġunse":5320,"Ġunfe":5321,"Ġworm":5322,"Ġgrain":5323,"aker":5324,"Ġhop":5325,"Ġlikely":5326,"Ġprocess":5327,"ueen":5328,"Ġsav":5329,"Ġmadness":5330,"Ġplaces":5331,"iced":5332,"ĠJustice":5333,"Ġdisease":5334,"unate":5335,"Ġtrunk":5336,"Ġsomewhat":5337,"Ġrans":5338,"Ġoffices":5339,"Ġalms":5340,"harged":5341,"orney":5342,"Ġabuse":5343,"Ġexam":5344,"Ġlooked":5345,"Ġthinking":5346,"Ġtelling":5347,"Ġwhereon":5348,"ĠQueen":5349,"agues":5350,"ased":5351,"Ġflow":5352,"Ġflint":5353,"Ġflourish":5354,"ĠWherefore":5355,"ĠWhereto":5356,"AMUS":5357,"Ġfearing":5358,"bert":5359,"Ġbreed":5360,"Ġbread":5361,"Ġparted":5362,"Ġprep":5363,"Ġpernicious":5364,"Ġtroop":5365,"Ġtroops":5366,"Ġscatter":5367,"ĠAnother":5368,"ĠAnne":5369,"ainty":5370,"lied":5371,"Ġmoves":5372,"Ġcontro":5373,"Ġappea":5374,"ables":5375,"Ġbeget":5376,"Ġgraced":5377,"Ġreply":5378,"Ġreputation":5379,"Ġchildish":5380,"Ġrestra":5381,"ercing":5382,"cheth":5383,"Ġtrif":5384,"ĠProve":5385,"Ġbestow":5386,"Ġputting":5387,"ontes":5388,"Ġprice":5389,"Ġsubd":5390,"Ġbacks":5391,"Ġcoll":5392,"Ġtren":5393,"Ġforthwith":5394,"twill":5395,"Ġbank":5396,"Ġcheap":5397,"Ġcharm":5398,"ĠDoes":5399,"Ġlaws":5400,"Ġlightning":5401,"Ġroyalty":5402,"Ġhappily":5403,"Ġmisfort":5404,"Ġcareful":5405,"ĠShore":5406,"Ġcounsell":5407,"Ġcourteous":5408,"ĠAlthough":5409,"Ġstrive":5410,"Ġsleeping":5411,"Ġdrag":5412,"Ġadvised":5413,"Ġserp":5414,"Ġboast":5415,"Ġwanting":5416,"ĠAtt":5417,"Ġdiscourse":5418,"pense":5419,"Ġcram":5420,"Ġstraw":5421,"Ġbreathing":5422,"Ġsenseless":5423,"Ġbeaut":5424,"ĠDido":5425,"hamed":5426,"Ġgrew":5427,"Ġyields":5428,"Ġdrunken":5429,"Ġcarried":5430,"Ġspoil":5431,"Ġmonster":5432,"Ġmonarch":5433,"Ġmetal":5434,"Ġsooner":5435,"IDAMUS":5436,"Ġsadness":5437,"ĠHadst":5438,"ĠCambio":5439,"Ġwooing":5440,"Ġexecute":5441,"Ġminute":5442,"Ġsuitors":5443,"Ġburnt":5444,"Ġcoronation":5445,"Ġwaves":5446,"Ġpraises":5447,"Ġproportion":5448,"Ġliberal":5449,"Ġwritten":5450,"Ġburns":5451,"Ġburning":5452,"Ġblessing":5453,"Ġbleeding":5454,"Ġactions":5455,"Ġcaps":5456,"Ġbitterly":5457,"Ġlimit":5458,"Ġlimbs":5459,"Ġrebels":5460,"Ġviolence":5461,"Ġsacrif":5462,"Ġsuccession":5463,"Ġpitiful":5464,"acles":5465,"Ġmidnight":5466,"ĠWhiles":5467,"ĠGreen":5468,"Ġpossession":5469,"Ġtorch":5470,"Ġcaitiff":5471,"Ġinjury":5472,"Ġurge":5473,"Ġchurchyard":5474,"Ġmeddle":5475,"Ġnobility":5476,"Ġgrandsire":5477,"Ġsaints":5478,"ĠDisp":5479,"Ġrank":5480,"Ġguests":5481,"headed":5482,"Ġbehavior":5483,"Ġunfold":5484,"Ġdismiss":5485,"Ġimagine":5486,"Ġsubstance":5487,"Ġmonths":5488,"Ġhungry":5489,"Ġbefall":5490,"Ġinclined":5491,"Ġaffords":5492,"Ġcovert":5493,"ĠWiltshire":5494,"Ġnecessity":5495,"Ġprevented":5496,"Ġjoints":5497,"Ġtyrann":5498,"Ġlengthen":5499,"Ġescape":5500,"Ġshrift":5501,"Ġsenses":5502,"Ġstatue":5503,"Ġbands":5504,"Ġcensure":5505,"Ġweapon":5506,"ribunes":5507,"Ġsteps":5508,"Ġangel":5509,"Ġconjure":5510,"Ġtransp":5511,"Ġthreatening":5512,"Ġwolf":5513,"Ġbottom":5514,"ĠARCHIDAMUS":5515,"Ġtapster":5516,"ĠLeontes":5517,"ĠRemember":5518,"ĠElbow":5519,"Ġapprehend":5520,"Ġimmortal":5521,"Ġintelligence":5522,"Ġcompanion":5523,"Ġmoral":5524,"ĠBerkeley":5525,"ĠLaurence":5526,"Ġjewel":5527,"Ġdispersed":5528,"Ġruthless":5529,"Ġrapier":5530,"Ġclamour":5531,"ĠStrike":5532,"Ġzeal":5533,"Ġcherish":5534,"Ġstretch":5535,"Ġrejoice":5536,"Ġspleen":5537,"Ġcharacter":5538,"Ġprettiest":5539,"Ġbirds":5540,"Ġchallenge":5541,"Ġpeevish":5542,"Ġlikeness":5543,"Ġproclamation":5544,"Ġofficers":5545,"Ġwarriors":5546,"Ġcommonwealth":5547,"Ġvelvet":5548,"Ġsepulchre":5549,"EPH":5550,"NARDINE":5551,"Ġfardel":5552,"Ġnuptial":5553,"Ġgiddy":5554,"ĠBARNARDINE":5555,"ĠSurrey":5556,"ĠLicio":5557,"ĠRUTLAND":5558,"ĠEscalus":5559,"ĠVaughan":5560,"AG":5561,"ATER":5562,"BAN":5563,"CRO":5564,"EOR":5565,"IR":5566,"MOR":5567,"OT":5568,"TMOR":5569,"WATER":5570,"ZWATER":5571,"action":5572,"acy":5573,"aoler":5574,"bey":5575,"cri":5576,"cure":5577,"dal":5578,"foot":5579,"got":5580,"give":5581,"iban":5582,"kind":5583,"light":5584,"lace":5585,"oes":5586,"ront":5587,"roof":5588,"sen":5589,"shall":5590,"ta":5591,"that":5592,"vised":5593,"vided":5594,"wd":5595,"wing":5596,"which":5597,"yc":5598,"zed":5599,"Ġice":5600,"Ġought":5601,"Ġtard":5602,"Ġtack":5603,"Ġtree":5604,"Ġtied":5605,"Ġtired":5606,"Ġtakest":5607,"hen":5608,"here":5609,"Ġaud":5610,"Ġaged":5611,"oured":5612,"Ġsed":5613,"Ġsess":5614,"Ġsau":5615,"Ġsides":5616,"Ġsurp":5617,"Ġsilly":5618,"Ġmour":5619,"Ġmould":5620,"Ġwet":5621,"Ġwave":5622,"Ġwaked":5623,"Ġwipe":5624,"iners":5625,"reet":5626,"reant":5627,"ndy":5628,"Ġbay":5629,"Ġbent":5630,"Ġbru":5631,"Ġbol":5632,"Ġbalm":5633,"ishes":5634,"isement":5635,"oriz":5636,"Ġfin":5637,"Ġfray":5638,"Ġfever":5639,"Ġfelt":5640,"Ġfingers":5641,"itch":5642,"oned":5643,"onus":5644,"Ġcent":5645,"Ġcook":5646,"Ġcab":5647,"Ġnar":5648,"Ġlour":5649,"Ġlun":5650,"arm":5651,"Ġtops":5652,"Ġpor":5653,"Ġpill":5654,"Ġpent":5655,"Ġphi":5656,"Ġpick":5657,"Ġpaint":5658,"Ġpace":5659,"Ġpict":5660,"Ġpush":5661,"Ġpalm":5662,"Ġpomp":5663,"ĠTen":5664,"ĠToward":5665,"ĠTrust":5666,"ĠTribunes":5667,"ĠAdd":5668,"Ġhera":5669,"Ġheight":5670,"Ġgn":5671,"Ġgam":5672,"Ġgap":5673,"Ġgains":5674,"Ġgoose":5675,"athe":5676,"ater":5677,"athed":5678,"Ġbell":5679,"Ġbeef":5680,"Ġbeams":5681,"ĠWES":5682,"ĠWomen":5683,"Ġinv":5684,"Ġhail":5685,"iring":5686,"utch":5687,"ĠBag":5688,"ĠBAG":5689,"Ġmew":5690,"Ġmemb":5691,"ĠSly":5692,"ĠSus":5693,"ĠSaw":5694,"ĠSCRO":5695,"ĠSIR":5696,"Ġnotice":5697,"ĠHon":5698,"ĠHie":5699,"ĠMis":5700,"ĠMuch":5701,"ĠCAR":5702,"ĠCapt":5703,"Ġwears":5704,"Ġweek":5705,"Ġeight":5706,"rich":5707,"riel":5708,"Ġstead":5709,"ĠLive":5710,"Ġhist":5711,"ĠFit":5712,"ĠFive":5713,"ĠFull":5714,"ĠFIT":5715,"ĠGra":5716,"ĠGard":5717,"ĠGEOR":5718,"ĠGaoler":5719,"Ġrend":5720,"Ġrear":5721,"Ġreach":5722,"Ġrevel":5723,"order":5724,"Ġlions":5725,"Ġlikes":5726,"Ġlivest":5727,"asp":5728,"ĠPart":5729,"ĠPers":5730,"ĠPatience":5731,"urgh":5732,"alter":5733,"Ġsoil":5734,"Ġsoci":5735,"Ġaspect":5736,"Ġashamed":5737,"Ġdem":5738,"Ġdepose":5739,"rog":5740,"ĠName":5741,"ĠNature":5742,"hire":5743,"cket":5744,"verty":5745,"ĠYield":5746,"ĠEm":5747,"ĠEver":5748,"ĠElse":5749,"ĠDian":5750,"ushi":5751,"Ġsevere":5752,"Ġseated":5753,"Ġalleg":5754,"ĠThine":5755,"ĠThings":5756,"Ġherd":5757,"Ġanch":5758,"Ġload":5759,"Ġlock":5760,"Ġlovers":5761,"tering":5762,"Ġspot":5763,"Ġspread":5764,"Ġfavours":5765,"Ġourself":5766,"ilful":5767,"iliar":5768,"Ġvast":5769,"Ġshru":5770,"ulous":5771,"ĠVirt":5772,"ĠVouchsafe":5773,"Ġconsequ":5774,"Ġamain":5775,"Ġamends":5776,"Ġambit":5777,"Ġamorous":5778,"iece":5779,"Ġshel":5780,"Ġblot":5781,"vensp":5782,"Ġgoss":5783,"emper":5784,"arers":5785,"olved":5786,"olks":5787,"Ġknowing":5788,"resh":5789,"Ġswears":5790,"Ġbrat":5791,"Ġarray":5792,"Ġuna":5793,"Ġunre":5794,"igent":5795,"igonus":5796,"LIBAN":5797,"Ġhoar":5798,"Ġlikewise":5799,"Ġproved":5800,"Ġprodig":5801,"Ġsaved":5802,"umed":5803,"ĠJesu":5804,"Ġdisin":5805,"Ġspeaking":5806,"Ġpop":5807,"Ġpoverty":5808,"Ġoutrage":5809,"uns":5810,"ickle":5811,"ĠWithdraw":5812,"igned":5813,"Ġmars":5814,"Ġmarvel":5815,"Ġmarvell":5816,"Ġrate":5817,"Ġrouse":5818,"isting":5819,"Ġalso":5820,"ELAND":5821,"Ġabund":5822,"Ġexcept":5823,"Ġrobb":5824,"ĠQu":5825,"aged":5826,"Ġriches":5827,"Ġflat":5828,"Ġslight":5829,"Ġslipp":5830,"ĠWhereof":5831,"Ġbetide":5832,"Ġcouple":5833,"Ġafraid":5834,"Ġparties":5835,"Ġpartner":5836,"Ġrag":5837,"Ġrack":5838,"Ġraven":5839,"idered":5840,"Ġprefer":5841,"Ġclock":5842,"Ġsweetly":5843,"Ġplebe":5844,"ulls":5845,"Ġtrim":5846,"Ġpresume":5847,"Ġpreserve":5848,"Ġsca":5849,"Ġscratch":5850,"Ġnights":5851,"Ġworldly":5852,"Ġdownright":5853,"Ġkeys":5854,"perience":5855,"ably":5856,"Ġimper":5857,"losop":5858,"Ġinteg":5859,"Ġmightst":5860,"Ġstays":5861,"Ġrue":5862,"Ġrestore":5863,"Ġleg":5864,"Ġlect":5865,"Ġlewd":5866,"Ġentrance":5867,"Ġsettled":5868,"Ġtricks":5869,"ĠProclaim":5870,"Ġaccom":5871,"Ġcompound":5872,"Ġended":5873,"Ġpurge":5874,"Ġpurple":5875,"Ġsmil":5876,"Ġsmother":5877,"Ġcouldst":5878,"Ġtrain":5879,"Ġtravell":5880,"Ġcop":5881,"Ġcoat":5882,"Ġcozen":5883,"Ġbidding":5884,"Ġdrew":5885,"Ġearthly":5886,"Ġbrains":5887,"Ġhomely":5888,"Ġhelps":5889,"Ġhopeful":5890,"Ġcheque":5891,"Ġconfound":5892,"Ġbridal":5893,"Ġlanded":5894,"Ġmisc":5895,"Ġholding":5896,"Ġfalcon":5897,"Ġbusy":5898,"Ġfalls":5899,"Ġobsequ":5900,"Ġcourtier":5901,"Ġstrict":5902,"Ġsounds":5903,"Ġsounded":5904,"Ġbuzz":5905,"Ġattain":5906,"Ġattorney":5907,"Ġthankful":5908,"Ġretired":5909,"Ġmerchant":5910,"Ġrevenges":5911,"erest":5912,"Ġprompt":5913,"Ġcontents":5914,"Ġvillains":5915,"Ġkisses":5916,"Ġmerri":5917,"ĠComes":5918,"ĠComfort":5919,"Ġwinters":5920,"Ġlambs":5921,"ĠCanst":5922,"Ġlately":5923,"Ġbeats":5924,"Ġbeaten":5925,"upid":5926,"blood":5927,"chers":5928,"ventry":5929,"Ġchosen":5930,"Ġlearned":5931,"Ġentreaties":5932,"Ġdevilish":5933,"guard":5934,"gundy":5935,"Ġboldly":5936,"Ġboldness":5937,"Ġyouthful":5938,"Ġinfer":5939,"Ġprofane":5940,"ĠBecomes":5941,"Ġreadiness":5942,"Ġdivor":5943,"Ġterm":5944,"ĠCALIBAN":5945,"ĠWelsh":5946,"Ġcloudy":5947,"Ġsignal":5948,"Ġsignify":5949,"Ġmusicians":5950,"Ġwax":5951,"Ġdroop":5952,"ĠSwear":5953,"Ġextreme":5954,"Ġskill":5955,"Ġgrieves":5956,"Ġgrieved":5957,"ĠELY":5958,"Ġprophes":5959,"Ġcheerly":5960,"Ġwisely":5961,"Ġcrook":5962,"Ġexped":5963,"Ġtroubl":5964,"Ġsatisfaction":5965,"Ġesteem":5966,"Ġdarkness":5967,"ĠAbove":5968,"Ġbowels":5969,"Ġtowns":5970,"Ġflattering":5971,"Ġfrail":5972,"Ġhurl":5973,"Ġsuddenly":5974,"Ġcowardly":5975,"Ġapprobation":5976,"Ġlamentable":5977,"Ġowes":5978,"Ġinsol":5979,"ĠBlunt":5980,"Ġeaten":5981,"Ġkinsmen":5982,"Ġmiddle":5983,"Ġdestruction":5984,"Ġdeparture":5985,"Ġfondly":5986,"ĠAdieu":5987,"Ġusurping":5988,"umbling":5989,"Ġgladly":5990,"Ġships":5991,"Ġmildness":5992,"Ġtreasons":5993,"mediate":5994,"volio":5995,"Ġapace":5996,"Ġshop":5997,"Ġshoes":5998,"Ġlists":5999,"ĠSTEPH":6000,"Ġsentenced":6001,"Ġcondemned":6002,"Ġtroubled":6003,"Ġmutinous":6004,"Ġpetty":6005,"ĠAntigonus":6006,"Ġstorms":6007,"Ġgrandam":6008,"Ġtemples":6009,"Ġstops":6010,"ĠPerhaps":6011,"Ġconquest":6012,"Ġbastards":6013,"Ġeldest":6014,"Ġconstable":6015,"ĠNeither":6016,"ĠEXTON":6017,"Ġneighbours":6018,"Ġamongst":6019,"Ġprovide":6020,"Ġgreeting":6021,"Ġministers":6022,"ĠDesp":6023,"Ġconclud":6024,"Ġconclude":6025,"Ġacquainted":6026,"Ġgifts":6027,"Ġghostly":6028,"join":6029,"Ġeleven":6030,"Ġrobes":6031,"Ġdesigns":6032,"Ġtempted":6033,"Ġdetest":6034,"ĠShalt":6035,"ĠPrepare":6036,"Ġdearer":6037,"Ġheavier":6038,"Ġpersuade":6039,"Ġerrand":6040,"Ġwandering":6041,"Ġweapons":6042,"Ġvanity":6043,"Ġaccusation":6044,"Ġfrost":6045,"Ġpiercing":6046,"ĠCoventry":6047,"Ġdiscontented":6048,"Ġtestim":6049,"ĠAppear":6050,"Ġhazard":6051,"ĠCaliban":6052,"Ġstolen":6053,"Ġinstantly":6054,"iveness":6055,"Ġfigure":6056,"Ġfurnish":6057,"Ġparents":6058,"Ġrevolt":6059,"Ġnobleness":6060,"Ġprovoked":6061,"Ġrecompense":6062,"Ġcircumstance":6063,"Ġfiend":6064,"Ġceremon":6065,"ĠBenvolio":6066,"ĠMinola":6067,"Ġreckon":6068,"LISLE":6069,"Ġreconcile":6070,"Ġunkindness":6071,"Ġsubstitute":6072,"Ġpilgrimage":6073,"Ġcomplexion":6074,"nesday":6075,"onstant":6076,"ĠCurtis":6077,"ĠRavensp":6078,"Ġseized":6079,"Ġneglect":6080,"Ġvarlet":6081,"ĠVenice":6082,"Ġsufficient":6083,"Ġestimation":6084,"Ġblemish":6085,"Ġoccupation":6086,"Ġfantast":6087,"Ġfrank":6088,"Ġfreedom":6089,"Ġthieves":6090,"ĠWednesday":6091,"ĠBurgundy":6092,"ĠFalse":6093,"Ġgoddess":6094,"Ġsavage":6095,"Ġransom":6096,"Ġexample":6097,"Ġmisfortune":6098,"Ġtyrannous":6099,"TMORELAND":6100,"Ġnarrow":6101,"Ġphilosop":6102,"ĠTowards":6103,"Ġherald":6104,"ĠWESTMORELAND":6105,"ĠBagot":6106,"ĠBAGOT":6107,"Ġmembers":6108,"ĠSCROOP":6109,"ĠCARLISLE":6110,"ĠCaptain":6111,"ĠFITZWATER":6112,"ĠGardener":6113,"ĠGEORGE":6114,"ĠPersu":6115,"Ġallegiance":6116,"Ġambitious":6117,"Ġintegrity":6118,"ĠSTEPHEN":6119,"ĠRavenspurgh":6120,"Ġphilosophy":6121,"BISHOP":6122,"Hic":6123,"What":6124,"Zounds":6125,"avour":6126,"br":6127,"bot":6128,"bour":6129,"back":6130,"boy":6131,"board":6132,"bric":6133,"cra":6134,"cus":6135,"do":6136,"des":6137,"done":6138,"eb":6139,"eves":6140,"gea":6141,"gic":6142,"gues":6143,"hors":6144,"horse":6145,"ipt":6146,"kest":6147,"lor":6148,"len":6149,"low":6150,"lain":6151,"last":6152,"lance":6153,"liness":6154,"longs":6155,"made":6156,"oble":6157,"off":6158,"ocate":6159,"ris":6160,"rish":6161,"tin":6162,"tied":6163,"trees":6164,"uc":6165,"ug":6166,"uiv":6167,"ually":6168,"vir":6169,"wer":6170,"wear":6171,"work":6172,"water":6173,"Ġtrow":6174,"Ġtie":6175,"Ġtorn":6176,"Ġtaking":6177,"Ġack":6178,"Ġafe":6179,"Ġape":6180,"Ġsow":6181,"Ġsand":6182,"Ġsong":6183,"Ġsixt":6184,"Ġmom":6185,"Ġmas":6186,"Ġmouse":6187,"Ġmates":6188,"Ġmurde":6189,"Ġmask":6190,"inu":6191,"inal":6192,"inies":6193,"inces":6194,"hand":6195,"hage":6196,"nday":6197,"Ġbul":6198,"Ġbows":6199,"Ġbail":6200,"Ġbounty":6201,"orax":6202,"Ġfre":6203,"Ġfan":6204,"Ġfif":6205,"Ġfrant":6206,"Ġfount":6207,"Ġfift":6208,"Ġfulf":6209,"Ġfront":6210,"Ġfolks":6211,"erp":6212,"onio":6213,"Ġdot":6214,"Ġdine":6215,"Ġdried":6216,"Ġdined":6217,"Ġdiest":6218,"Ġdash":6219,"Ġcord":6220,"Ġcro":6221,"Ġcool":6222,"Ġcrows":6223,"Ġcords":6224,"Ġcushi":6225,"Ġnort":6226,"Ġnigh":6227,"Ġnamed":6228,"Ġnimble":6229,"Ġlute":6230,"Ġlads":6231,"Ġlinger":6232,"Ġyare":6233,"Ġyester":6234,"ening":6235,"enches":6236,"Ġthw":6237,"Ġthrown":6238,"arried":6239,"Ġhill":6240,"Ġtoads":6241,"Ġpow":6242,"Ġpour":6243,"Ġpest":6244,"Ġpant":6245,"Ġpup":6246,"ĠTra":6247,"ĠTun":6248,"ĠTalk":6249,"ĠTew":6250,"ĠTouch":6251,"ĠTeach":6252,"ĠTroy":6253,"ĠAc":6254,"ĠAff":6255,"ĠABRA":6256,"ĠAriel":6257,"Ġheel":6258,"Ġheinous":6259,"otland":6260,"Ġgather":6261,"Ġgame":6262,"Ġgust":6263,"Ġgaunt":6264,"ĠWest":6265,"ĠWert":6266,"ĠWalter":6267,"Ġinch":6268,"Ġinward":6269,"Ġinvent":6270,"Ġhag":6271,"Ġhaunt":6272,"lect":6273,"aying":6274,"uts":6275,"ĠBest":6276,"ĠBound":6277,"ĠBold":6278,"ĠBishop":6279,"Ġmeed":6280,"Ġmeal":6281,"iments":6282,"ĠSyc":6283,"ĠHar":6284,"ĠMur":6285,"Ġforso":6286,"Ġug":6287,"ĠChe":6288,"ĠCart":6289,"ĠCont":6290,"ĠContent":6291,"ĠCourage":6292,"ĠCupid":6293,"Ġeff":6294,"advent":6295,"advised":6296,"ril":6297,"ĠOver":6298,"Ġstink":6299,"Ġstag":6300,"Ġstark":6301,"Ġsteep":6302,"Ġstiff":6303,"Ġkites":6304,"ĠLend":6305,"ĠLies":6306,"ĠLead":6307,"ĠFell":6308,"ĠFall":6309,"ĠFoul":6310,"ĠFetch":6311,"ĠGives":6312,"Ġrein":6313,"Ġresemb":6314,"Ġrevive":6315,"iders":6316,"rament":6317,"racious":6318,"Ġlick":6319,"Ġlief":6320,"asant":6321,"ĠPem":6322,"ĠPurs":6323,"urb":6324,"uring":6325,"alks":6326,"Ġash":6327,"Ġashes":6328,"Ġdeer":6329,"Ġdeform":6330,"ĠRel":6331,"roach":6332,"ĠNed":6333,"ĠNep":6334,"Ġshade":6335,"Ġdole":6336,"Ġnod":6337,"Ġnoon":6338,"amy":6339,"amity":6340,"aments":6341,"ĠEr":6342,"Ġbutter":6343,"ĠDest":6344,"ĠDep":6345,"ĠDiv":6346,"Ġsearch":6347,"anders":6348,"ĠThrow":6349,"rue":6350,"ruly":6351,"Ġann":6352,"Ġancest":6353,"ĠKent":6354,"ĠKind":6355,"Ġlodge":6356,"Ġloathed":6357,"Ġspark":6358,"Ġspurs":6359,"Ġspider":6360,"ella":6361,"Ġvul":6362,"Ġvass":6363,"Ġvouch":6364,"Ġvial":6365,"Ġventure":6366,"ctor":6367,"ousins":6368,"Ġwhatsoever":6369,"Ġshot":6370,"Ġshown":6371,"ules":6372,"Ġprate":6373,"Ġprint":6374,"Ġprating":6375,"Ġmanhood":6376,"Ġamaz":6377,"icle":6378,"ication":6379,"Ġblue":6380,"Ġblown":6381,"Ġbliss":6382,"Ġblaze":6383,"Ġblushing":6384,"ived":6385,"ively":6386,"Ġtheme":6387,"Ġthereto":6388,"oster":6389,"Ġcanop":6390,"Ġswoon":6391,"Ġherein":6392,"Ġorator":6393,"Ġbranch":6394,"Ġarise":6395,"Ġunlike":6396,"Ġunruly":6397,"Ġworms":6398,"Ġworser":6399,"Ġgrass":6400,"Ġgraces":6401,"Ġmustard":6402,"Ġseeks":6403,"Ġshoulders":6404,"Ġlikeli":6405,"Ġsap":6406,"Ġsack":6407,"Ġplan":6408,"Ġplaint":6409,"peian":6410,"ĠJup":6411,"Ġdiso":6412,"Ġdissemb":6413,"Ġenforced":6414,"Ġenrich":6415,"ption":6416,"uned":6417,"Ġrhe":6418,"Ġranc":6419,"Ġrush":6420,"Ġroof":6421,"Ġrushes":6422,"Ġoffences":6423,"Ġalar":6424,"Ġaloud":6425,"Ġbrotherhood":6426,"Ġexceed":6427,"Ġfox":6428,"Ġroses":6429,"Ġroaring":6430,"Ġdesc":6431,"Ġrig":6432,"Ġleap":6433,"Ġleaving":6434,"Ġflock":6435,"Ġslily":6436,"aped":6437,"Ġrace":6438,"Ġcommends":6439,"Ġcler":6440,"Ġsweetest":6441,"Ġperd":6442,"Ġperfection":6443,"Ġpermit":6444,"Ġwring":6445,"Ġotherwise":6446,"awful":6447,"Ġmeaner":6448,"Ġscore":6449,"Ġnighting":6450,"ĠAnswer":6451,"lier":6452,"Ġmoe":6453,"Ġmoving":6454,"Ġmoiety":6455,"Ġdownfall":6456,"Ġappears":6457,"Ġwhist":6458,"Ġkey":6459,"ĠThank":6460,"Ġmothers":6461,"ranch":6462,"Ġeverlast":6463,"Ġintents":6464,"Ġfriendship":6465,"Ġconsidered":6466,"ksbury":6467,"Ġrum":6468,"Ġrests":6469,"Ġpeer":6470,"Ġlevel":6471,"Ġharl":6472,"Ġharvest":6473,"Ġharbour":6474,"attern":6475,"ĠProsper":6476,"oses":6477,"Ġbestri":6478,"Ġaccomp":6479,"Ġhenceforth":6480,"Ġcompare":6481,"Ġfaced":6482,"Ġendured":6483,"ulting":6484,"ĠThyself":6485,"Ġchamp":6486,"Ġdearth":6487,"Ġcoast":6488,"Ġtrees":6489,"Ġbrand":6490,"Ġchances":6491,"Ġchanging":6492,"twould":6493,"isterous":6494,"Ġcharges":6495,"Ġconfidence":6496,"Ġconfeder":6497,"Ġimpeach":6498,"Ġlights":6499,"Ġbeside":6500,"Ġroyalties":6501,"Ġfully":6502,"Ġdevour":6503,"Ġafterward":6504,"Ġwronged":6505,"Ġmischief":6506,"Ġlasting":6507,"Ġthousands":6508,"Ġpatron":6509,"Ġfallen":6510,"Ġfalling":6511,"Ġobs":6512,"Ġobsc":6513,"ĠAlban":6514,"Ġstrife":6515,"Ġtalking":6516,"Ġhumility":6517,"Ġbelong":6518,"Ġbelieved":6519,"Ġdram":6520,"Ġadvocate":6521,"Ġserious":6522,"Ġwelc":6523,"Ġboisterous":6524,"Ġpersons":6525,"Ġdancing":6526,"Ġdoubtful":6527,"Ġgrim":6528,"Ġhangman":6529,"Ġrevenue":6530,"Ġdischarge":6531,"Ġcrab":6532,"Ġcommands":6533,"Ġwindow":6534,"Ġproudest":6535,"ĠSunday":6536,"Ġdepend":6537,"Ġyielding":6538,"Ġbreaks":6539,"Ġtemple":6540,"ĠCommit":6541,"ĠCommand":6542,"Ġsupport":6543,"Ġsitting":6544,"Ġcarries":6545,"Ġrequire":6546,"Ġdefy":6547,"Ġtenderness":6548,"Ġsadly":6549,"Ġreported":6550,"Ġchose":6551,"Ġgrowth":6552,"ĠMontagues":6553,"Ġrecreant":6554,"Ġwatery":6555,"Ġasking":6556,"Ġsilk":6557,"Ġlearning":6558,"ĠHapp":6559,"Ġbattles":6560,"Ġcrying":6561,"Ġentreaty":6562,"Ġdevils":6563,"shine":6564,"Ġmurders":6565,"Ġruns":6566,"Ġrevengeful":6567,"Ġquarter":6568,"Ġconfessor":6569,"Ġconfession":6570,"Ġdelicate":6571,"Ġspeedy":6572,"Ġdespised":6573,"Ġforehead":6574,"Ġterr":6575,"Ġminutes":6576,"Ġbosoms":6577,"there":6578,"Ġveil":6579,"Ġwonderful":6580,"Ġharmony":6581,"Ġguiltless":6582,"Ġattended":6583,"Ġmurderous":6584,"ĠVolscians":6585,"ĠVolscian":6586,"Twixt":6587,"Ġsingular":6588,"Ġburden":6589,"Ġdistra":6590,"Ġdistress":6591,"Ġdisturb":6592,"Ġacts":6593,"Ġmusician":6594,"Ġwaits":6595,"Ġclosed":6596,"Ġbeggars":6597,"Ġsuffering":6598,"Ġsufferance":6599,"Ġbreasts":6600,"Ġwedded":6601,"Ġdukes":6602,"Ġcrim":6603,"Ġcrush":6604,"Ġembass":6605,"Ġredempt":6606,"ĠRead":6607,"ĠReady":6608,"Ġfeasts":6609,"Ġgroom":6610,"Ġundo":6611,"Ġbowl":6612,"Ġinterrupt":6613,"Ġevils":6614,"Ġsumm":6615,"Ġvisitation":6616,"Ġbaby":6617,"Ġframed":6618,"Ġknocks":6619,"Ġsafely":6620,"Ġsafeguard":6621,"ĠIsabella":6622,"Ġignoble":6623,"Ġoppression":6624,"Ġpuiss":6625,"standing":6626,"Ġsacrament":6627,"Ġapproved":6628,"Ġleaden":6629,"ĠStands":6630,"Ġlamentation":6631,"Ġclean":6632,"Ġpitied":6633,"Ġinsinu":6634,"Ġunworthy":6635,"Ġunwilling":6636,"Ġsecrets":6637,"Ġdrinking":6638,"Ġsurfeit":6639,"Ġmidst":6640,"Ġmidwife":6641,"Ġdestiny":6642,"Ġsmallest":6643,"Ġdamnable":6644,"Ġutmost":6645,"ĠAdv":6646,"ĠBritt":6647,"Ġeasily":6648,"Ġproceedings":6649,"Ġmildly":6650,"Ġcauses":6651,"Ġinjustice":6652,"Ġapart":6653,"Ġmedic":6654,"Ġmodel":6655,"Ġfamiliar":6656,"ĠTwice":6657,"ĠMistake":6658,"Ġreigns":6659,"ossess":6660,"ĠTruly":6661,"ĠAntonio":6662,"Ġprosperity":6663,"Ġlenity":6664,"Ġlowly":6665,"Ġbending":6666,"ĠScotland":6667,"Ġslanderous":6668,"Ġpursue":6669,"Ġpursuit":6670,"ĠCapulets":6671,"Ġmountain":6672,"angling":6673,"Ġplants":6674,"Ġprovided":6675,"Ġextremes":6676,"Ġbald":6677,"Ġimagination":6678,"Ġglasses":6679,"Ġconclusion":6680,"Ġunlook":6681,"Ġunluck":6682,"Ġunpro":6683,"Ġprophecy":6684,"rateful":6685,"shearing":6686,"Ġdisgraced":6687,"Ġavoided":6688,"Ġdrift":6689,"Ġcrept":6690,"Ġeager":6691,"Ġloathsome":6692,"Ġloyalty":6693,"Ġaims":6694,"Ġsensible":6695,"Ġpinch":6696,"Ġpilot":6697,"Ġinfected":6698,"Ġstatutes":6699,"Ġstocks":6700,"Ġchiefest":6701,"govern":6702,"Ġcalamity":6703,"Ġangels":6704,"Ġlodged":6705,"Ġlodging":6706,"Ġcracking":6707,"Ġcorruption":6708,"Ġconqueror":6709,"Ġtutor":6710,"Ġfleet":6711,"Ġfrozen":6712,"ĠARCHBISHOP":6713,"Ġcloak":6714,"Ġwhoreson":6715,"Ġadvanced":6716,"Ġmagist":6717,"Ġconcerns":6718,"Ġcompassion":6719,"Ġsprings":6720,"Ġswelling":6721,"Ġabhorr":6722,"Ġadverse":6723,"Ġperjured":6724,"Ġwhispering":6725,"ĠSuppose":6726,"Ġafflict":6727,"Ġmultitude":6728,"Ġnails":6729,"Ġlinea":6730,"ĠTarpeian":6731,"Ġinquire":6732,"Ġmanifest":6733,"Ġdispleasure":6734,"Ġclimate":6735,"Ġwrinkled":6736,"Ġcorrection":6737,"ĠConfess":6738,"ĠAntium":6739,"Ġtaunts":6740,"Ġmoody":6741,"Ġpedlar":6742,"ĠSometime":6743,"Ġsteward":6744,"ĠLieutenant":6745,"Ġbranches":6746,"Ġincensed":6747,"Ġinnocence":6748,"Ġflatterers":6749,"Ġeternal":6750,"Ġtiger":6751,"Ġmilk":6752,"Ġnumbers":6753,"Ġhinder":6754,"Ġpearl":6755,"Ġbereft":6756,"ĠBreak":6757,"Ġornaments":6758,"Ġunseen":6759,"Ġtrifles":6760,"Ġcounsellor":6761,"Ġserpent":6762,"Ġtardy":6763,"Ġsurpr":6764,"Ġcabin":6765,"Ġlunatic":6766,"Ġhistory":6767,"ĠVirtue":6768,"Ġconsequence":6769,"Ġpopular":6770,"Ġmarshal":6771,"Ġmarvellous":6772,"Ġplebeians":6773,"Ġprophesy":6774,"Ġceremonious":6775,"uivant":6776,"Ġacknow":6777,"Ġafeard":6778,"Ġsixteen":6779,"Ġmoment":6780,"Ġmurdered":6781,"Ġfrantic":6782,"Ġfifteen":6783,"Ġnorthern":6784,"ĠTunis":6785,"ĠTewksbury":6786,"ĠABRAHAM":6787,"ĠSycorax":6788,"ĠMurder":6789,"Ġforsooth":6790,"ĠCarthage":6791,"adventure":6792,"ĠPembroke":6793,"ĠNeptune":6794,"Ġlikelihood":6795,"ĠJupiter":6796,"Ġredemption":6797,"ĠBrittany":6798,"AGE":6799,"Be":6800,"Gain":6801,"He":6802,"IEL":6803,"MILIA":6804,"REY":6805,"St":6806,"The":6807,"ais":6808,"ald":6809,"aches":6810,"avish":6811,"bid":6812,"bell":6813,"bles":6814,"bearer":6815,"cis":6816,"cat":6817,"core":6818,"cast":6819,"cock":6820,"cund":6821,"duce":6822,"ex":6823,"eks":6824,"franch":6825,"good":6826,"gage":6827,"grown":6828,"gled":6829,"gory":6830,"greed":6831,"hur":6832,"iqu":6833,"ivers":6834,"jud":6835,"kens":6836,"lm":6837,"lu":6838,"look":6839,"leness":6840,"met":6841,"miss":6842,"overy":6843,"ops":6844,"opher":6845,"ph":6846,"por":6847,"phan":6848,"ples":6849,"pret":6850,"picious":6851,"rge":6852,"sion":6853,"side":6854,"scape":6855,"ule":6856,"uge":6857,"uish":6858,"uced":6859,"ukes":6860,"ueless":6861,"vil":6862,"wit":6863,"will":6864,"witted":6865,"your":6866,"Ġire":6867,"Ġton":6868,"Ġtur":6869,"Ġtea":6870,"Ġtink":6871,"Ġtreat":6872,"Ġtents":6873,"Ġtainted":6874,"Ġtailor":6875,"Ġtamed":6876,"Ġtumble":6877,"heard":6878,"Ġav":6879,"Ġafore":6880,"ouches":6881,"Ġsith":6882,"Ġsine":6883,"Ġsiege":6884,"Ġmast":6885,"Ġmant":6886,"Ġmiles":6887,"Ġwester":6888,"Ġwaken":6889,"Ġwilful":6890,"Ġwenches":6891,"iner":6892,"reth":6893,"haeth":6894,"habit":6895,"Ġbought":6896,"Ġbount":6897,"Ġbishop":6898,"isher":6899,"isome":6900,"oricles":6901,"Ġfet":6902,"Ġfest":6903,"Ġfem":6904,"Ġfits":6905,"Ġfilth":6906,"ĠIll":6907,"lling":6908,"lled":6909,"itting":6910,"Ġder":6911,"Ġdom":6912,"Ġded":6913,"Ġdil":6914,"Ġdame":6915,"Ġdiet":6916,"Ġdrows":6917,"Ġdumb":6918,"Ġcand":6919,"Ġcard":6920,"Ġcave":6921,"Ġcuck":6922,"Ġcrew":6923,"Ġcrest":6924,"Ġcurious":6925,"Ġcousins":6926,"Ġnon":6927,"Ġnaught":6928,"Ġnourish":6929,"Ġlink":6930,"Ġlace":6931,"Ġloose":6932,"Ġlends":6933,"Ġlung":6934,"Ġlatest":6935,"eny":6936,"enown":6937,"Ġthres":6938,"Ġthrees":6939,"aration":6940,"arison":6941,"Ġhy":6942,"Ġhood":6943,"Ġobt":6944,"Ġtoe":6945,"Ġtoy":6946,"Ġtoken":6947,"Ġtower":6948,"Ġpine":6949,"Ġpate":6950,"Ġpull":6951,"Ġpedant":6952,"Ġpounds":6953,"Ġprun":6954,"Ġpattern":6955,"ĠTur":6956,"ĠAgain":6957,"Ġheigh":6958,"Ġhedge":6959,"stone":6960,"strong":6961,"strel":6962,"owick":6963,"ank":6964,"anish":6965,"oming":6966,"omenes":6967,"Ġgaz":6968,"Ġgeld":6969,"Ġgulf":6970,"ato":6971,"atient":6972,"Ġbeet":6973,"Ġbeads":6974,"ĠWorse":6975,"ĠWales":6976,"seth":6977,"seem":6978,"Ġinve":6979,"Ġinherit":6980,"Ġhaw":6981,"Ġhall":6982,"Ġhalt":6983,"cel":6984,"etition":6985,"ediment":6986,"ĠBad":6987,"ĠBON":6988,"ĠBack":6989,"Ġmellow":6990,"imo":6991,"ims":6992,"ĠSin":6993,"ĠSUR":6994,"Ġnotes":6995,"Ġnotorious":6996,"Ġnotwith":6997,"ĠHost":6998,"ĠHigh":6999,"ĠHerc":7000,"ĠHoly":7001,"chool":7002,"ĠMasters":7003,"Ġforn":7004,"Ġforces":7005,"key":7006,"ĠCy":7007,"ĠCher":7008,"ĠCold":7009,"ĠCarry":7010,"ĠCursed":7011,"Ġweed":7012,"Ġweal":7013,"illed":7014,"Ġelo":7015,"Ġebb":7016,"herited":7017,"entious":7018,"ado":7019,"adem":7020,"adise":7021,"rion":7022,"rial":7023,"rief":7024,"rieve":7025,"ĠOpen":7026,"ĠObey":7027,"Ġstu":7028,"Ġstem":7029,"Ġstaff":7030,"ĠLam":7031,"ĠLod":7032,"ĠLeft":7033,"ĠFill":7034,"ĠFly":7035,"ĠFif":7036,"ĠFran":7037,"ĠGold":7038,"ĠGrand":7039,"ĠGroom":7040,"ghts":7041,"Ġren":7042,"Ġrent":7043,"Ġrender":7044,"idd":7045,"iding":7046,"rails":7047,"Ġliar":7048,"Ġliqu":7049,"asy":7050,"asing":7051,"asures":7052,"ĠPho":7053,"ĠPres":7054,"ĠPatri":7055,"ĠPAGE":7056,"ĠPhaeth":7057,"urvy":7058,"alion":7059,"Ġsolic":7060,"Ġassemb":7061,"Ġdeceive":7062,"Ġdefect":7063,"ĠRo":7064,"ĠRed":7065,"ĠRest":7066,"ĠRun":7067,"ĠRenown":7068,"rop":7069,"ĠNATH":7070,"aining":7071,"verse":7072,"Ġdoct":7073,"Ġdoves":7074,"Ġdoors":7075,"Ġnoses":7076,"ĠEnd":7077,"ĠEvery":7078,"ĠEMILIA":7079,"ĠDef":7080,"ĠDION":7081,"ĠDirect":7082,"ĠDoricles":7083,"Ġsear":7084,"Ġsequ":7085,"Ġallay":7086,"Ġallies":7087,"Ġsued":7088,"Ġsung":7089,"Ġsunder":7090,"Ġsugg":7091,"Ġsugar":7092,"Ġherbs":7093,"Ġansw":7094,"Ġantic":7095,"Ġloins":7096,"Ġlocks":7097,"terate":7098,"Ġsped":7099,"Ġspilt":7100,"Ġspices":7101,"Ġspiders":7102,"Ġfaction":7103,"thw":7104,"thing":7105,"throw":7106,"Ġnegl":7107,"Ġknit":7108,"Ġvi":7109,"Ġvine":7110,"Ġvig":7111,"Ġshout":7112,"Ġshower":7113,"antime":7114,"quet":7115,"athom":7116,"Ġmum":7117,"Ġmuff":7118,"Ġwhet":7119,"Ġwheel":7120,"ĠWhate":7121,"Ġamend":7122,"icial":7123,"iel":7124,"Ġblister":7125,"Ġblade":7126,"ivered":7127,"venient":7128,"ĠForth":7129,"ĠForbear":7130,"ĠForbid":7131,"Ġwasp":7132,"olar":7133,"olve":7134,"ĠHector":7135,"Ġhatch":7136,"ANIEL":7137,"Ġknowest":7138,"Ġcann":7139,"Ġcanker":7140,"Ġsayest":7141,"ressed":7142,"feits":7143,"Ġorphan":7144,"ppet":7145,"pped":7146,"Ġusing":7147,"Ġusure":7148,"allel":7149,"Ġarch":7150,"Ġargu":7151,"Ġarbit":7152,"Ġunth":7153,"Ġunple":7154,"Ġunrest":7155,"Ġworshi":7156,"ĠAss":7157,"Ġquake":7158,"Ġquaint":7159,"elting":7160,"Ġjade":7161,"Ġgraft":7162,"Ġmusty":7163,"Ġhole":7164,"cip":7165,"cially":7166,"Ġprocure":7167,"Ġmadly":7168,"Ġmadest":7169,"Ġmadman":7170,"Ġplate":7171,"ums":7172,"umes":7173,"umps":7174,"uments":7175,"umny":7176,"pecially":7177,"ĠJer":7178,"ĠJun":7179,"ĠJust":7180,"ĠJud":7181,"Ġdisting":7182,"Ġdissemble":7183,"Ġdisorder":7184,"Ġpox":7185,"Ġpocket":7186,"fulness":7187,"ptory":7188,"Ġtruer":7189,"ĠThoughts":7190,"Ġmarr":7191,"Ġmarble":7192,"Ġmariners":7193,"Ġrats":7194,"Ġrites":7195,"Ġrising":7196,"ĠIns":7197,"ĠInfer":7198,"Ġaloof":7199,"Ġalto":7200,"Ġheap":7201,"Ġhears":7202,"echer":7203,"eches":7204,"Ġabst":7205,"Ġabod":7206,"Ġexclaim":7207,"Ġexact":7208,"Ġexperience":7209,"Ġfold":7210,"Ġfoil":7211,"Ġearl":7212,"Ġearldom":7213,"Ġrode":7214,"Ġrocks":7215,"Ġlooker":7216,"erving":7217,"ervation":7218,"ĠUrge":7219,"Ġridd":7220,"Ġripen":7221,"Ġrivers":7222,"tised":7223,"Ġwarn":7224,"Ġwarning":7225,"Ġflame":7226,"Ġslack":7227,"Ġbreeding":7228,"sses":7229,"Ġafoot":7230,"apable":7231,"izab":7232,"Ġrages":7233,"Ġrasc":7234,"Ġraging":7235,"Ġraiment":7236,"Ġprec":7237,"Ġpreced":7238,"Ġprerog":7239,"Ġprays":7240,"Ġclap":7241,"Ġsweets":7242,"Ġperf":7243,"Ġpledge":7244,"Ġnobleman":7245,"Ġwrangling":7246,"Ġtrades":7247,"Ġwayward":7248,"Ġheadstrong":7249,"aws":7250,"Ġpreserved":7251,"Ġscour":7252,"Ġscru":7253,"ĠAny":7254,"Ġqueens":7255,"lip":7256,"Ġmoan":7257,"Ġchival":7258,"Ġcontri":7259,"Ġapply":7260,"Ġappell":7261,"Ġappoint":7262,"Ġbegot":7263,"Ġarmed":7264,"Ġimmediate":7265,"Ġmale":7266,"Ġreplied":7267,"Ġreproof":7268,"Ġrepossess":7269,"Ġrepetition":7270,"love":7271,"Ġlongest":7272,"Ġintended":7273,"Ġconspir":7274,"Ġconsorted":7275,"Ġconsumed":7276,"Ġperem":7277,"ffer":7278,"Ġlevy":7279,"Ġentire":7280,"Ġentrails":7281,"Ġlieutenant":7282,"chelor":7283,"Ġtried":7284,"ĠProf":7285,"Ġresort":7286,"Ġrescue":7287,"Ġcomposition":7288,"Ġprivy":7289,"Ġchaf":7290,"Ġchap":7291,"Ġchains":7292,"Ġcounted":7293,"fts":7294,"Ġpeaceful":7295,"Ġelsewhe":7296,"ailing":7297,"Ġbackward":7298,"Ġcoz":7299,"Ġcoal":7300,"Ġcoals":7301,"Ġneedle":7302,"Ġneedless":7303,"Ġladyship":7304,"Ġbraved":7305,"Ġbrass":7306,"Ġhighway":7307,"Ġhusbands":7308,"Ġchanges":7309,"Ġminded":7310,"Ġbanquet":7311,"Ġchest":7312,"Ġshowers":7313,"Ġconfer":7314,"Ġconfines":7315,"Ġconfusion":7316,"Ġbribe":7317,"Ġcaused":7318,"Ġimpart":7319,"Ġimpud":7320,"Ġimpression":7321,"Ġimpatience":7322,"Ġimpatient":7323,"Ġimpediment":7324,"Ġmistaking":7325,"Ġglories":7326,"Ġbodes":7327,"Ġlightly":7328,"Ġlightness":7329,"Ġbeseem":7330,"Ġnatures":7331,"Ġpardons":7332,"Ġunderne":7333,"Ġundergo":7334,"Ġdevice":7335,"Ġhappier":7336,"Ġkilled":7337,"Ġfollowing":7338,"Ġbush":7339,"Ġfarm":7340,"Ġsunshine":7341,"Ġobst":7342,"ival":7343,"Ġturned":7344,"Ġstreet":7345,"Ġstream":7346,"Ġcomforts":7347,"Ġcomfortable":7348,"Ġsleeps":7349,"Ġsleepy":7350,"itories":7351,"ĠHerald":7352,"Ġattent":7353,"Ġfalsely":7354,"Ġmatters":7355,"Ġbox":7356,"Ġboon":7357,"Ġfights":7358,"Ġfighting":7359,"holds":7360,"Ġprisoners":7361,"Ġmerciful":7362,"Ġdangers":7363,"mph":7364,"mpet":7365,"Ġassault":7366,"Ġdiscords":7367,"Ġdischarged":7368,"Ġstrait":7369,"Ġcommanding":7370,"Ġdreamt":7371,"enerate":7372,"kenbury":7373,"Ġdared":7374,"Ġgetting":7375,"Ġsisterhood":7376,"Ġfouler":7377,"versy":7378,"Ġbreaking":7379,"Ġawry":7380,"Ġmerrim":7381,"Ġdenial":7382,"Ġsuppose":7383,"Ġsuppli":7384,"Ġrequires":7385,"Ġrequired":7386,"Ġbeating":7387,"Ġvalue":7388,"Ġtenderly":7389,"Ġfootman":7390,"Ġwoeful":7391,"Ġreturned":7392,"upon":7393,"Ġdeeper":7394,"Ġdeeply":7395,"blown":7396,"Ġchop":7397,"Ġcoldly":7398,"Ġnursed":7399,"Ġrecover":7400,"azon":7401,"Ġsuffice":7402,"Ġplucks":7403,"Ġairy":7404,"Ġsilken":7405,"Ġjocund":7406,"Ġpastime":7407,"shining":7408,"Ġfasting":7409,"Ġstrongly":7410,"xton":7411,"Ġfitted":7412,"Ġpossessed":7413,"Ġinconstant":7414,"Ġinfring":7415,"Ġissued":7416,"Ġprofan":7417,"Ġprofits":7418,"plish":7419,"voke":7420,"voided":7421,"Ġdelivered":7422,"Ġforet":7423,"Ġforest":7424,"Ġdivided":7425,"Ġdivines":7426,"Ġdivision":7427,"Ġposterity":7428,"Ġmocking":7429,"Ġmockery":7430,"Ġresolute":7431,"Ġcounsels":7432,"Ġterrible":7433,"Ġminstrel":7434,"Ġtribune":7435,"Ġtribute":7436,"Ġwhipt":7437,"Ġharmless":7438,"Ġdraws":7439,"Twill":7440,"Ġagreed":7441,"Ġdistressed":7442,"Ġactor":7443,"Ġstirs":7444,"Ġstirring":7445,"Ġaffright":7446,"Ġsigns":7447,"Ġbreathes":7448,"Ġclosely":7449,"Ġskulls":7450,"Ġforgiveness":7451,"Ġwisest":7452,"ĠBeshrew":7453,"Ġregiment":7454,"Ġpoisonous":7455,"Ġcheerfully":7456,"Ġtax":7457,"Ġdireful":7458,"Ġembra":7459,"Ġembraced":7460,"Ġpays":7461,"Ġsuccor":7462,"Ġmalign":7463,"Ġdarken":7464,"ĠArm":7465,"ĠArise":7466,"Ġblessings":7467,"Ġbleed":7468,"Ġbleeds":7469,"Ġpenny":7470,"Ġinterchange":7471,"Ġbroad":7472,"Ġcapital":7473,"Ġcaparison":7474,"Ġhurried":7475,"Ġchamberlain":7476,"Ġcreated":7477,"Ġcreatures":7478,"Ġcowardice":7479,"Ġlimits":7480,"Ġpuff":7481,"Ġpuppet":7482,"Ġrebel":7483,"Ġrebuke":7484,"Ġscorns":7485,"Ġwitnesses":7486,"Ġinsulting":7487,"ĠMercy":7488,"Ġscarlet":7489,"ĠChristopher":7490,"Ġidly":7491,"Ġhideous":7492,"Ġbeastly":7493,"ĠGregory":7494,"ĠJoin":7495,"Ġfills":7496,"Ġstrumpet":7497,"Ġinjurious":7498,"Ġinjuries":7499,"Ġfamish":7500,"ĠTwenty":7501,"ĠBelike":7502,"Ġsolely":7503,"Ġgovernor":7504,"Ġmutiny":7505,"Ġgrandfather":7506,"Ġdrunkard":7507,"Ġscholar":7508,"Ġlustful":7509,"Ġthreats":7510,"Ġindiffe":7511,"Ġindirect":7512,"ĠMeasure":7513,"ĠMeantime":7514,"ĠEnough":7515,"Ġsafer":7516,"Ġpursued":7517,"Ġmounting":7518,"Ġfeat":7519,"Ġcaptive":7520,"ĠConsider":7521,"ĠVerily":7522,"Ġfollies":7523,"Ġcontrad":7524,"Ġremedies":7525,"Ġunderstanding":7526,"Ġgentler":7527,"ĠFlore":7528,"ĠFloriz":7529,"Ġdegrees":7530,"Ġdemands":7531,"ĠNeighb":7532,"Ġgreetings":7533,"Ġextremest":7534,"Ġtriumphs":7535,"Ġscarcely":7536,"piring":7537,"Ġbachelor":7538,"Ġfarthest":7539,"Ġfaintly":7540,"Ġdwells":7541,"Ġthroats":7542,"Ġgait":7543,"Ġgaol":7544,"Ġgape":7545,"Ġgaoler":7546,"Ġchastity":7547,"Ġchastisement":7548,"Ġmiseries":7549,"Ġconditions":7550,"Ġhunger":7551,"Ġfirmly":7552,"Ġholid":7553,"Ġbefal":7554,"Ġbefits":7555,"Ġinclination":7556,"Ġrelig":7557,"Ġunborn":7558,"Ġunlawful":7559,"Ġbootless":7560,"Ġschoolmaster":7561,"Ġfruitful":7562,"Ġfeeding":7563,"Ġstooping":7564,"ĠLovel":7565,"Ġnecessary":7566,"Ġimportune":7567,"Ġcreate":7568,"Ġdecay":7569,"Ġknightly":7570,"Ġknighthood":7571,"Ġshrink":7572,"Ġshriek":7573,"Ġfrighted":7574,"Ġroundly":7575,"Ġtreachery":7576,"Ġassistance":7577,"Ġdelights":7578,"Ġutterance":7579,"actors":7580,"Ġlouder":7581,"ĠShame":7582,"Ġstarve":7583,"Ġambition":7584,"Ġjealousies":7585,"Ġpersuasion":7586,"Ġerror":7587,"Ġcalumny":7588,"Ġphysician":7589,"Ġbeware":7590,"Ġweighty":7591,"Ġsupreme":7592,"Ġadmir":7593,"Ġpenitence":7594,"Ġsolemnity":7595,"Ġwolves":7596,"Ġwonders":7597,"Ġbaseness":7598,"Ġbudge":7599,"Ġdiadem":7600,"Ġrewards":7601,"ĠRepent":7602,"Ġcombat":7603,"Ġpronounced":7604,"Ġargos":7605,"Ġtrembles":7606,"Ġpublicly":7607,"whelm":7608,"Ġmillions":7609,"Ġmagic":7610,"Ġhazel":7611,"Ġmerely":7612,"ĠCalais":7613,"ĠElizab":7614,"Ġapprehens":7615,"Ġgreyh":7616,"Ġcholeric":7617,"Ġthorns":7618,"Ġgloves":7619,"ĠBrakenbury":7620,"ĠSeize":7621,"Ġnobler":7622,"Ġworthily":7623,"Ġadvertised":7624,"Ġperjury":7625,"Ġwitchcra":7626,"Ġbrawl":7627,"Ġbrawling":7628,"Ġcircumstances":7629,"This":7630,"glass":7631,"Ġachieve":7632,"Ġachieved":7633,"Ġsyll":7634,"Ġwinged":7635,"Ġfunction":7636,"Ġdifference":7637,"Ġhorror":7638,"ĠTarqu":7639,"ĠSmile":7640,"ĠSixth":7641,"Ġforsake":7642,"ĠCondemn":7643,"Ġevents":7644,"Ġreceives":7645,"ĠDarest":7646,"Ġvillany":7647,"Ġadmitted":7648,"Ġclimb":7649,"Ġbeguile":7650,"ĠAntiates":7651,"gnant":7652,"mongst":7653,"Ġtimeless":7654,"Ġwidows":7655,"Ġnapkin":7656,"ĠAffection":7657,"ĠCleomenes":7658,"Ġdebase":7659,"Ġsuperfl":7660,"ĠKnock":7661,"Ġsplit":7662,"Ġvolume":7663,"Ġdisguised":7664,"Ġscolding":7665,"Ġcouncil":7666,"Ġcouncils":7667,"Ġcurtain":7668,"ĠAmongst":7669,"ĠBetween":7670,"ĠBetwixt":7671,"Ġbaggage":7672,"Ġhomage":7673,"Ġhigher":7674,"ĠApothecary":7675,"ĠWrite":7676,"Ġhaughty":7677,"ĠGreece":7678,"ĠPercy":7679,"Ġunfeigned":7680,"Ġcontroversy":7681,"Ġappeared":7682,"Ġrestraint":7683,"Ġbankrupt":7684,"Ġdragon":7685,"ĠAttend":7686,"ĠDispatch":7687,"Ġtransported":7688,"Ġsaucy":7689,"Ġmourning":7690,"Ġcentre":7691,"Ġpicture":7692,"Ġsociety":7693,"ĠEmilia":7694,"ĠEvermore":7695,"Ġanchor":7696,"Ġshelter":7697,"Ġragged":7698,"Ġscape":7699,"Ġimperial":7700,"Ġrestored":7701,"Ġlecture":7702,"Ġsmiling":7703,"Ġmerrily":7704,"Ġinferior":7705,"Ġdivorce":7706,"ĠWelshmen":7707,"Ġexpedition":7708,"Ġtroublous":7709,"Ġinsolence":7710,"Ġconcluded":7711,"Ġtestimony":7712,"Ġreckoning":7713,"ebus":7714,"Ġsands":7715,"Ġcordial":7716,"Ġpestilence":7717,"Ġpupil":7718,"ĠTouching":7719,"ĠHarp":7720,"Ġugly":7721,"ĠOverdone":7722,"Ġashore":7723,"Ġvulgar":7724,"Ġvassal":7725,"Ġamazement":7726,"osterous":7727,"Ġcanopy":7728,"Ġplaints":7729,"Ġdisobed":7730,"Ġrancour":7731,"Ġnightingale":7732,"Ġwhistle":7733,"Ġharlot":7734,"Ġwelcomes":7735,"Ġterritories":7736,"Ġpuissant":7737,"ĠAdvance":7738,"Ġmedicine":7739,"Ġacknowledge":7740,"Gainst":7741,"iquity":7742,"Ġtonight":7743,"Ġsinew":7744,"Ġwestern":7745,"Ġfestival":7746,"Ġfemale":7747,"Ġcuckold":7748,"Ġlungs":7749,"Ġobtain":7750,"Ġprunes":7751,"ĠBONA":7752,"ĠSURREY":7753,"Ġnotwithstanding":7754,"ĠHercules":7755,"Ġeloqu":7756,"ĠLodowick":7757,"ĠFifth":7758,"ĠFrancis":7759,"ĠGrandam":7760,"ĠPhoebus":7761,"ĠPatrician":7762,"ĠPhaethon":7763,"Ġsolicit":7764,"ĠNATHANIEL":7765,"Ġvineyard":7766,"Ġaltogether":7767,"Ġrascals":7768,"Ġprecedent":7769,"Ġprerogative":7770,"Ġperemptory":7771,"Ġelsewhere":7772,"Ġunderneath":7773,"Ġmerriment":7774,"Ġindifferent":7775,"ĠFlorizel":7776,"ĠElizabeth":7777,"Ġapprehension":7778,"Ġwitchcraft":7779,"'!":7780,"'--":7781,"ALIS":7782,"CI":7783,"Fore":7784,"Good":7785,"Hear":7786,"It":7787,"LU":7788,"My":7789,"Soul":7790,"Ty":7791,"Tell":7792,"We":7793,"av":7794,"aus":7795,"avery":7796,"aving":7797,"acious":7798,"bu":7799,"bon":7800,"bes":7801,"bat":7802,"bri":7803,"bast":7804,"book":7805,"bel":7806,"bred":7807,"bham":7808,"brain":7809,"co":7810,"cr":7811,"can":7812,"cas":7813,"chard":7814,"cats":7815,"cued":7816,"din":7817,"dis":7818,"dent":7819,"dra":7820,"dur":7821,"dro":7822,"dict":7823,"door":7824,"ele":7825,"ech":7826,"eress":7827,"eases":7828,"fly":7829,"fend":7830,"fty":7831,"fix":7832,"favour":7833,"gom":7834,"gher":7835,"gone":7836,"gress":7837,"gia":7838,"gging":7839,"hill":7840,"hra":7841,"hoop":7842,"ias":7843,"ige":7844,"iod":7845,"iber":7846,"iable":7847,"iction":7848,"iby":7849,"journ":7850,"lord":7851,"las":7852,"lore":7853,"lous":7854,"lves":7855,"lorn":7856,"lings":7857,"lause":7858,"my":7859,"min":7860,"mast":7861,"mind":7862,"mak":7863,"mary":7864,"mony":7865,"minous":7866,"mission":7867,"nit":7868,"net":7869,"nut":7870,"nel":7871,"oz":7872,"oison":7873,"pse":7874,"pter":7875,"pho":7876,"pol":7877,"peak":7878,"pence":7879,"pire":7880,"press":7881,"piece":7882,"poses":7883,"rings":7884,"roop":7885,"song":7886,"sick":7887,"sia":7888,"sby":7889,"spo":7890,"school":7891,"te":7892,"ton":7893,"test":7894,"take":7895,"tree":7896,"tered":7897,"tsey":7898,"uity":7899,"ubs":7900,"vion":7901,"vity":7902,"wh":7903,"ween":7904,"wench":7905,"worth":7906,"warn":7907,"women":7908,"yally":7909,"ymph":7910,"zwater":7911,"Ġ&":7912,"ĠĠ":7913,"Ġtum":7914,"Ġtire":7915,"Ġtatter":7916,"Ġtides":7917,"Ġtunes":7918,"Ġtales":7919,"Ġteeming":7920,"Ġtumbling":7921,"hear":7922,"Ġau":7923,"Ġaqu":7924,"Ġaust":7925,"Ġaery":7926,"Ġaches":7927,"Ġsly":7928,"Ġsurn":7929,"Ġsongs":7930,"Ġmot":7931,"Ġmow":7932,"Ġming":7933,"Ġmart":7934,"Ġmap":7935,"Ġmass":7936,"Ġmute":7937,"Ġwra":7938,"Ġware":7939,"Ġwaning":7940,"Ġwalks":7941,"inet":7942,"inance":7943,"inable":7944,"inite":7945,"reef":7946,"reach":7947,"reement":7948,"hast":7949,"happ":7950,"nders":7951,"Ġbone":7952,"Ġbau":7953,"Ġbind":7954,"Ġbate":7955,"Ġbust":7956,"Ġbide":7957,"Ġbatter":7958,"Ġbier":7959,"Ġbale":7960,"Ġbench":7961,"Ġbash":7962,"Ġbills":7963,"isc":7964,"isk":7965,"isle":7966,"Ġfen":7967,"Ġfed":7968,"Ġfut":7969,"Ġfate":7970,"Ġfence":7971,"Ġfile":7972,"Ġfester":7973,"Ġfees":7974,"Ġfowl":7975,"Ġfickle":7976,"Ġfathom":7977,"ĠIrish":7978,"erate":7979,"erman":7980,"eria":7981,"erwhelm":7982,"lla":7983,"itan":7984,"itche":7985,"once":7986,"onour":7987,"Ġdun":7988,"Ġdaint":7989,"Ġdial":7990,"Ġdastard":7991,"Ġdaring":7992,"Ġduteous":7993,"Ġdainty":7994,"Ġcy":7995,"Ġcot":7996,"Ġced":7997,"Ġcri":7998,"Ġcas":7999,"Ġcert":8000,"Ġcuff":8001,"Ġcele":8002,"Ġna":8003,"Ġnea":8004,"Ġnerves":8005,"Ġnearer":8006,"Ġniece":8007,"Ġnuns":8008,"Ġnymph":8009,"Ġninet":8010,"Ġlain":8011,"Ġlame":8012,"Ġlass":8013,"Ġlaughter":8014,"Ġlaz":8015,"Ġlecher":8016,"Ġyard":8017,"Ġyew":8018,"Ġyellow":8019,"Ġthra":8020,"Ġthrew":8021,"Ġthorough":8022,"Ġthreef":8023,"arr":8024,"arth":8025,"arks":8026,"arling":8027,"arated":8028,"Ġhook":8029,"Ġhilt":8030,"Ġhint":8031,"Ġhounds":8032,"Ġhills":8033,"Ġox":8034,"Ġost":8035,"Ġoce":8036,"Ġominous":8037,"Ġtoss":8038,"Ġtoys":8039,"Ġphe":8040,"Ġpir":8041,"Ġpith":8042,"Ġpoo":8043,"Ġpul":8044,"Ġpark":8045,"Ġpens":8046,"Ġpotion":8047,"Ġpines":8048,"Ġpals":8049,"Ġpiled":8050,"Ġportion":8051,"ĠTr":8052,"ĠTend":8053,"ĠTong":8054,"ĠTakes":8055,"ĠTrem":8056,"ĠTiber":8057,"ĠAg":8058,"Ġhen":8059,"Ġhew":8060,"Ġheal":8061,"oting":8062,"oted":8063,"stood":8064,"stool":8065,"ange":8066,"anous":8067,"anks":8068,"Ġgle":8069,"Ġgay":8070,"Ġgir":8071,"Ġgear":8072,"Ġgilt":8073,"Ġgild":8074,"Ġgorge":8075,"Ġginger":8076,"atin":8077,"athan":8078,"atory":8079,"atiate":8080,"Ġbeho":8081,"ĠWor":8082,"ĠWent":8083,"Ġinhabit":8084,"Ġhab":8085,"Ġhaven":8086,"ceives":8087,"lex":8088,"leven":8089,"lehill":8090,"ldren":8091,"uto":8092,"utus":8093,"utches":8094,"ĠBore":8095,"ĠBea":8096,"ĠBreat":8097,"ĠBase":8098,"ĠBret":8099,"ĠBrist":8100,"ĠBrand":8101,"ĠBanish":8102,"ĠBLU":8103,"imple":8104,"ĠSent":8105,"ĠSad":8106,"ĠSel":8107,"ĠSorrow":8108,"ĠSland":8109,"ĠSeal":8110,"ĠSleep":8111,"ĠSilence":8112,"ĠSALIS":8113,"ĠHal":8114,"ĠHard":8115,"ĠHap":8116,"ĠHallow":8117,"ĠHung":8118,"cho":8119,"child":8120,"ĠMeet":8121,"ĠMab":8122,"ĠMount":8123,"ĠMere":8124,"Ġforms":8125,"Ġforlorn":8126,"keep":8127,"ĠCot":8128,"ĠCut":8129,"ĠCro":8130,"ĠChi":8131,"ĠCare":8132,"ĠCarl":8133,"Ġweb":8134,"ille":8135,"Ġeg":8136,"Ġel":8137,"Ġew":8138,"Ġegg":8139,"enting":8140,"ently":8141,"rian":8142,"ribe":8143,"ĠOpp":8144,"Ġsty":8145,"Ġstart":8146,"Ġstall":8147,"Ġstage":8148,"Ġstuck":8149,"Ġstint":8150,"Ġstew":8151,"Ġstray":8152,"Ġsteter":8153,"Ġstring":8154,"Ġstarts":8155,"Ġstrat":8156,"Ġkern":8157,"Ġkenn":8158,"Ġkitche":8159,"ĠLad":8160,"ĠLess":8161,"ĠLast":8162,"ĠLuke":8163,"ĠLittle":8164,"ĠLud":8165,"ĠLift":8166,"ĠLives":8167,"ĠLatin":8168,"ĠFer":8169,"ĠFar":8170,"ĠFound":8171,"ĠFRAN":8172,"ĠFool":8173,"ĠFellow":8174,"ĠGall":8175,"ĠGirl":8176,"ĠGiven":8177,"Ġrevers":8178,"Ġrelish":8179,"Ġrelease":8180,"Ġrevell":8181,"Ġrehear":8182,"raign":8183,"lysses":8184,"Ġliars":8185,"ashy":8186,"asci":8187,"asite":8188,"ĠPe":8189,"ĠPit":8190,"ĠPhi":8191,"ĠPil":8192,"ĠPale":8193,"urity":8194,"urps":8195,"urbs":8196,"urope":8197,"alo":8198,"alty":8199,"Ġsoar":8200,"Ġsober":8201,"Ġsolace":8202,"Ġascend":8203,"Ġaspiring":8204,"ĠRus":8205,"ĠRag":8206,"ĠRef":8207,"ĠRoss":8208,"ĠNear":8209,"ĠNight":8210,"ĠNine":8211,"ĠNathan":8212,"ARL":8213,"vering":8214,"ĠYonder":8215,"Ġshamed":8216,"Ġdol":8217,"Ġdoit":8218,"Ġdoings":8219,"Ġnov":8220,"ami":8221,"ĠExton":8222,"ĠEurope":8223,"ĠEARL":8224,"ĠDou":8225,"ĠDre":8226,"ĠDion":8227,"ĠDight":8228,"ĠDie":8229,"ĠDick":8230,"ĠDeep":8231,"ĠDukes":8232,"usc":8233,"using":8234,"usale":8235,"usual":8236,"Ġsex":8237,"Ġsevent":8238,"ifter":8239,"geon":8240,"geal":8241,"ĠThither":8242,"ĠThrong":8243,"Ġsues":8244,"Ġsulp":8245,"ĠTold":8246,"ĠTogether":8247,"Ġherds":8248,"rung":8249,"ruised":8250,"Ġant":8251,"Ġangu":8252,"ternal":8253,"arded":8254,"hance":8255,"Ġspell":8256,"Ġspear":8257,"Ġspurn":8258,"Ġspace":8259,"Ġsparing":8260,"ellows":8261,"Ġfails":8262,"Ġfabric":8263,"this":8264,"thren":8265,"ilver":8266,"Ġknell":8267,"Ġknack":8268,"Ġknavery":8269,"Ġvest":8270,"Ġvio":8271,"Ġvap":8272,"Ġvices":8273,"cts":8274,"Ġwhate":8275,"Ġshine":8276,"Ġshouts":8277,"ulation":8278,"antial":8279,"Ġupper":8280,"Ġgoodman":8281,"quis":8282,"qual":8283,"quess":8284,"quaint":8285,"quiet":8286,"Ġmuse":8287,"Ġpry":8288,"Ġmanly":8289,"Ġmanacles":8290,"Ġmankind":8291,"Ġmangled":8292,"Ġatone":8293,"ĠVar":8294,"Ġwheres":8295,"Ġwheels":8296,"Ġcony":8297,"Ġconver":8298,"Ġconvers":8299,"Ġconvent":8300,"Ġamity":8301,"Ġamended":8302,"endom":8303,"icing":8304,"ican":8305,"icide":8306,"icester":8307,"bled":8308,"Ġshepher":8309,"Ġsheets":8310,"Ġblots":8311,"Ġblasp":8312,"vener":8313,"Ġgoest":8314,"ĠForget":8315,"ĠForrest":8316,"ĠForgive":8317,"empl":8318,"eminate":8319,"areth":8320,"oln":8321,"olour":8322,"ĠHelen":8323,"Ġhatches":8324,"ersha":8325,"ershire":8326,"resseth":8327,"Ġswim":8328,"Ġswine":8329,"Ġswifter":8330,"Ġorchard":8331,"Ġbrine":8332,"Ġbrittle":8333,"pper":8334,"Ġusage":8335,"odity":8336,"Ġunity":8337,"Ġunman":8338,"Ġunaw":8339,"Ġunlo":8340,"Ġunsc":8341,"Ġunivers":8342,"Ġunusual":8343,"igation":8344,"hyme":8345,"Ġquest":8346,"eliver":8347,"ĠWhence":8348,"Ġjar":8349,"Ġjump":8350,"Ġhoped":8351,"cible":8352,"cipl":8353,"Ġprover":8354,"Ġproduce":8355,"Ġproffer":8356,"Ġsails":8357,"Ġplent":8358,"umn":8359,"people":8360,"ĠJames":8361,"ĠJule":8362,"Ġdislike":8363,"Ġdishes":8364,"Ġdisposed":8365,"Ġdisloy":8366,"Ġdiseases":8367,"Ġdiscipl":8368,"Ġenroll":8369,"Ġenjoin":8370,"Ġenfranch":8371,"Ġpoll":8372,"Ġoutst":8373,"Ġhowl":8374,"pted":8375,"pture":8376,"unch":8377,"Ġtrudge":8378,"Ġhandle":8379,"Ġsomebod":8380,"ĠWeep":8381,"Ġmarquess":8382,"Ġrood":8383,"Ġrings":8384,"Ġrates":8385,"ĠInf":8386,"acket":8387,"Ġhearth":8388,"Ġability":8389,"Ġabuses":8390,"Ġexha":8391,"Ġexternal":8392,"Ġfoaming":8393,"Ġdaylight":8394,"Ġrod":8395,"Ġroad":8396,"Ġrope":8397,"Ġrogues":8398,"Ġroyally":8399,"Ġtellus":8400,"Ġwhereupon":8401,"agine":8402,"agate":8403,"agems":8404,"usters":8405,"ĠUlysses":8406,"Ġrip":8407,"Ġribb":8408,"aved":8409,"Ġarticles":8410,"Ġarticle":8411,"Ġwary":8412,"Ġflour":8413,"Ġflag":8414,"Ġfliers":8415,"Ġflayed":8416,"ĠMariner":8417,"Ġslide":8418,"Ġslanders":8419,"Ġfearless":8420,"Ġgreatly":8421,"ĠBeg":8422,"bery":8423,"bering":8424,"Ġbrethren":8425,"Ġfairies":8426,"ccess":8427,"ccustom":8428,"apes":8429,"ĠYourself":8430,"izard":8431,"oughby":8432,"Ġcalling":8433,"Ġpartake":8434,"Ġpartial":8435,"Ġraw":8436,"Ġrarest":8437,"Ġraze":8438,"Ġrabble":8439,"Ġadul":8440,"Ġadorn":8441,"Ġadult":8442,"Ġadder":8443,"Ġcommit":8444,"Ġcommodity":8445,"Ġpregnant":8446,"Ġclothe":8447,"Ġsweeten":8448,"Ġperused":8449,"Ġperchance":8450,"Ġperadventure":8451,"Ġperiod":8452,"Ġpresum":8453,"Ġpresses":8454,"Ġprescri":8455,"Ġscra":8456,"Ġscare":8457,"Ġscars":8458,"Ġscouts":8459,"Ġnightly":8460,"assad":8461,"liction":8462,"livion":8463,"Ġmoans":8464,"Ġmolehill":8465,"Ġapplause":8466,"Ġkeen":8467,"Ġremiss":8468,"Ġremote":8469,"pery":8470,"peror":8471,"peration":8472,"abb":8473,"abour":8474,"ilty":8475,"Ġrepaid":8476,"Ġreprieve":8477,"Ġlongs":8478,"Ġlonging":8479,"Ġintends":8480,"Ġinterest":8481,"Ġlively":8482,"Ġconsort":8483,"Ġconsume":8484,"Ġconserves":8485,"Ġmightily":8486,"ĠSirs":8487,"Ġrub":8488,"Ġresteth":8489,"Ġrestrain":8490,"Ġcrowned":8491,"Ġpeck":8492,"Ġpeasant":8493,"ffic":8494,"Ġcourses":8495,"Ġlevied":8496,"Ġenters":8497,"Ġharms":8498,"Ġharder":8499,"Ġtongueless":8500,"ĠStir":8501,"ĠStep":8502,"ĠStop":8503,"ĠStaf":8504,"ĠProdig":8505,"Ġkeeping":8506,"Ġslender":8507,"Ġresp":8508,"Ġreserved":8509,"Ġresidence":8510,"forward":8511,"iously":8512,"Ġcompell":8513,"Ġhourly":8514,"Ġendow":8515,"Ġendea":8516,"retion":8517,"Ġpricks":8518,"ieldy":8519,"Ġpurged":8520,"Ġpurses":8521,"Ġpurposes":8522,"Ġchain":8523,"Ġchaff":8524,"Ġsuborn":8525,"Ġsubsc":8526,"Ġsubmission":8527,"Ġsuburbs":8528,"Ġsmack":8529,"Ġsmiled":8530,"Ġsmelt":8531,"ĠWilloughby":8532,"asonable":8533,"ected":8534,"Ġtraged":8535,"Ġtragic":8536,"Ġtraffic":8537,"Ġcoats":8538,"Ġhush":8539,"Ġtreble":8540,"Ġneedy":8541,"Ġbragg":8542,"Ġbrazen":8543,"Ġhelms":8544,"Ġseemed":8545,"Ġseemeth":8546,"Ġrightly":8547,"Ġcheers":8548,"Ġcharms":8549,"Ġcharters":8550,"Ġcharitable":8551,"Ġconfined":8552,"Ġhandsome":8553,"Ġimpre":8554,"Ġimpose":8555,"Ġimposition":8556,"Ġserving":8557,"Ġmistook":8558,"Ġglister":8559,"Ġfortnight":8560,"Ġfortunate":8561,"Ġbringing":8562,"Ġpasses":8563,"Ġpleaseth":8564,"Ġbeshrew":8565,"Ġbesiege":8566,"Ġthrong":8567,"mbling":8568,"Ġjustly":8569,"Ġjustify":8570,"Ġwrongfully":8571,"Ġhappen":8572,"Ġplaced":8573,"ension":8574,"Ġeyeb":8575,"Ġhelping":8576,"Ġlesson":8577,"Ġbusied":8578,"Ġfooling":8579,"Ġchid":8580,"Ġchides":8581,"Ġchron":8582,"Ġsuns":8583,"Ġobdur":8584,"Ġoblivion":8585,"ĠUnb":8586,"ĠUnc":8587,"ĠUnw":8588,"Ġcourts":8589,"jects":8590,"ĠAlone":8591,"Ġstrip":8592,"Ġstride":8593,"Ġstripes":8594,"Ġwomanish":8595,"ivity":8596,"overed":8597,"Ġturning":8598,"Ġstreak":8599,"Ġtalked":8600,"Ġhumane":8601,"Ġoverheard":8602,"Ġoverthrow":8603,"Ġbelongs":8604,"Ġibat":8605,"Ġbuilt":8606,"Ġburial":8607,"Ġinstance":8608,"Ġinstead":8609,"Ġattach":8610,"Ġplays":8611,"ĠWouldst":8612,"Ġwelkin":8613,"Ġcountryman":8614,"Ġdances":8615,"Ġcurs":8616,"Ġcurbs":8617,"Ġsending":8618,"Ġdoubted":8619,"Ġdoubtless":8620,"Ġwishing":8621,"Ġreasonable":8622,"Ġdiscred":8623,"Ġdiscreet":8624,"Ġdiscovery":8625,"Ġdiscretion":8626,"Ġstrain":8627,"Ġbreaths":8628,"Ġcommandment":8629,"Ġgiant":8630,"Ġstrang":8631,"Ġsecurity":8632,"Ġsenis":8633,"Ġwinding":8634,"Ġremembe":8635,"ĠSub":8636,"ĠSuff":8637,"Ġswearing":8638,"Ġtending":8639,"Ġdepth":8640,"Ġgreed":8641,"Ġgreets":8642,"Ġkissing":8643,"Ġawe":8644,"Ġawful":8645,"Ġtemperate":8646,"Ġsupple":8647,"eyed":8648,"Ġcarrion":8649,"Ġrequite":8650,"Ġrequital":8651,"Ġspoils":8652,"Ġlamp":8653,"Ġmete":8654,"Ġsoonest":8655,"ĠJulius":8656,"ĠSpoke":8657,"Ġfooting":8658,"Ġwarrants":8659,"Ġsaddle":8660,"ĠPlain":8661,"ĠPlace":8662,"ĠPluck":8663,"ĠPlashy":8664,"Ġreturns":8665,"Ġmarrying":8666,"Ġthroughly":8667,"Ġchoke":8668,"Ġcolder":8669,"ĠMontgom":8670,"Ġrecount":8671,"Ġstrangely":8672,"Ġasked":8673,"Ġplucked":8674,"ĠWhite":8675,"Ġbats":8676,"Ġdesired":8677,"Ġentreated":8678,"Ġinstructions":8679,"Ġordain":8680,"Ġordinance":8681,"ĠSenators":8682,"Ġvisor":8683,"ixture":8684,"Ġwearing":8685,"ĠGlad":8686,"Ġquicken":8687,"Ġhardy":8688,"Ġwooers":8689,"Ġfitter":8690,"Ġfitting":8691,"Ġopening":8692,"Ġbecame":8693,"ĠSeeking":8694,"Ġexecut":8695,"Ġincur":8696,"Ġincapable":8697,"Ġinfirm":8698,"Ġinfancy":8699,"Ġinfamy":8700,"Ġinflu":8701,"Ġinfinite":8702,"Ġissues":8703,"Ġdelivery":8704,"Ġquarre":8705,"Ġprofound":8706,"voc":8707,"Ġparle":8708,"Ġparch":8709,"Ġparcel":8710,"Ġparadise":8711,"Ġparlous":8712,"Ġparasite":8713,"ĠBecome":8714,"Ġspeedily":8715,"Ġstrengthen":8716,"cession":8717,"Ġforerun":8718,"Ġforefather":8719,"Ġdivide":8720,"Ġposts":8721,"Ġposterns":8722,"ĠProud":8723,"ĠPrinces":8724,"Ġshorten":8725,"score":8726,"scaped":8727,"Ġvehe":8728,"Ġtitles":8729,"Ġwhipped":8730,"Ġwondering":8731,"Ġbites":8732,"Ġbiting":8733,"Ġseeking":8734,"Ġmurdering":8735,"Ġagony":8736,"Ġagreement":8737,"Ġwatchful":8738,"Ġdistrib":8739,"Ġdistinct":8740,"Ġdistemper":8741,"Ġchangeling":8742,"Ġacting":8743,"Ġwasted":8744,"ĠTrans":8745,"Ġstirru":8746,"Ġclouded":8747,"Ġentering":8748,"Ġenterpr":8749,"Ġsignories":8750,"Ġdrinks":8751,"Ġpraised":8752,"Ġgarlic":8753,"Ġbegging":8754,"Ġbeggary":8755,"Ġdeliverance":8756,"Ġskin":8757,"Ġsickly":8758,"ĠChurch":8759,"Ġordering":8760,"Ġorderly":8761,"Ġwishes":8762,"ĠLORDS":8763,"Ġregion":8764,"Ġregreet":8765,"Ġconsuls":8766,"Ġcheerful":8767,"Ġfourth":8768,"Ġdug":8769,"Ġducats":8770,"Ġcrad":8771,"Ġcrimes":8772,"Ġcrutch":8773,"Ġcrutches":8774,"Ġliberties":8775,"Ġsoften":8776,"Ġsoftly":8777,"ĠRevol":8778,"verns":8779,"Ġencomp":8780,"Ġencourage":8781,"Ġmoveables":8782,"Ġbeginning":8783,"Ġconsented":8784,"Ġfrowning":8785,"Ġfeasting":8786,"Ġgrove":8787,"Ġexpost":8788,"changing":8789,"Ġestab":8790,"hematic":8791,"Ġmalicious":8792,"Ġbarb":8793,"Ġbarr":8794,"Ġbargain":8795,"Ġdropp":8796,"Ġdarkly":8797,"ĠAbbot":8798,"ĠAbhors":8799,"Ġspeechless":8800,"Ġvictorious":8801,"Ġbriefly":8802,"Ġpenury":8803,"Ġgotten":8804,"Ġintercept":8805,"Ġintercession":8806,"Ġevident":8807,"Ġsummon":8808,"Ġrespects":8809,"Ġcomplices":8810,"Ġvisiting":8811,"soe":8812,"Ġbroils":8813,"Ġcapable":8814,"Ġworshipful":8815,"Ġfresher":8816,"Ġfreshest":8817,"Ġcreation":8818,"Ġlimb":8819,"Ġopposed":8820,"Ġviolate":8821,"Ġapproaches":8822,"Ġleader":8823,"ĠStanding":8824,"Ġpatiently":8825,"Ġlamentations":8826,"Ġbawdy":8827,"Ġcleft":8828,"Ġlacks":8829,"Ġlaboured":8830,"ĠBlood":8831,"ĠBlind":8832,"ĠBlack":8833,"ĠBlush":8834,"ĠMercury":8835,"Ġeating":8836,"ĠThinking":8837,"Ġunwill":8838,"ĠChristendom":8839,"ackey":8840,"Ġsurm":8841,"Ġsurly":8842,"Ġsurvey":8843,"ĠConst":8844,"Ġbirths":8845,"Ġcertainly":8846,"Ġpainful":8847,"ĠAdam":8848,"ĠAmazon":8849,"ĠBrought":8850,"ĠExcept":8851,"Ġfavourable":8852,"Ġproceeding":8853,"Ġtorches":8854,"Ġtorments":8855,"Ġshift":8856,"Ġwildly":8857,"Ġcaus":8858,"Ġinjured":8859,"Ġurging":8860,"Ġpleasures":8861,"ggard":8862,"Ġapothecary":8863,"Ġshock":8864,"Ġmeditation":8865,"Ġemulation":8866,"Ġdooms":8867,"Ġuncertain":8868,"Ġcontinued":8869,"ĠEnglishman":8870,"Ġmutinies":8871,"Ġlane":8872,"Ġstealing":8873,"Ġrefuge":8874,"Ġtempor":8875,"bborn":8876,"Ġdrowning":8877,"ĠMeaning":8878,"Ġeffects":8879,"Ġstole":8880,"ĠEnforce":8881,"ĠEnvir":8882,"Ġswiftly":8883,"Ġdesperately":8884,"Ġpursues":8885,"Ġdoublet":8886,"Ġcountermand":8887,"Ġcounterpo":8888,"Ġauthorities":8889,"Ġbastardy":8890,"Ġfruits":8891,"Ġcorners":8892,"Ġelders":8893,"Ġstudies":8894,"Ġstudied":8895,"Ġseverity":8896,"Ġenjoys":8897,"Ġwretchedness":8898,"Ġbeggarly":8899,"Ġgentry":8900,"Ġdegenerate":8901,"ĠHeavens":8902,"Ġbait":8903,"Ġdwelling":8904,"Ġcustomary":8905,"Ġbutchers":8906,"Ġunfit":8907,"Ġadded":8908,"Ġprivately":8909,"Ġverge":8910,"Ġverity":8911,"Ġwagon":8912,"Ġrelation":8913,"Ġrelieve":8914,"Ġdealing":8915,"Ġshores":8916,"Ġarrival":8917,"Ġunpre":8918,"Ġsmoking":8919,"ĠShowing":8920,"Ġprophecies":8921,"attling":8922,"Ġstabbed":8923,"ĠLoved":8924,"Ġspeeches":8925,"Ġnecessities":8926,"Ġproofs":8927,"Ġprevails":8928,"Ġjointure":8929,"Ġembracements":8930,"Ġinnocents":8931,"Ġesc":8932,"Ġespecially":8933,"Ġedict":8934,"Ġdriven":8935,"Ġcreeping":8936,"Ġelection":8937,"Ġelements":8938,"Ġdecree":8939,"Ġdecrees":8940,"Ġsailors":8941,"Ġplotted":8942,"Ġprofession":8943,"rehend":8944,"Ġballads":8945,"Ġdetested":8946,"ĠRescue":8947,"Ġambush":8948,"Ġambassad":8949,"Ġoffenders":8950,"Ġheaviness":8951,"Ġheavily":8952,"Ġpersuaded":8953,"Ġexpressly":8954,"Ġbandy":8955,"Ġbonds":8956,"Ġbondage":8957,"Ġcalf":8958,"Ġcensured":8959,"Ġphysicians":8960,"Ġbewray":8961,"Ġbewitch":8962,"Ġvanqu":8963,"Ġvanish":8964,"Ġdeserts":8965,"Ġaffected":8966,"Ġleanness":8967,"Ġaccusations":8968,"Ġpetitions":8969,"Ġpunishment":8970,"Ġbasil":8971,"Ġfeeble":8972,"Ġfashions":8973,"Ġdivers":8974,"Ġpikes":8975,"ĠBearing":8976,"ĠCobham":8977,"ĠRepair":8978,"Ġseparated":8979,"Ġcomplete":8980,"Ġargument":8981,"Ġarguments":8982,"Ġrosemary":8983,"Ġadvancement":8984,"Ġtemperance":8985,"itae":8986,"Ġhostess":8987,"Ġgrub":8988,"ĠSetting":8989,"Ġshunn":8990,"Ġblocks":8991,"Ġungentle":8992,"Ġquality":8993,"Ġqualities":8994,"Ġqualify":8995,"Ġalteration":8996,"Ġconsidering":8997,"Ġcompanions":8998,"Ġmaidenhead":8999,"Ġvexation":9000,"Ġwaiting":9001,"Ġdirectly":9002,"Ġingrateful":9003,"Ġmorsel":9004,"Ġdigest":9005,"Ġthorny":9006,"Ġglove":9007,"ĠBrave":9008,"Ġmelted":9009,"ĠSebast":9010,"Ġwealthy":9011,"Ġsprites":9012,"Ġworthier":9013,"Ġworthiest":9014,"Ġjewels":9015,"Ġdisperse":9016,"Ġensue":9017,"Ġenforcement":9018,"Ġclamorous":9019,"ĠPlayer":9020,"Ġaffliction":9021,"Ġsymp":9022,"Ġsalute":9023,"Ġmirror":9024,"Ġfiends":9025,"Ġdimm":9026,"Ġdifferen":9027,"Ġceremony":9028,"Ġlinen":9029,"Ġhorrible":9030,"Ġports":9031,"ĠAccursed":9032,"ĠSmall":9033,"Ġforsook":9034,"ĠCondition":9035,"Ġreceipt":9036,"Ġreckless":9037,"Ġvillanous":9038,"Ġmanifested":9039,"Ġuneven":9040,"Ġunjustly":9041,"Ġdispleased":9042,"Ġfloods":9043,"Ġbeguiled":9044,"Ġresisted":9045,"Ġhelmets":9046,"Ġreconciled":9047,"Ġcomplaints":9048,"Ġcomplexions":9049,"boding":9050,"ratitude":9051,"Ġtimorous":9052,"Ġmessage":9053,"Ġbonny":9054,"Ġbonnet":9055,"Ġbuckle":9056,"Ġlineal":9057,"ĠAfric":9058,"ĠAwake":9059,"ĠAwaked":9060,"Ġstumbled":9061,"Ġshameless":9062,"ĠKnows":9063,"Ġspectacle":9064,"Ġspectators":9065,"Ġfactious":9066,"ĠValent":9067,"ĠValeria":9068,"Ġdisguise":9069,"Ġengross":9070,"Ġcoffin":9071,"Ġcoffers":9072,"Ġgratis":9073,"Ġincense":9074,"Ġinnocency":9075,"Ġacquaintance":9076,"shapen":9077,"weigh":9078,"Ġtoucheth":9079,"Ġtrod":9080,"oubted":9081,"Ġmathematic":9082,"Ġfretting":9083,"ĠImagine":9084,"Ġnettle":9085,"Ġlurk":9086,"Ġlurking":9087,"Ġthirsty":9088,"Ġhomicide":9089,"Ġhighest":9090,"ĠApril":9091,"ĠWitness":9092,"ĠWithal":9093,"ĠCastle":9094,"ĠGuild":9095,"ĠPerchance":9096,"Ġdeceased":9097,"ĠDelpho":9098,"Ġblasts":9099,"Ġhopeless":9100,"Ġflinty":9101,"Ġpreparation":9102,"Ġpreposterous":9103,"Ġcontrol":9104,"Ġsubdue":9105,"Ġsubdued":9106,"Ġtrenches":9107,"Ġtrencher":9108,"Ġbeauties":9109,"Ġbeautiful":9110,"Ġsacrifice":9111,"Ġlengthens":9112,"Ġtransport":9113,"Ġsession":9114,"Ġporter":9115,"Ġpainting":9116,"Ġgnaw":9117,"Ġgamut":9118,"Ġgainsay":9119,"ĠSusan":9120,"ĠHonest":9121,"ĠFitzwater":9122,"Ġspotted":9123,"Ġgossips":9124,"Ġunavoided":9125,"Ġunaccustom":9126,"Ġunrevere":9127,"Ġprodigy":9128,"Ġprodigal":9129,"Ġdisinherit":9130,"Ġdisinherited":9131,"Ġabundant":9132,"Ġabundance":9133,"Ġrobbers":9134,"ĠQuick":9135,"Ġaccomplish":9136,"Ġobsequies":9137,"Ġbuzzard":9138,"Ġattorneys":9139,"Ġdrooping":9140,"Ġdetestable":9141,"Ġfantastic":9142,"Ġfantastical":9143,"ĠPersuade":9144,"ĠPersuades":9145,"doing":9146,"tinent":9147,"weary":9148,"Ġmasqu":9149,"Ġbulk":9150,"Ġfifty":9151,"Ġcropp":9152,"Ġcushion":9153,"Ġyesternight":9154,"Ġpowder":9155,"ĠAcquaint":9156,"ĠWestmin":9157,"Ġinvention":9158,"ĠCheer":9159,"Ġeffeminate":9160,"Ġstinking":9161,"Ġresemblance":9162,"ĠPursuivant":9163,"Ġdeformity":9164,"Ġdoleful":9165,"ĠErr":9166,"Ġbutterfly":9167,"ĠDestroy":9168,"Ġannoy":9169,"Ġancestors":9170,"Ġsparkling":9171,"Ġplanet":9172,"Ġdissembling":9173,"Ġrheum":9174,"Ġrigour":9175,"Ġclergy":9176,"Ġeverlasting":9177,"Ġrumour":9178,"Ġaccompany":9179,"Ġchampion":9180,"Ġconfederate":9181,"Ġafterwards":9182,"Ġobscured":9183,"ĠHappily":9184,"Ġcriminal":9185,"Ġsummers":9186,"Ġinsinuate":9187,"Ġunluckily":9188,"Ġunprovided":9189,"Ġmagistrate":9190,"Ġlineaments":9191,"Ġsurprised":9192,"Ġmomentary":9193,"pretation":9194,"withal":9195,"Ġturtle":9196,"Ġtinker":9197,"Ġtreaty":9198,"Ġavouch":9199,"Ġmantle":9200,"Ġfilthy":9201,"Ġderived":9202,"Ġdiligence":9203,"Ġdrowsy":9204,"Ġcandle":9205,"Ġthreshold":9206,"ĠTurks":9207,"Ġbeetle":9208,"seeming":9209,"Ġinveterate":9210,"Ġinheritance":9211,"imois":9212,"ĠHostess":9213,"Ġfornication":9214,"ĠChertsey":9215,"Ġstubborn":9216,"ĠLammas":9217,"Ġassembly":9218,"ĠRedeem":9219,"ĠRenowned":9220,"Ġvigour":9221,"ĠForthwith":9222,"Ġcannib":9223,"Ġorphans":9224,"Ġusurer":9225,"Ġunpleasing":9226,"Ġworships":9227,"ĠAssist":9228,"ĠJerusale":9229,"ĠJuno":9230,"Ġdistinguish":9231,"Ġexclaims":9232,"Ġprecise":9233,"Ġscourge":9234,"Ġchivalry":9235,"Ġappellant":9236,"Ġimmediately":9237,"Ġconspiracy":9238,"Ġchafed":9239,"Ġsuppliant":9240,"Ġinfringe":9241,"Ġforetell":9242,"Ġminstrels":9243,"Ġembraces":9244,"Ġmalignant":9245,"Ġargosy":9246,"ĠTarquin":9247,"Ġeloquence":9248,"CISC":9249,"Heart":9250,"Souls":9251,"Tybalt":9252,"beseeming":9253,"igeia":9254,"minded":9255,"makers":9256,"ozine":9257,"Ġtumult":9258,"Ġaqua":9259,"Ġsurname":9260,"Ġbauble":9261,"Ġbustle":9262,"Ġbattery":9263,"Ġbashful":9264,"Ġfuture":9265,"Ġnearest":9266,"Ġnineteen":9267,"Ġlazy":9268,"Ġthreefold":9269,"Ġpoorest":9270,"ĠTongue":9271,"Ġgirls":9272,"ĠBreathe":9273,"ĠBristol":9274,"ĠBrandon":9275,"ĠBLUNT":9276,"ĠSALISBURY":9277,"ĠHalf":9278,"ĠHallowmas":9279,"ĠMerely":9280,"ĠCrosby":9281,"ĠChildren":9282,"ĠCarlisle":9283,"Ġsteterat":9284,"Ġstratagems":9285,"Ġkennel":9286,"ĠLudlow":9287,"ĠFRANCISC":9288,"ascivious":9289,"ĠPhilip":9290,"ĠRussia":9291,"ĠRagozine":9292,"ĠNathaniel":9293,"ĠDighton":9294,"Ġsulphur":9295,"Ġanguish":9296,"Ġviolet":9297,"Ġshepherds":9298,"Ġunawares":9299,"Ġdisloyal":9300,"Ġsomebody":9301,"Ġadulteress":9302,"ĠStafford":9303,"Ġsubscribe":9304,"Ġobdurate":9305,"Ġremembered":9306,"ĠMontgomery":9307,"Ġinfirmity":9308,"Ġdistinctly":9309,"Ġenterprise":9310,"ĠAbhorson":9311,"ĠSebastian":9312,"Ġmathematics":9313,"ĠDelphos":9314,"ĠWestminster":9315,"ĠJerusalem":9316,"'m":9317,"'ve":9318,"An":9319,"Alas":9320,"Bless":9321,"Come":9322,"Citizen":9323,"Coriol":9324,"Courage":9325,"Charge":9326,"EAS":9327,"Faith":9328,"How":9329,"HER":9330,"Have":9331,"Hold":9332,"HEY":9333,"HRI":9334,"LL":9335,"Lo":9336,"MEN":9337,"No":9338,"OV":9339,"Rome":9340,"Rem":9341,"Sir":9342,"Sic":9343,"Than":9344,"True":9345,"Ver":9346,"When":9347,"Whoop":9348,"Yea":9349,"ait":9350,"aled":9351,"acheth":9352,"bion":9353,"bout":9354,"bol":9355,"bary":9356,"bishop":9357,"cre":9358,"cer":9359,"cke":9360,"crow":9361,"creat":9362,"cence":9363,"corn":9364,"cold":9365,"cass":9366,"cont":9367,"cup":9368,"cures":9369,"content":9370,"cote":9371,"cerity":9372,"dish":9373,"dges":9374,"doubt":9375,"deliver":9376,"ev":9377,"eing":9378,"ece":9379,"eath":9380,"ection":9381,"ext":9382,"fes":9383,"fast":9384,"fond":9385,"fig":9386,"fied":9387,"fellows":9388,"gent":9389,"gess":9390,"gentle":9391,"gger":9392,"gier":9393,"gars":9394,"gments":9395,"goose":9396,"gression":9397,"how":9398,"hum":9399,"hings":9400,"honour":9401,"ii":9402,"ipher":9403,"iency":9404,"jurious":9405,"ky":9406,"kfulness":9407,"lay":9408,"lant":9409,"live":9410,"late":9411,"lies":9412,"lave":9413,"lars":9414,"mo":9415,"mor":9416,"mod":9417,"mple":9418,"match":9419,"merc":9420,"mark":9421,"mock":9422,"music":9423,"mmer":9424,"mouth":9425,"masters":9426,"much":9427,"maker":9428,"nz":9429,"nard":9430,"nant":9431,"nity":9432,"nock":9433,"ney":9434,"ob":9435,"oat":9436,"oil":9437,"oise":9438,"oever":9439,"ogy":9440,"phe":9441,"pit":9442,"par":9443,"pan":9444,"pur":9445,"pore":9446,"pate":9447,"pile":9448,"pray":9449,"point":9450,"pired":9451,"pointed":9452,"portion":9453,"rine":9454,"round":9455,"rates":9456,"rons":9457,"su":9458,"serv":9459,"sorrow":9460,"suck":9461,"simple":9462,"silver":9463,"tri":9464,"tong":9465,"tage":9466,"tide":9467,"terest":9468,"ux":9469,"ugh":9470,"uct":9471,"uel":9472,"uance":9473,"uft":9474,"uities":9475,"ucing":9476,"uiced":9477,"vors":9478,"viol":9479,"vial":9480,"vals":9481,"ville":9482,"would":9483,"wood":9484,"west":9485,"wind":9486,"wall":9487,"why":9488,"worn":9489,"xy":9490,"xcom":9491,"yr":9492,"you":9493,"yers":9494,"yves":9495,"zes":9496,"zalo":9497,"Ġ:":9498,"Ġess":9499,"Ġ--":9500,"Ġounce":9501,"Ġtha":9502,"Ġtar":9503,"Ġtesty":9504,"Ġtush":9505,"Ġtithe":9506,"Ġtires":9507,"Ġtaming":9508,"Ġtilth":9509,"Ġtables":9510,"Ġtalks":9511,"Ġtabour":9512,"Ġtuft":9513,"heir":9514,"heth":9515,"heart":9516,"heres":9517,"heads":9518,"hearts":9519,"Ġaed":9520,"Ġaut":9521,"Ġaus":9522,"Ġache":9523,"Ġapes":9524,"Ġavail":9525,"ouched":9526,"ourest":9527,"Ġsce":9528,"Ġsout":9529,"Ġsci":9530,"Ġsip":9531,"Ġsainted":9532,"Ġsize":9533,"Ġmam":9534,"Ġmoth":9535,"Ġmol":9536,"Ġmaw":9537,"Ġmalm":9538,"Ġmatt":9539,"Ġmakest":9540,"Ġmature":9541,"Ġmusc":9542,"Ġwive":9543,"Ġwool":9544,"Ġwield":9545,"Ġwip":9546,"Ġwaded":9547,"inc":9548,"init":9549,"inent":9550,"inest":9551,"inter":9552,"inant":9553,"inish":9554,"inence":9555,"inary":9556,"inions":9557,"rection":9558,"recy":9559,"regia":9560,"hapen":9561,"Ġbal":9562,"Ġbout":9563,"Ġbower":9564,"Ġbough":9565,"Ġbull":9566,"Ġbled":9567,"Ġbiss":9568,"Ġbits":9569,"Ġbars":9570,"Ġbaked":9571,"Ġborough":9572,"Ġbias":9573,"Ġbunch":9574,"isit":9575,"isans":9576,"isheth":9577,"ora":9578,"oro":9579,"orable":9580,"orks":9581,"orged":9582,"orpor":9583,"Ġfay":9584,"Ġfel":9585,"Ġfust":9586,"Ġfert":9587,"Ġfade":9588,"Ġfours":9589,"Ġfined":9590,"Ġfume":9591,"Ġfurious":9592,"Ġfaded":9593,"Ġfishes":9594,"Ġfidd":9595,"Ġfuel":9596,"ĠIng":9597,"ĠIron":9598,"eral":9599,"erth":9600,"erry":9601,"erick":9602,"erness":9603,"erbear":9604,"ersey":9605,"erween":9606,"itle":9607,"itter":9608,"itic":9609,"itied":9610,"itud":9611,"itary":9612,"itution":9613,"ittering":9614,"onzalo":9615,"Ġdul":9616,"Ġdart":9617,"Ġdive":9618,"Ġdau":9619,"Ġdall":9620,"Ġdough":9621,"Ġdates":9622,"Ġdirt":9623,"Ġdaunt":9624,"Ġdump":9625,"Ġdally":9626,"Ġdiff":9627,"Ġdawn":9628,"Ġdaff":9629,"Ġdarts":9630,"Ġdumps":9631,"Ġcu":9632,"Ġcod":9633,"Ġcel":9634,"Ġcoy":9635,"Ġcull":9636,"Ġcable":9637,"Ġcakes":9638,"Ġcured":9639,"Ġcats":9640,"Ġcures":9641,"Ġcities":9642,"Ġcamp":9643,"Ġcipher":9644,"Ġnut":9645,"Ġnim":9646,"Ġnation":9647,"Ġnurs":9648,"Ġnuts":9649,"Ġla":9650,"Ġlure":9651,"Ġlime":9652,"Ġlag":9653,"Ġlave":9654,"Ġlatter":9655,"Ġlump":9656,"Ġlackey":9657,"Ġlitter":9658,"esnes":9659,"enious":9660,"Ġthigh":9661,"Ġthrows":9662,"Ġthimble":9663,"arallel":9664,"arbary":9665,"Ġhound":9666,"Ġhild":9667,"Ġhides":9668,"Ġhoop":9669,"Ġhunts":9670,"Ġoil":9671,"Ġtot":9672,"Ġtore":9673,"Ġtoes":9674,"Ġtokens":9675,"Ġps":9676,"Ġply":9677,"Ġpea":9678,"Ġpru":9679,"Ġpout":9680,"Ġpond":9681,"Ġpence":9682,"Ġpies":9683,"Ġpins":9684,"Ġpile":9685,"Ġpars":9686,"Ġponder":9687,"Ġpump":9688,"Ġpip":9689,"Ġpelting":9690,"Ġphra":9691,"ĠTor":9692,"ĠThi":9693,"ĠTast":9694,"ĠTick":9695,"ĠTears":9696,"ĠTaking":9697,"ĠTread":9698,"ĠTroth":9699,"ĠTIT":9700,"ĠTemper":9701,"hating":9702,"ĠAut":9703,"ĠAim":9704,"ĠAllow":9705,"ĠAlex":9706,"ĠALL":9707,"Ġhent":9708,"Ġhewn":9709,"Ġheated":9710,"Ġhearers":9711,"vex":9712,"vels":9713,"otent":9714,"otless":9715,"otche":9716,"othed":9717,"otions":9718,"otpan":9719,"stit":9720,"stal":9721,"stain":9722,"stones":9723,"staring":9724,"owing":9725,"aned":9726,"anied":9727,"anched":9728,"omy":9729,"omed":9730,"omest":9731,"ominable":9732,"Ġgas":9733,"Ġgore":9734,"Ġgest":9735,"Ġgun":9736,"Ġgale":9737,"Ġgird":9738,"Ġgiv":9739,"Ġgees":9740,"Ġgames":9741,"Ġgazed":9742,"Ġgilly":9743,"Ġgasp":9744,"Ġghast":9745,"Ġgyves":9746,"atal":9747,"attle":9748,"atisf":9749,"Ġbeck":9750,"Ġbeam":9751,"Ġbede":9752,"Ġbeards":9753,"Ġbeheaded":9754,"Ġbemo":9755,"ĠWot":9756,"ĠWood":9757,"ĠWear":9758,"ĠWond":9759,"ĠWish":9760,"ĠWise":9761,"ĠWrong":9762,"ĠWorth":9763,"ĠWrench":9764,"ĠWords":9765,"ĠWipe":9766,"sec":9767,"seed":9768,"Ġinher":9769,"Ġinde":9770,"Ġinches":9771,"Ġinvest":9772,"Ġinforced":9773,"Ġinex":9774,"Ġinhum":9775,"Ġhal":9776,"Ġhay":9777,"Ġhack":9778,"Ġhaunts":9779,"Ġhaggard":9780,"Ġhammer":9781,"cease":9782,"cember":9783,"ceiving":9784,"lead":9785,"lected":9786,"aynard":9787,"ldst":9788,"iry":9789,"irand":9790,"etry":9791,"edic":9792,"utor":9793,"utish":9794,"utiful":9795,"ĠBu":9796,"ĠBro":9797,"ĠBER":9798,"ĠBare":9799,"ĠBeen":9800,"ĠBless":9801,"ĠBrief":9802,"ĠBarbary":9803,"ĠBaynard":9804,"Ġmeas":9805,"Ġmeek":9806,"imy":9807,"imer":9808,"imon":9809,"ĠSk":9810,"ĠSn":9811,"ĠSed":9812,"ĠSith":9813,"ĠSher":9814,"ĠSea":9815,"ĠSout":9816,"ĠSure":9817,"ĠSum":9818,"ĠSister":9819,"ĠSham":9820,"ĠSorry":9821,"ĠSafe":9822,"ĠSimois":9823,"ĠSigeia":9824,"ithmet":9825,"Ġnotable":9826,"Ġnothings":9827,"ĠHour":9828,"ĠHoo":9829,"ĠHouse":9830,"ĠHover":9831,"ĠHann":9832,"ĠHacket":9833,"ĠHugh":9834,"chion":9835,"chbishop":9836,"ĠMan":9837,"ĠMam":9838,"ĠMond":9839,"ĠMort":9840,"ĠMatter":9841,"ĠMaid":9842,"ĠMortal":9843,"ĠMops":9844,"ĠMEAS":9845,"ĠMirand":9846,"Ġfork":9847,"Ġforged":9848,"Ġforges":9849,"Ġforfeits":9850,"Ġforfend":9851,"keeping":9852,"ĠCor":9853,"ĠCour":9854,"ĠCra":9855,"ĠChan":9856,"ĠCARD":9857,"ĠCrown":9858,"ĠCull":9859,"ĠCret":9860,"ĠCount":9861,"ĠCertain":9862,"ĠCoun":9863,"ĠCuts":9864,"ĠCHRI":9865,"Ġwean":9866,"Ġwealt":9867,"Ġweeks":9868,"ooing":9869,"ooch":9870,"oosing":9871,"illius":9872,"illars":9873,"Ġeaster":9874,"Ġeats":9875,"Ġepit":9876,"Ġwithholds":9877,"hers":9878,"herds":9879,"Ġitch":9880,"entation":9881,"add":9882,"adition":9883,"rid":9884,"rip":9885,"rius":9886,"ride":9887,"rivener":9888,"ĠOly":9889,"Ġstam":9890,"Ġstif":9891,"Ġstake":9892,"Ġstings":9893,"Ġstee":9894,"Ġstation":9895,"Ġstates":9896,"Ġstair":9897,"Ġstains":9898,"Ġstony":9899,"Ġstaves":9900,"Ġstumbling":9901,"Ġkersey":9902,"ĠLed":9903,"ĠLim":9904,"ĠLand":9905,"ĠLight":9906,"ĠList":9907,"ĠLearn":9908,"ĠLaid":9909,"ĠLament":9910,"ĠLiby":9911,"ĠLascivious":9912,"ĠLOV":9913,"Ġhiss":9914,"ĠFa":9915,"ĠFe":9916,"ĠFan":9917,"ĠFur":9918,"ĠFore":9919,"ĠFam":9920,"ĠFast":9921,"ĠFine":9922,"ĠFree":9923,"ĠFred":9924,"ĠGro":9925,"ĠGave":9926,"ĠGrim":9927,"ĠGrief":9928,"ĠGonzalo":9929,"Ġreel":9930,"Ġreins":9931,"Ġreek":9932,"Ġrevoke":9933,"ids":9934,"idity":9935,"ideth":9936,"idels":9937,"rav":9938,"rave":9939,"rawn":9940,"raise":9941,"rains":9942,"raham":9943,"raught":9944,"ramed":9945,"racted":9946,"ĠThee":9947,"Ġliver":9948,"Ġlibr":9949,"Ġlicence":9950,"ashing":9951,"assed":9952,"asury":9953,"ĠPen":9954,"ĠPed":9955,"ĠPur":9956,"ĠPast":9957,"ĠPity":9958,"ĠPass":9959,"ĠPier":9960,"ĠPret":9961,"ĠPoison":9962,"ĠPotpan":9963,"url":9964,"alus":9965,"alian":9966,"Ġsol":9967,"Ġsops":9968,"Ġsoever":9969,"Ġsoothing":9970,"Ġsoothe":9971,"Ġasks":9972,"Ġasunder":9973,"Ġassemble":9974,"Ġdeem":9975,"Ġdeity":9976,"Ġdeign":9977,"ĠRain":9978,"ĠRoy":9979,"ĠRec":9980,"ĠRise":9981,"ĠRage":9982,"rob":9983,"rove":9984,"roses":9985,"roying":9986,"ĠNea":9987,"ĠNort":9988,"ĠNew":9989,"ĠNeed":9990,"ĠNican":9991,"hic":9992,"hily":9993,"hips":9994,"cked":9995,"ckets":9996,"ĠYorks":9997,"Ġshaped":9998,"Ġwillow":9999,"Ġdoers":10000,"Ġdoff":10001,"eaf":10002,"Ġnost":10003,"Ġnodd":10004,"Ġnoisome":10005,"amour":10006,"amine":10007,"ĠEs":10008,"ĠEmb":10009,"ĠEthi":10010,"ĠEarth":10011,"ĠEleven":10012,"ĠEcho":10013,"ĠDi":10014,"ĠDay":10015,"ĠDone":10016,"ĠDry":10017,"ĠDig":10018,"ĠDull":10019,"ĠDaughter":10020,"ĠDuring":10021,"ĠDeny":10022,"ĠDrop":10023,"ĠDrawn":10024,"uspect":10025,"ushed":10026,"Ġsew":10027,"Ġseed":10028,"Ġsemb":10029,"Ġseats":10030,"Ġseals":10031,"Ġseeds":10032,"Ġselves":10033,"ifs":10034,"ifies":10035,"ificial":10036,"genders":10037,"Ġally":10038,"Ġallied":10039,"andon":10040,"ĠThrew":10041,"Ġsums":10042,"ĠKill":10043,"ĠKings":10044,"ĠKiss":10045,"ĠKates":10046,"ĠKilling":10047,"Ġlogs":10048,"Ġlosing":10049,"Ġlolling":10050,"Ġlogger":10051,"tern":10052,"hankfulness":10053,"Ġspies":10054,"Ġspran":10055,"Ġspray":10056,"Ġspright":10057,"Ġspawn":10058,"Ġspacious":10059,"Ġsparks":10060,"Ġsprung":10061,"ellist":10062,"thou":10063,"three":10064,"thread":10065,"iless":10066,"ilities":10067,"iliments":10068,"Ġnecks":10069,"Ġnephe":10070,"Ġknots":10071,"hod":10072,"holesome":10073,"Ġvall":10074,"Ġvail":10075,"Ġvaunt":10076,"Ġvouchsafe":10077,"Ġvouches":10078,"Ġvizard":10079,"Ġvitae":10080,"asted":10081,"Ġshy":10082,"Ġshin":10083,"Ġshining":10084,"anting":10085,"Ġupholds":10086,"quer":10087,"ques":10088,"quent":10089,"quire":10090,"arting":10091,"Ġcomfor":10092,"aths":10093,"athy":10094,"Ġmudd":10095,"Ġprone":10096,"Ġpratest":10097,"Ġprank":10098,"Ġproro":10099,"Ġprattle":10100,"Ġmanors":10101,"Ġmansion":10102,"ĠVince":10103,"ĠVAU":10104,"ĠVile":10105,"ĠVisit":10106,"onely":10107,"oneous":10108,"Ġconn":10109,"Ġconv":10110,"Ġcongea":10111,"Ġconvenient":10112,"Ġcongeal":10113,"ĠWhatever":10114,"Ġample":10115,"Ġamount":10116,"Ġampl":10117,"ics":10118,"ieving":10119,"Ġsheer":10120,"Ġsheet":10121,"Ġsheath":10122,"Ġshearers":10123,"Ġblench":10124,"Ġbloss":10125,"Ġblushes":10126,"Ġblank":10127,"Ġblanks":10128,"venged":10129,"ĠFors":10130,"ĠForce":10131,"ĠForward":10132,"ĠForsw":10133,"ĠForced":10134,"emning":10135,"ements":10136,"emaker":10137,"empore":10138,"aucas":10139,"arell":10140,"arewell":10141,"olate":10142,"olation":10143,"olution":10144,"ology":10145,"ĠHeld":10146,"ĠHeir":10147,"Ġhates":10148,"Ġthereon":10149,"Ġtherewithal":10150,"Ġcanon":10151,"Ġcancell":10152,"ondam":10153,"ateful":10154,"few":10155,"fered":10156,"Ġswan":10157,"Ġswept":10158,"Ġswarm":10159,"Ġhereof":10160,"Ġheretic":10161,"Ġloveth":10162,"Ġlovelier":10163,"Ġorb":10164,"Ġorison":10165,"Ġorators":10166,"Ġorange":10167,"Ġoratory":10168,"Ġbrood":10169,"Ġbrats":10170,"Ġbrutish":10171,"Ġbrooch":10172,"ppers":10173,"Ġusest":10174,"Ġusual":10175,"Ġusurps":10176,"allible":10177,"Ġarrog":10178,"Ġarraign":10179,"Ġarithmet":10180,"ody":10181,"odes":10182,"odils":10183,"Ġlethar":10184,"Ġletting":10185,"Ġunres":10186,"Ġunable":10187,"Ġunsw":10188,"Ġunhall":10189,"Ġunfort":10190,"Ġunking":10191,"Ġunpo":10192,"Ġunset":10193,"Ġunadvised":10194,"Ġungovern":10195,"Ġunhapp":10196,"Ġunquiet":10197,"Ġunpeople":10198,"igm":10199,"igs":10200,"igen":10201,"igate":10202,"igree":10203,"inkle":10204,"orts":10205,"ortive":10206,"ĠAsk":10207,"ĠAscend":10208,"Ġquaff":10209,"Ġquondam":10210,"elier":10211,"Ġjay":10212,"Ġjars":10213,"Ġjaunt":10214,"Ġjades":10215,"KELEY":10216,"Ġgraver":10217,"Ġgrains":10218,"Ġgravity":10219,"reation":10220,"aketh":10221,"ounding":10222,"Ġhoard":10223,"Ġhoping":10224,"Ġproves":10225,"Ġproli":10226,"Ġpropose":10227,"Ġprobation":10228,"Ġprolong":10229,"Ġprogress":10230,"Ġsaves":10231,"Ġsaving":10232,"Ġsavour":10233,"Ġsavours":10234,"Ġmadmen":10235,"Ġplight":10236,"Ġplough":10237,"Ġplots":10238,"Ġplume":10239,"Ġplagues":10240,"uming":10241,"umbly":10242,"peer":10243,"ĠJoy":10244,"ĠJew":10245,"Ġdisb":10246,"Ġdisli":10247,"Ġdispose":10248,"Ġdisfig":10249,"Ġencl":10250,"Ġenvir":10251,"Ġengenders":10252,"Ġpoets":10253,"Ġpoetry":10254,"Ġoutside":10255,"Ġfrivol":10256,"Ġhowling":10257,"pton":10258,"unction":10259,"death":10260,"decess":10261,"Ġhandled":10262,"Ġhandker":10263,"Ġwhoever":10264,"ĠWeigh":10265,"ĠWeeping":10266,"ignation":10267,"Ġmarches":10268,"Ġrar":10269,"Ġrat":10270,"Ġrite":10271,"Ġrounds":10272,"Ġrayed":10273,"Ġrhyme":10274,"ĠInc":10275,"ĠInst":10276,"ĠInter":10277,"ĠIncl":10278,"ĠIniquity":10279,"ĠInjurious":10280,"ĠInquire":10281,"Ġofficious":10282,"ists":10283,"isted":10284,"harm":10285,"wness":10286,"ĠOft":10287,"Ġheaved":10288,"Ġheaps":10289,"Ġhearken":10290,"Ġhearkens":10291,"Ġbloods":10292,"Ġabound":10293,"Ġabides":10294,"Ġabominable":10295,"Ġabandon":10296,"Ġabortive":10297,"Ġexiled":10298,"Ġexamp":10299,"Ġexcels":10300,"Ġfoem":10301,"Ġfoison":10302,"Ġearls":10303,"Ġroe":10304,"Ġrobe":10305,"Ġroots":10306,"Ġroared":10307,"ĠHowe":10308,"Ġeyed":10309,"ĠQuit":10310,"agon":10311,"agion":10312,"agab":10313,"agued":10314,"Ġdesiring":10315,"Ġdeserving":10316,"Ġdesperation":10317,"Ġgentlewomen":10318,"ĠUs":10319,"Ġriot":10320,"Ġrice":10321,"Ġrift":10322,"Ġrider":10323,"Ġricher":10324,"Ġribs":10325,"Ġrival":10326,"Ġrivals":10327,"avel":10328,"Ġarts":10329,"Ġartificial":10330,"Ġwarp":10331,"Ġhonourably":10332,"Ġfling":10333,"Ġflout":10334,"Ġflap":10335,"Ġflung":10336,"ĠMarquis":10337,"Ġslower":10338,"Ġslumber":10339,"Ġslug":10340,"Ġslavish":10341,"ĠWhereby":10342,"urned":10343,"urnish":10344,"Ġtwin":10345,"Ġtwos":10346,"Ġtwigs":10347,"Ġhastily":10348,"ĠWhoever":10349,"Ġbetake":10350,"Ġcouch":10351,"Ġcouched":10352,"ĠBehind":10353,"ĠBegg":10354,"berate":10355,"berries":10356,"Ġbreeder":10357,"Ġbreech":10358,"Ġafire":10359,"Ġafresh":10360,"apert":10361,"ighing":10362,"Ġmenace":10363,"astery":10364,"ĠItalian":10365,"Ġpartisans":10366,"Ġanything":10367,"Ġram":10368,"Ġrav":10369,"Ġrapt":10370,"Ġraged":10371,"Ġrags":10372,"Ġraising":10373,"Ġrazed":10374,"STOP":10375,"Ġadds":10376,"Ġadmon":10377,"reech":10378,"Ġcommune":10379,"Ġpredom":10380,"Ġprecept":10381,"Ġprecip":10382,"Ġprenz":10383,"Ġpredecess":10384,"Ġstanders":10385,"Ġstandards":10386,"Ġpraying":10387,"Ġprayed":10388,"Ġclout":10389,"Ġcloth":10390,"Ġclime":10391,"Ġcloy":10392,"Ġclos":10393,"Ġclient":10394,"Ġclip":10395,"Ġclang":10396,"Ġclutch":10397,"Ġclubs":10398,"Ġclusters":10399,"Ġsweeting":10400,"Ġperch":10401,"Ġperfid":10402,"Ġperceives":10403,"Ġpertinent":10404,"oused":10405,"ĠTherein":10406,"ĠThereon":10407,"ĠThereof":10408,"Ġheadlong":10409,"awd":10410,"Ġmeanest":10411,"Ġpresag":10412,"Ġpreservation":10413,"Ġscale":10414,"Ġscared":10415,"Ġscathe":10416,"Ġscurvy":10417,"ĠAnointed":10418,"ainties":10419,"gery":10420,"liest":10421,"ĠLetters":10422,"Ġmoons":10423,"Ġcontain":10424,"Ġcontend":10425,"Ġcontains":10426,"Ġcontempl":10427,"Ġcontracted":10428,"Ġcontagion":10429,"Ġapple":10430,"Ġappeach":10431,"Ġremnant":10432,"perly":10433,"abs":10434,"aby":10435,"abouts":10436,"Ġbegn":10437,"Ġbegs":10438,"Ġgraceful":10439,"Ġgraceless":10440,"Ġuntr":10441,"Ġuntaught":10442,"Ġuntainted":10443,"Ġunthankfulness":10444,"ressing":10445,"Ġeyesight":10446,"Ġmaim":10447,"landers":10448,"range":10449,"Ġreplen":10450,"Ġreproach":10451,"Ġreprehend":10452,"INAL":10453,"locks":10454,"sweet":10455,"swoln":10456,"ĠShed":10457,"Ġchildhood":10458,"Ġwombs":10459,"Ġconsents":10460,"Ġconspire":10461,"ledged":10462,"Ġrung":10463,"Ġruff":10464,"Ġrubs":10465,"Ġrubb":10466,"Ġresting":10467,"Ġrestless":10468,"Ġpeep":10469,"Ġleather":10470,"Ġleash":10471,"Ġentail":10472,"Ġharp":10473,"uckle":10474,"ercharged":10475,"Ġsetter":10476,"Ġsetting":10477,"chest":10478,"chess":10479,"orship":10480,"Ġbetters":10481,"ĠStabb":10482,"rants":10483,"Ġwitless":10484,"Ġwitty":10485,"Ġtrident":10486,"Ġtrivial":10487,"meant":10488,"ĠProv":10489,"ĠProvo":10490,"ĠProcure":10491,"ĠProvided":10492,"ĠProportion":10493,"ossed":10494,"Ġsleeve":10495,"Ġsleeves":10496,"Ġbestir":10497,"Ġbestrew":10498,"Ġrescued":10499,"Ġaccent":10500,"Ġaccents":10501,"Ġaccustom":10502,"Ġgripe":10503,"Ġcompet":10504,"ĠNote":10505,"ĠNotice":10506,"Ġendless":10507,"Ġkindle":10508,"Ġkindest":10509,"Ġtwofold":10510,"onted":10511,"Ġprig":10512,"uding":10513,"Ġpurg":10514,"Ġpurity":10515,"Ġpurbl":10516,"Ġchaos":10517,"Ġsubs":10518,"Ġsubmit":10519,"Ġcounts":10520,"cloth":10521,"Ġguide":10522,"Ġguile":10523,"Ġguides":10524,"Ġsmear":10525,"Ġsmock":10526,"Ġtrack":10527,"Ġtrained":10528,"Ġtravel":10529,"Ġtrample":10530,"Ġcog":10531,"Ġcoin":10532,"Ġcoil":10533,"Ġcoven":10534,"Ġcovet":10535,"Ġcocke":10536,"Ġcoxcom":10537,"Ġtreads":10538,"Ġtreasures":10539,"Ġtreasury":10540,"Ġfinding":10541,"Ġdregs":10542,"Ġbrake":10543,"Ġbraving":10544,"raybe":10545,"Ġhighly":10546,"Ġhusbandry":10547,"Ġrighteous":10548,"Ġchants":10549,"Ġchannel":10550,"twenty":10551,"Ġbanns":10552,"aching":10553,"Ġcheat":10554,"Ġcheques":10555,"Ġcharter":10556,"ĠDoing":10557,"ĠDogs":10558,"Ġshowing":10559,"Ġconfine":10560,"Ġconfli":10561,"Ġconfessed":10562,"Ġconfounds":10563,"Ġconfident":10564,"Ġbrick":10565,"Ġbriers":10566,"Ġbridle":10567,"fortable":10568,"Ġimpute":10569,"Ġimpiety":10570,"Ġimplore":10571,"Ġservitor":10572,"Ġmista":10573,"Ġlawless":10574,"Ġlawyers":10575,"Ġglance":10576,"Ġglittering":10577,"Ġeverything":10578,"Ġdoubly":10579,"Ġpassages":10580,"Ġpassado":10581,"Ġlighted":10582,"Ġlightens":10583,"Ġbeseeming":10584,"Ġnativity":10585,"Ġthrongs":10586,"ĠOurselves":10587,"Ġjustices":10588,"Ġjustified":10589,"Ġpardoning":10590,"Ġunderstood":10591,"Ġdevout":10592,"Ġdevised":10593,"Ġdevoted":10594,"Ġmisled":10595,"Ġmisdeed":10596,"Ġmispl":10597,"Ġmisbe":10598,"Ġmisadventure":10599,"Ġmisdoubt":10600,"Ġlasts":10601,"Ġlastly":10602,"ensible":10603,"Ġstately":10604,"Ġcareer":10605,"Ġcarefully":10606,"Ġmeets":10607,"Ġkills":10608,"Ġkilling":10609,"Ġhelped":10610,"Ġfalter":10611,"Ġfalchion":10612,"Ġlessen":10613,"Ġlessons":10614,"ĠEngage":10615,"Ġanswering":10616,"Ġfollowed":10617,"Ġfarmer":10618,"Ġfoolery":10619,"Ġchin":10620,"Ġchoosing":10621,"Ġchurl":10622,"Ġhitherward":10623,"Ġpatrim":10624,"irts":10625,"ĠShort":10626,"Ġshameful":10627,"Ġsunset":10628,"days":10629,"ĠUnf":10630,"ĠUnshe":10631,"ĠUnhappy":10632,"ĠUnfold":10633,"Ġcourtship":10634,"ĠAlmost":10635,"ĠAlbion":10636,"Ġstriving":10637,"Ġstrikes":10638,"Ġstrifes":10639,"Ġstreams":10640,"Ġworthless":10641,"ildly":10642,"Ġhumours":10643,"Ġhumorous":10644,"alties":10645,"Ġoverta":10646,"Ġoverboard":10647,"Ġbelie":10648,"Ġivy":10649,"Ġsounding":10650,"Ġbug":10651,"Ġbubble":10652,"Ġdrain":10653,"Ġinstinct":10654,"Ġinstigation":10655,"ĠHerself":10656,"ĠHerbert":10657,"Ġthankings":10658,"Ġproveth":10659,"Ġplayers":10660,"Ġplayfellow":10661,"Ġadvantag":10662,"Ġwelcom":10663,"Ġretail":10664,"Ġvoid":10665,"Ġboat":10666,"Ġboil":10667,"Ġboatswain":10668,"Ġevening":10669,"Ġmerciless":10670,"Ġcurb":10671,"Ġcurds":10672,"Ġcursing":10673,"Ġcurrish":10674,"Ġcurfew":10675,"Ġdoubts":10676,"Ġwantons":10677,"Ġgrin":10678,"Ġgrateful":10679,"Ġhangmen":10680,"Ġrevenues":10681,"Ġassay":10682,"Ġassign":10683,"pecting":10684,"Ġtruths":10685,"Ġdiscom":10686,"Ġdiscours":10687,"Ġdiscern":10688,"Ġcracks":10689,"Ġstrains":10690,"Ġpromises":10691,"Ġpromotions":10692,"Ġstrangers":10693,"Ġsecrecy":10694,"Ġproudly":10695,"Ġbeaver":10696,"ĠSugg":10697,"ĠSuccess":10698,"Ġdepends":10699,"Ġdeposing":10700,"Ġdepending":10701,"hampton":10702,"Ġfreeze":10703,"ĠPOMPHEY":10704,"ĠWash":10705,"Ġawaking":10706,"Ġawaken":10707,"Ġawaked":10708,"Ġmerits":10709,"Ġmerited":10710,"Ġdenies":10711,"Ġdenier":10712,"Ġhorseman":10713,"ĠLooks":10714,"ĠLooking":10715,"Ġdrugs":10716,"Ġdrudge":10717,"ĠComm":10718,"ĠCompare":10719,"Ġsupposes":10720,"eys":10721,"Ġwinning":10722,"Ġcarver":10723,"Ġcarved":10724,"Ġcarters":10725,"Ġcarriage":10726,"Ġcarbon":10727,"Ġcarcass":10728,"Ġspoiled":10729,"Ġmonastery":10730,"ĠHaste":10731,"Ġdefiance":10732,"Ġdefaced":10733,"Ġunclean":10734,"Ġmettle":10735,"Ġmethod":10736,"Ġsinful":10737,"Ġsincerity":10738,"ĠSpl":10739,"ĠSpur":10740,"ĠSpare":10741,"ĠSpread":10742,"Ġsurety":10743,"Ġsadd":10744,"remacy":10745,"Ġgeneration":10746,"Ġgenerally":10747,"ĠLucy":10748,"ringed":10749,"Ġpurposed":10750,"Ġthroughout":10751,"black":10752,"ictment":10753,"Ġchoked":10754,"Ġrecreation":10755,"Ġpersonally":10756,"ĠJulietta":10757,"azz":10758,"mercies":10759,"Ġplucking":10760,"Ġdispute":10761,"Ġlosses":10762,"Ġjolly":10763,"Ġflying":10764,"Ġcrystal":10765,"Ġtrusted":10766,"Ġentreats":10767,"Ġinstructed":10768,"gued":10769,"shot":10770,"Ġorders":10771,"Ġordered":10772,"Ġbolder":10773,"Ġfoundation":10774,"Ġnearness":10775,"Ġfasts":10776,"Ġfaster":10777,"Ġvisits":10778,"Ġremembering":10779,"Ġwearisome":10780,"Ġtouching":10781,"Ġwooer":10782,"Ġfitly":10783,"Ġfitness":10784,"Ġhugg":10785,"Ġopenly":10786,"Ġgrants":10787,"ĠSeeing":10788,"Ġrunn":10789,"Ġrunning":10790,"Ġrunagate":10791,"Ġfurred":10792,"Ġfurthe":10793,"Ġfurlongs":10794,"Ġincaged":10795,"Ġincorpor":10796,"Ġinfidels":10797,"Ġinfallible":10798,"Ġissuing":10799,"Ġdelivers":10800,"Ġdeliberate":10801,"Ġquarters":10802,"plain":10803,"plus":10804,"plight":10805,"vocate":10806,"Ġfeels":10807,"Ġparks":10808,"Ġparley":10809,"Ġparcels":10810,"Ġparallel":10811,"Ġparagon":10812,"ĠBecame":10813,"Ġreadiest":10814,"Ġdelicious":10815,"Ġspeeds":10816,"ĠGloucest":10817,"Ġforemost":10818,"Ġforego":10819,"Ġforewarn":10820,"Ġfields":10821,"Ġposture":10822,"Ġpostern":10823,"Ġbeholders":10824,"ĠPronounce":10825,"Ġjudged":10826,"Ġmocks":10827,"Ġmocked":10828,"Ġbounds":10829,"Ġboundless":10830,"Ġdamask":10831,"ĠBootless":10832,"Ġworking":10833,"Ġhonestly":10834,"Ġtribe":10835,"Ġtribes":10836,"pared":10837,"Ġvein":10838,"Ġtenor":10839,"Ġwhipping":10840,"Ġbitterest":10841,"ĠCapel":10842,"Ġharmful":10843,"Ġguiltiness":10844,"Ġattendance":10845,"Ġattendants":10846,"Ġague":10847,"Ġsinging":10848,"Ġsingled":10849,"Ġwatching":10850,"Ġcoral":10851,"Ġcorpse":10852,"Ġcormor":10853,"Ġdistance":10854,"Ġdistaff":10855,"Ġdistilled":10856,"Ġstrengths":10857,"Ġacted":10858,"Ġstirr":10859,"Ġaffable":10860,"Ġaffiance":10861,"Ġbravely":10862,"Ġtype":10863,"Ġsignified":10864,"Ġwaist":10865,"Ġwaving":10866,"Ġwaft":10867,"Ġpieced":10868,"Ġgarter":10869,"Ġgarish":10870,"Ġgarment":10871,"Ġextir":10872,"Ġextol":10873,"Ġextempore":10874,"ĠUntimely":10875,"Ġcloset":10876,"beit":10877,"beat":10878,"vouring":10879,"Ġskies":10880,"Ġskull":10881,"Ġskins":10882,"etchy":10883,"ĠChide":10884,"Ġweaker":10885,"Ġjests":10886,"Ġplainness":10887,"Ġrichly":10888,"Ġacre":10889,"Ġwiser":10890,"Ġcasting":10891,"Ġforgetfulness":10892,"Ġregent":10893,"Ġvenuto":10894,"Ġtape":10895,"Ġwedlock":10896,"Ġdugs":10897,"Ġduellist":10898,"Ġdirected":10899,"Ġcrotche":10900,"Ġreduce":10901,"Ġredoubted":10902,"ĠRequ":10903,"ĠReward":10904,"ĠReason":10905,"ĠReceive":10906,"ĠRebell":10907,"Ġencamp":10908,"Ġwrites":10909,"Ġmoveable":10910,"Ġdangerously":10911,"Ġbattlements":10912,"Ġladder":10913,"Ġpaying":10914,"Ġpayment":10915,"Ġgroats":10916,"Ġblacker":10917,"Ġtroubles":10918,"Ġquarrels":10919,"changea":10920,"Ġsighing":10921,"Ġmalady":10922,"Ġmalcontent":10923,"Ġmalapert":10924,"Ġbarber":10925,"Ġbarne":10926,"Ġdrove":10927,"Ġthrives":10928,"Ġthriving":10929,"arism":10930,"ĠAbate":10931,"ĠAbraham":10932,"ĠArgier":10933,"ĠArchbishop":10934,"Ġundes":10935,"Ġundisc":10936,"Ġvictor":10937,"Ġvictors":10938,"Ġprivily":10939,"Ġmortals":10940,"Ġmortality":10941,"Ġbleared":10942,"Ġpenet":10943,"Ġpenalty":10944,"Ġinterr":10945,"Ġinterior":10946,"Ġinterpretation":10947,"Ġinterchangea":10948,"Ġevidence":10949,"ĠKeeps":10950,"Ġflattery":10951,"Ġcomplots":10952,"Ġcompliment":10953,"Ġdreaded":10954,"Ġdenying":10955,"iply":10956,"ipodes":10957,"ouncing":10958,"Ġbroil":10959,"Ġbroach":10960,"Ġbabies":10961,"Ġfraught":10962,"Ġfrailty":10963,"Ġhurry":10964,"Ġhurts":10965,"ĠDead":10966,"ĠDeuc":10967,"ĠDecember":10968,"Ġprotection":10969,"Ġappearing":10970,"Ġdishonest":10971,"Ġdishonours":10972,"urally":10973,"Ġcrosses":10974,"Ġcrossing":10975,"Ġcowards":10976,"Ġlimed":10977,"Ġopport":10978,"Ġoppose":10979,"Ġoppress":10980,"righted":10981,"Ġangle":10982,"Ġviolation":10983,"Ġkingdoms":10984,"Ġapprove":10985,"Ġleading":10986,"Ġlamented":10987,"Ġsuccesses":10988,"Ġsuccessful":10989,"URE":10990,"Ġcleave":10991,"Ġlabours":10992,"Ġowl":10993,"Ġowed":10994,"Ġowest":10995,"Ġpities":10996,"Ġgalled":10997,"Ġgallows":10998,"Ġgallops":10999,"Ġinsur":11000,"Ġinside":11001,"Ġinsatiate":11002,"Ġinsensible":11003,"ĠBliss":11004,"Ġforwardness":11005,"ĠThinkest":11006,"Ġprincip":11007,"Ġunwise":11008,"Ġunwieldy":11009,"Ġunwholesome":11010,"Ġunwonted":11011,"Ġscarf":11012,"Ġscarr":11013,"acre":11014,"aculate":11015,"Ġsurfeits":11016,"Ġsurcease":11017,"Ġsurplus":11018,"Ġdestined":11019,"Ġdestroying":11020,"ĠConvenient":11021,"ĠConceiving":11022,"Ġdeparting":11023,"Ġdeparted":11024,"Ġpossessions":11025,"Ġutters":11026,"Ġuttered":11027,"Ġbasely":11028,"Ġbirthright":11029,"Ġfilling":11030,"ĠAdo":11031,"ĠAdrian":11032,"ĠHolding":11033,"Ġformal":11034,"Ġformally":11035,"Ġeasier":11036,"ĠExceed":11037,"ĠExamine":11038,"Ġfavourites":11039,"Ġproceeds":11040,"Ġperformed":11041,"Ġshipp":11042,"Ġmilder":11043,"Ġwalking":11044,"Ġwilderness":11045,"Ġcape":11046,"Ġcavil":11047,"Ġforswore":11048,"Ġshades":11049,"Ġquietly":11050,"Ġquietness":11051,"Ġleisurely":11052,"ĠStays":11053,"Ġapish":11054,"Ġapology":11055,"Ġshoot":11056,"Ġmedd":11057,"Ġmedlar":11058,"reading":11059,"Ġfamed":11060,"Ġlisten":11061,"ĠTwelve":11062,"Ġhapless":11063,"ĠBelow":11064,"Ġnobody":11065,"Ġblowing":11066,"Ġuncrown":11067,"Ġunconstant":11068,"Ġunknit":11069,"Ġcontinency":11070,"Ġcontinuance":11071,"Ġseconds":11072,"Ġforbids":11073,"Ġencounters":11074,"Ġsorted":11075,"Ġmutual":11076,"Ġmutually":11077,"Ġmutton":11078,"ĠIntends":11079,"ĠIntended":11080,"Ġcrupper":11081,"Ġlances":11082,"Ġpettic":11083,"Ġstories":11084,"Ġstealth":11085,"Ġrefer":11086,"Ġrefresh":11087,"Ġreflect":11088,"Ġproclaimed":11089,"Ġtemporiz":11090,"Ġtenth":11091,"Ġfinely":11092,"Ġdrowned":11093,"Ġlowest":11094,"Ġbended":11095,"Ġindu":11096,"Ġindust":11097,"Ġinduced":11098,"Ġindignation":11099,"Ġindictment":11100,"ĠScorn":11101,"ĠScurvy":11102,"ĠScroop":11103,"ĠHeart":11104,"ĠPerform":11105,"ĠEns":11106,"ĠEnjoy":11107,"ĠEnforced":11108,"Ġconquered":11109,"Ġexcused":11110,"Ġexcuses":11111,"Ġpursuing":11112,"Ġpursuivant":11113,"Ġdoubled":11114,"Ġdoublets":11115,"Ġdespairing":11116,"Ġwisdoms":11117,"Ġmounted":11118,"Ġmountains":11119,"Ġfeign":11120,"Ġfeigned":11121,"Ġdanced":11122,"Ġcorns":11123,"Ġcaptives":11124,"Ġpunk":11125,"Ġpuny":11126,"Ġpunished":11127,"angled":11128,"Ġhairs":11129,"Ġstudying":11130,"ĠFriend":11131,"ĠDispose":11132,"ĠDismiss":11133,"Ġmannerly":11134,"Ġunsk":11135,"Ġunsway":11136,"Ġunspeak":11137,"Ġunsuspect":11138,"Ġplanted":11139,"Ġenjoying":11140,"Ġrange":11141,"Ġranks":11142,"Ġabroach":11143,"Ġfollower":11144,"Ġcontrar":11145,"Ġstrucken":11146,"denly":11147,"Ġteaching":11148,"Ġsimpl":11149,"Ġcredent":11150,"Ġcredulous":11151,"Ġgentleness":11152,"ĠFlower":11153,"ĠFlatter":11154,"ĠFlav":11155,"ĠNext":11156,"ĠNegle":11157,"Ġprovince":11158,"Ġprovision":11159,"Ġaccounted":11160,"Ġpriests":11161,"Ġguards":11162,"Ġextremities":11163,"Ġcruelty":11164,"Ġwailing":11165,"Ġbaits":11166,"Ġbaited":11167,"Ġdwellest":11168,"Ġcustomers":11169,"Ġpacking":11170,"Ġpackthread":11171,"Ġgavest":11172,"Ġeased":11173,"Ġbutcheries":11174,"Ġenvying":11175,"Ġridges":11176,"Ġadders":11177,"Ġaddition":11178,"Ġimages":11179,"Ġimagined":11180,"Ġsubstantial":11181,"Ġfellowship":11182,"Ġbenefactors":11183,"Ġlaughing":11184,"Ġverily":11185,"Ġveriest":11186,"Ġverified":11187,"Ġverdict":11188,"Ġwreak":11189,"Ġwreaths":11190,"Ġwagging":11191,"Ġfirmament":11192,"Ġdullest":11193,"Ġholes":11194,"velling":11195,"Ġbefell":11196,"Ġincline":11197,"ĠBarnet":11198,"ĠHenceforth":11199,"ĠHenceforward":11200,"Ġformerly":11201,"Ġrelent":11202,"Ġdealings":11203,"ĠDesire":11204,"ĠDesires":11205,"ĠDeserved":11206,"ĠDeserve":11207,"ĠDeserves":11208,"Ġsportful":11209,"Ġconveyance":11210,"Ġarrive":11211,"Ġunbu":11212,"Ġunbruised":11213,"Ġunpitied":11214,"Ġunparallel":11215,"Ġrooted":11216,"Ġcountenances":11217,"Ġsmoke":11218,"Ġcovering":11219,"Ġacquit":11220,"Ġschoolboy":11221,"shell":11222,"sheet":11223,"Ġfingering":11224,"lloa":11225,"ĠTutor":11226,"Ġgrossly":11227,"ĠSicils":11228,"ĠSicinius":11229,"Ġstables":11230,"Ġnecessaries":11231,"Ġdisgracious":11232,"Ġimports":11233,"Ġimportance":11234,"Ġimportuned":11235,"Ġundertaking":11236,"Ġcircled":11237,"olycus":11238,"spring":11239,"Ġesp":11240,"Ġeduc":11241,"Ġdrive":11242,"Ġcreep":11243,"Ġlargess":11244,"ĠTurns":11245,"Ġinformation":11246,"Ġelected":11247,"Ġeagles":11248,"Ġdecreed":11249,"Ġsharper":11250,"Ġallowing":11251,"Ġallowed":11252,"Ġknights":11253,"Ġshrill":11254,"Ġshrieks":11255,"Ġsailor":11256,"Ġrobbed":11257,"Ġrobbery":11258,"Ġrocky":11259,"Ġcommendable":11260,"Ġrudely":11261,"Ġassisted":11262,"Ġconduit":11263,"Ġconducted":11264,"Ġprofesses":11265,"Ġdelightful":11266,"Ġlanguish":11267,"active":11268,"Ġdetain":11269,"Ġdetect":11270,"Ġdurance":11271,"Ġnumbering":11272,"Ġhidden":11273,"Ġpinched":11274,"Ġinfectious":11275,"ĠShake":11276,"riously":11277,"Ġstarved":11278,"Ġstockings":11279,"ashion":11280,"ĠPrefix":11281,"Ġdews":11282,"ĠResign":11283,"ĠResolved":11284,"ĠResolve":11285,"ĠKnowing":11286,"Ġambling":11287,"Ġexcellence":11288,"Ġchiefly":11289,"Ġdispositions":11290,"Ġprotectors":11291,"Ġpublish":11292,"ubbering":11293,"Ġerr":11294,"Ġirks":11295,"Ġtortures":11296,"Ġtortoise":11297,"Ġmurderers":11298,"Ġcambric":11299,"Ġcensures":11300,"Ġtopmast":11301,"Ġequally":11302,"Ġstored":11303,"Ġsupremacy":11304,"running":11305,"Ġshuts":11306,"Ġconjur":11307,"Ġconjured":11308,"Ġsways":11309,"Ġbrooks":11310,"Ġdisdains":11311,"Ġaffects":11312,"Ġaffecting":11313,"Ġrashly":11314,"Ġrashness":11315,"Ġadmire":11316,"Ġadmits":11317,"Ġadmired":11318,"Ġadmiring":11319,"Ġtransform":11320,"Ġtransgression":11321,"Ġaccusers":11322,"Ġchairs":11323,"Ġacceptance":11324,"Ġsolemnly":11325,"Ġconquerors":11326,"Ġspecially":11327,"dyed":11328,"Ġtutors":11329,"Ġwoodcock":11330,"Ġbottle":11331,"Ġbottled":11332,"Ġbuds":11333,"Ġfleece":11334,"Ġcupbearer":11335,"Ġhunting":11336,"Ġpipe":11337,"Ġpurest":11338,"Ġmended":11339,"Ġweighing":11340,"queath":11341,"Ġcombine":11342,"Ġcombined":11343,"olerable":11344,"Ġswallowed":11345,"Ġargues":11346,"Ġdissolute":11347,"Ġdissolved":11348,"Ġdissentious":11349,"Ġdissolve":11350,"Ġdissension":11351,"Ġdissolution":11352,"Ġexpected":11353,"Ġadopted":11354,"Ġclog":11355,"Ġcloven":11356,"Ġcloister":11357,"Ġwhores":11358,"Ġcourageous":11359,"Ġgroaning":11360,"Ġcomplaining":11361,"ĠAEdiles":11362,"valued":11363,"Ġtestify":11364,"Ġmillion":11365,"Ġmillstones":11366,"Ġmagn":11367,"Ġhostile":11368,"Ġpolitic":11369,"Ġgrudge":11370,"Ġgrumbling":11371,"Ġmeantime":11372,"ĠLeicester":11373,"ĠLonger":11374,"Ġrepeat":11375,"Ġshuns":11376,"Ġconcern":11377,"Ġungracious":11378,"Ġungrateful":11379,"Ġqualified":11380,"ĠJacks":11381,"Ġadversary":11382,"Ġimmod":11383,"Ġintelligen":11384,"Ġpurchased":11385,"Ġcockle":11386,"Ġcockatri":11387,"Ġimpossib":11388,"Ġmaidenheads":11389,"Ġincreaseth":11390,"Ġopposers":11391,"Ġearnestness":11392,"GHAN":11393,"flies":11394,"ucement":11395,"Ġingratitude":11396,"Ġingenious":11397,"Ġsquare":11398,"Ġsquire":11399,"Ġsquared":11400,"Ġsouthward":11401,"Ġfigured":11402,"Ġfurnished":11403,"Ġdigg":11404,"Ġchattering":11405,"Ġparentage":11406,"Ġmelting":11407,"ĠLaugh":11408,"Ġrevolted":11409,"Ġwillingness":11410,"Ġswells":11411,"Ġprovoke":11412,"Ġensign":11413,"Ġensuing":11414,"ĠStrive":11415,"Ġbrawls":11416,"Ġbuilds":11417,"Ġbuildeth":11418,"ĠSupposing":11419,"ĠPlays":11420,"Ġrecomfort":11421,"Ġrecorded":11422,"Ġafflicted":11423,"Ġgarlands":11424,"Ġforbearance":11425,"Ġfamously":11426,"ĠConspirators":11427,"Thou":11428,"Thus":11429,"falling":11430,"ibal":11431,"moreland":11432,"proud":11433,"server":11434,"Ġaptly":11435,"Ġsalve":11436,"Ġsalutation":11437,"Ġmiracle":11438,"Ġmultitud":11439,"Ġmultiply":11440,"Ġfunctions":11441,"Ġfuneral":11442,"Ġdifferent":11443,"Ġcaterp":11444,"Ġhorns":11445,"Ġpotent":11446,"Ġpotency":11447,"ĠAccount":11448,"Ġinquired":11449,"ĠBenedic":11450,"ĠHolla":11451,"Ġforsaken":11452,"rifty":11453,"Ġstinging":11454,"Ġstoutness":11455,"Ġreceiving":11456,"Ġrejoicing":11457,"ĠDraws":11458,"Ġunex":11459,"Ġuneasy":11460,"Ġunstain":11461,"Ġunstanched":11462,"Ġwrinkle":11463,"Ġwrinkles":11464,"Ġrusty":11465,"Ġpricking":11466,"Ġcharacters":11467,"Ġsmells":11468,"Ġbracelet":11469,"Ġsecurely":11470,"Ġagreeing":11471,"Ġcorrect":11472,"Ġprettily":11473,"Ġshields":11474,"Ġsubstitutes":11475,"bodied":11476,"comfortable":11477,"gnable":11478,"longeth":11479,"monger":11480,"maids":11481,"Ġtails":11482,"Ġtailors":11483,"Ġwidower":11484,"Ġwestward":11485,"Ġbuckler":11486,"Ġpedigree":11487,"ĠSometimes":11488,"Ġsteer":11489,"Ġsticks":11490,"Ġdeclined":11491,"Ġdeclines":11492,"Ġdeclining":11493,"Ġshamest":11494,"Ġshamef":11495,"Ġsucceeding":11496,"Ġsucceeders":11497,"Ġfactor":11498,"Ġfawns":11499,"Ġneglected":11500,"Ġvariable":11501,"Ġvolumes":11502,"ĠVenus":11503,"Ġengine":11504,"ĠSoftly":11505,"Ġscandalous":11506,"Ġcarelessly":11507,"Ġcurtains":11508,"Ġgratify":11509,"Ġgratulate":11510,"Ġcrafts":11511,"Ġsufficiency":11512,"Ġestimate":11513,"Ġprophetess":11514,"Ġconcealment":11515,"apparell":11516,"butt":11517,"shaped":11518,"Ġeternity":11519,"Ġtouches":11520,"Ġtrodden":11521,"Ġtigers":11522,"Ġmethoughts":11523,"Ġfixed":11524,"ĠImmediate":11525,"Ġdateless":11526,"Ġnettles":11527,"Ġnicely":11528,"Ġlucky":11529,"Ġluckless":11530,"Ġpageant":11531,"ĠWrath":11532,"celsa":11533,"ĠSitting":11534,"Ġstomachs":11535,"ĠGreek":11536,"ĠPrick":11537,"ĠPriami":11538,"Ġdeceiving":11539,"ĠDelay":11540,"ĠDeliver":11541,"Ġornament":11542,"Ġarrested":11543,"Ġunfelt":11544,"Ġwormwood":11545,"Ġbegetting":11546,"Ġrestrained":11547,"Ġcollected":11548,"Ġcramps":11549,"Ġstrawberries":11550,"Ġmonarchy":11551,"Ġsacrificed":11552,"Ġrankle":11553,"Ġcoverture":11554,"Ġapprehends":11555,"Ġmoralize":11556,"footed":11557,"winged":11558,"Ġtackle":11559,"Ġaudience":11560,"Ġaudible":11561,"Ġsedition":11562,"Ġsedges":11563,"Ġsessions":11564,"Ġmourner":11565,"Ġmoulded":11566,"Ġbruising":11567,"Ġbolt":11568,"Ġbolted":11569,"Ġfinest":11570,"Ġfinish":11571,"Ġfeverous":11572,"Ġlouring":11573,"Ġpillow":11574,"Ġpictures":11575,"Ġpalmers":11576,"ĠAdding":11577,"Ġgapes":11578,"Ġbells":11579,"Ġinvite":11580,"ĠHonour":11581,"ĠGramercies":11582,"Ġdemi":11583,"Ġdemesnes":11584,"ĠNamely":11585,"ĠEmperor":11586,"Ġanchors":11587,"Ġspotless":11588,"Ġshrug":11589,"Ġshelves":11590,"Ġgossip":11591,"Ġhoarse":11592,"Ġslippery":11593,"Ġpreferment":11594,"Ġtrimm":11595,"perienced":11596,"Ġlectures":11597,"Ġcompounded":11598,"Ġtraveller":11599,"Ġcopy":11600,"Ġcopest":11601,"Ġmiscarried":11602,"Ġobsequious":11603,"Ġattainder":11604,"Ġprompts":11605,"Ġlearnedly":11606,"Ġdivorced":11607,"ĠWelshman":11608,"Ġcrooked":11609,"Ġinsolent":11610,"ĠDespite":11611,"ĠDespised":11612,"Ġtestimon":11613,"Ġneglecting":11614,"ĠFalsely":11615,"Ġheralds":11616,"avoury":11617,"tino":11618,"wearied":11619,"Ġmasks":11620,"Ġfrequent":11621,"Ġfancies":11622,"Ġfountain":11623,"Ġfulfil":11624,"Ġfulfilled":11625,"erpast":11626,"Ġdoting":11627,"Ġdotard":11628,"Ġcushions":11629,"Ġlingering":11630,"Ġyesterday":11631,"Ġthwack":11632,"Ġpanting":11633,"ĠAccept":11634,"ĠAffliction":11635,"Ġgusts":11636,"ĠWestmoreland":11637,"ĠBestride":11638,"ĠBoldly":11639,"ĠCourageous":11640,"Ġstaggers":11641,"ĠFellows":11642,"Ġresembles":11643,"Ġrevived":11644,"ĠRelent":11645,"ĠDivine":11646,"Ġvials":11647,"Ġunlikely":11648,"Ġalarum":11649,"Ġalarums":11650,"Ġexceeds":11651,"Ġdescant":11652,"Ġdescried":11653,"Ġclerk":11654,"Ġperdition":11655,"Ġeverlastingly":11656,"Ġpeerless":11657,"ĠProspero":11658,"ĠProsperity":11659,"Ġbestrid":11660,"Ġbestride":11661,"Ġaccompanied":11662,"Ġchampions":11663,"Ġbrands":11664,"Ġconfederates":11665,"Ġmischiefs":11666,"Ġpatroness":11667,"Ġobserve":11668,"Ġcrabbed":11669,"therea":11670,"Ġdistraction":11671,"Ġdistraught":11672,"Ġcrimson":11673,"Ġembassies":11674,"Ġembassage":11675,"Ġinterrupted":11676,"Ġinsinuating":11677,"Ġunwillingness":11678,"Ġunlucky":11679,"Ġmagistrates":11680,"Ġstewardship":11681,"Ġsurprise":11682,"Stay":11683,"judged":11684,"missive":11685,"phin":11686,"Ġireful":11687,"Ġtumbled":11688,"Ġbountiful":11689,"Ġbounteous":11690,"Ġfetter":11691,"Ġdominions":11692,"Ġdedicate":11693,"Ġdieted":11694,"Ġhypo":11695,"Ġgazing":11696,"ĠCytherea":11697,"ĠGolden":11698,"Ġrenew":11699,"Ġrenounce":11700,"Ġliquor":11701,"Ġliquid":11702,"ĠPresent":11703,"Ġdefects":11704,"ĠRoger":11705,"ĠRobert":11706,"Ġdoctors":11707,"Ġdoctrine":11708,"ĠEndured":11709,"Ġsequel":11710,"Ġsuggested":11711,"Ġanswers":11712,"Ġanswered":11713,"thwart":11714,"thwack":11715,"Ġnegligence":11716,"Ġnegligent":11717,"Ġviand":11718,"Ġviper":11719,"Ġmuffle":11720,"Ġmuffled":11721,"Ġamendment":11722,"Ġarguing":11723,"Ġargued":11724,"Ġarbitrate":11725,"Ġunthrifty":11726,"Ġgrafted":11727,"ĠJudas":11728,"Ġabstinence":11729,"Ġabode":11730,"Ġexactly":11731,"Ġexperienced":11732,"Ġriddle":11733,"Ġperfume":11734,"Ġperfumed":11735,"Ġtradesmen":11736,"Ġscruple":11737,"Ġcontrive":11738,"Ġcontrived":11739,"Ġappointment":11740,"ĠProfess":11741,"Ġchapel":11742,"Ġchests":11743,"Ġimpartial":11744,"Ġimpudent":11745,"Ġobstacles":11746,"Ġattentive":11747,"Ġstraitly":11748,"Ġprofanation":11749,"Ġpennyworth":11750,"ĠChristophero":11751,"Ġindirectly":11752,"Ġfeatly":11753,"Ġcontradict":11754,"Ġcontradiction":11755,"ĠFlorent":11756,"ĠFlorence":11757,"ĠNeighbour":11758,"ĠNeighbours":11759,"Ġholiday":11760,"Ġholidame":11761,"Ġreligion":11762,"Ġreligious":11763,"Ġadmiral":11764,"Ġgreyhound":11765,"Ġgreyhounds":11766,"Ġsyllable":11767,"Ġsyllables":11768,"Ġsuperfluous":11769,"Ġsuperfluity":11770,"Ġdisobedience":11771,"Ġdisobedient":11772,"Ġsinews":11773,"Ġcuckolds":11774,"bridge":11775,"dinand":11776,"disp":11777,"politan":11778,"spoken":11779,"Ġaugment":11780,"Ġausterity":11781,"Ġmotive":11782,"Ġmingle":11783,"Ġmassacre":11784,"Ġwrapt":11785,"Ġbaleful":11786,"erately":11787,"Ġcypress":11788,"Ġcottage":11789,"Ġcedar":11790,"Ġcasque":11791,"Ġcertainty":11792,"Ġcelebr":11793,"Ġnavy":11794,"Ġlechery":11795,"Ġthrall":11796,"Ġthoroughly":11797,"Ġostentation":11798,"Ġocean":11799,"Ġpheasant":11800,"Ġpirate":11801,"Ġpuling":11802,"Ġpensive":11803,"Ġpalsied":11804,"ĠTendering":11805,"ĠTremble":11806,"Ġglean":11807,"Ġgilded":11808,"Ġgorgeous":11809,"Ġbehove":11810,"ĠWorcester":11811,"Ġhabiliments":11812,"ĠBreton":11813,"ĠSaddle":11814,"ĠSelf":11815,"ĠSlander":11816,"ĠHaply":11817,"ĠHungary":11818,"ĠCotus":11819,"Ġeggs":11820,"Ġelbow":11821,"Ġewes":11822,"Ġstalls":11823,"Ġstinted":11824,"Ġkernels":11825,"Ġkitchen":11826,"ĠLadies":11827,"ĠFerdinand":11828,"Ġreversion":11829,"Ġreleased":11830,"Ġrehearse":11831,"ĠPitchers":11832,"ĠPilate":11833,"ĠNightly":11834,"Ġdolour":11835,"Ġnovice":11836,"ĠDoubly":11837,"Ġseventeen":11838,"Ġherdsmen":11839,"Ġvestal":11840,"ĠVarrius":11841,"Ġwheresoe":11842,"Ġconverts":11843,"Ġconversation":11844,"Ġconvented":11845,"Ġblasphem":11846,"ershades":11847,"Ġuniversal":11848,"Ġproverb":11849,"Ġplenteous":11850,"Ġdiscipline":11851,"Ġenrolled":11852,"Ġoutstret":11853,"Ġexhales":11854,"Ġripest":11855,"Ġribbons":11856,"Ġadulter":11857,"Ġpresumption":11858,"Ġprescription":11859,"ĠStirr":11860,"ĠStephen":11861,"ĠProdigious":11862,"Ġrespite":11863,"Ġendeavours":11864,"Ġtragedy":11865,"Ġbraggart":11866,"Ġimpregnable":11867,"Ġglistering":11868,"Ġeyebrows":11869,"ĠUnworthy":11870,"Ġstripling":11871,"Ġstreaks":11872,"Ġstrangeness":11873,"ĠSuffolk":11874,"Ġgreediness":11875,"Ġtemperately":11876,"ĠPlainly":11877,"Ġexecuting":11878,"Ġinfluences":11879,"Ġquarrelling":11880,"Ġparchment":11881,"Ġvehement":11882,"Ġstirrup":11883,"Ġcradle":11884,"Ġencompass":11885,"Ġencouragement":11886,"Ġexpostulate":11887,"Ġestablish":11888,"Ġbarbarism":11889,"ĠBloody":11890,"Ġunwillingly":11891,"ĠAmazonian":11892,"Ġcauser":11893,"Ġtemporal":11894,"ĠEnvironed":11895,"Ġcounterpoised":11896,"Ġwagoner":11897,"Ġunprepared":11898,"Ġescaped":11899,"Ġambassador":11900,"Ġvanquish":11901,"Ġbasilisk":11902,"Ġsympathy":11903,"Ġdifferences":11904,"weighs":11905,"ĠGuildhall":11906,"Ġunreverent":11907,"Ġmasquers":11908,"ĠCheerly":11909,"ĠErroneous":11910,"Ġclergymen":11911,"ĠRedeemer":11912,"Ġcannibals":11913,"Ġtumultuous":11914,"ĠFRANCISCA":11915,"Ġsulphurous":11916,"Ġviolets":11917,"Citizens":11918,"Coriolanus":11919,"Romeo":11920,"Remember":11921,"Thanks":11922,"Verily":11923,"creature":11924,"corner":11925,"mercy":11926,"tongued":11927,"Ġthaw":11928,"Ġtarget":11929,"Ġaediles":11930,"Ġautumn":11931,"Ġauspicious":11932,"Ġscepter":11933,"Ġsouthern":11934,"Ġmalmsey":11935,"Ġmattock":11936,"Ġbisson":11937,"Ġfourscore":11938,"Ġdaffodils":11939,"Ġcodpiece":11940,"Ġnimbly":11941,"Ġhuntsmen":11942,"Ġponderous":11943,"Ġphrase":11944,"ĠThieves":11945,"ĠTaste":11946,"ĠTITUS":11947,"ĠAutolycus":11948,"ĠAlexander":11949,"Ġgasping":11950,"Ġgeese":11951,"Ġgillyvors":11952,"Ġghastly":11953,"ĠWondrous":11954,"Ġindex":11955,"Ġinexorable":11956,"Ġinhuman":11957,"ĠBERKELEY":11958,"ĠSheriff":11959,"ĠSoutham":11960,"ĠSummon":11961,"ĠHannibal":11962,"ĠMamillius":11963,"ĠMonday":11964,"ĠMortimer":11965,"ĠMopsa":11966,"ĠMEASURE":11967,"ĠMiranda":11968,"ĠChange":11969,"ĠCARDINAL":11970,"ĠCrowns":11971,"ĠCulling":11972,"ĠCertainly":11973,"ĠCounsel":11974,"ĠCHRISTOP":11975,"Ġwealthily":11976,"Ġeastern":11977,"ĠOlymp":11978,"Ġstamps":11979,"Ġstatesman":11980,"ĠLibya":11981,"ĠLOVEL":11982,"ĠFurther":11983,"ĠFrederick":11984,"Ġlibrary":11985,"ĠPretty":11986,"ĠNeapolitan":11987,"ĠNorthampton":11988,"ĠNicanor":11989,"ĠYorkshire":11990,"Ġsemblance":11991,"Ġsprang":11992,"Ġnephew":11993,"Ġcomforter":11994,"Ġmuddy":11995,"ĠVincetino":11996,"ĠVAUGHAN":11997,"Ġcongealed":11998,"ĠForswear":11999,"Ġorisons":12000,"Ġarrogance":12001,"Ġarithmetic":12002,"Ġlethargy":12003,"Ġunhallow":12004,"Ġunfortunate":12005,"Ġunposs":12006,"Ġunsettled":12007,"Ġprolix":12008,"Ġfrivolous":12009,"Ġhandkerchief":12010,"Ġexamples":12011,"agabond":12012,"Ġadmonition":12013,"Ġpredominant":12014,"Ġprecipitation":12015,"Ġprenzie":12016,"Ġpredecessors":12017,"Ġpurblind":12018,"Ġcockerel":12019,"Ġpatrimony":12020,"ĠUnsheathe":12021,"Ġwelcomed":12022,"Ġdiscourses":12023,"ĠSuggest":12024,"Ġfurthest":12025,"Ġincorporate":12026,"ĠGloucestershire":12027,"Ġcormorant":12028,"Ġaffianced":12029,"Ġcrotchets":12030,"Ġinterchangeably":12031,"ĠDeucalion":12032,"Ġprincipal":12033,"Ġpetticoat":12034,"Ġunspeakable":12035,"Ġunsuspected":12036,"ĠFlavius":12037,"Ġschoolboys":12038,"Ġeducation":12039,"Ġcockatrice":12040,"Ġcaterpillars":12041,"ĠBenedicite":12042,"ĠCHRISTOPHER":12043},"merges":[["Ġ","t"],["h","e"],["Ġ","a"],["o","u"],["Ġ","s"],["Ġ","m"],["Ġ","w"],["i","n"],["r","e"],["h","a"],["Ġt","he"],["n","d"],["Ġ","b"],["i","s"],["o","r"],["Ġ","f"],["Ġ","I"],["e","r"],["l","l"],["i","t"],["o","n"],["Ġ","d"],["Ġ","c"],["Ġ","n"],["Ġ","l"],["Ġ","y"],["e","s"],["e","n"],["Ġt","h"],["a","r"],["Ġ","h"],["Ġ","o"],["Ġt","o"],["Ġy","ou"],["Ġ","p"],["Ġ","T"],["ha","t"],["Ġ","A"],["Ġ","he"],["v","e"],["o","t"],["Ġa","nd"],["s","t"],["o","w"],["in","g"],["Ġo","f"],["a","n"],["o","m"],["Ġ","g"],["a","t"],["Ġb","e"],["Ġ","W"],["s","e"],["Ġm","y"],["Ġ","in"],["Ġ","ha"],["c","e"],["l","e"],["a","y"],["l","d"],["i","r"],["e","t"],["e","d"],["u","t"],["Ġ","B"],["Ġm","e"],["i","m"],["Ġ","S"],["it","h"],["Ġn","ot"],["'","s"],["Ġ","H"],["c","h"],["Ġt","hat"],["Ġ","is"],["Ġ","M"],["g","h"],["ĠA","nd"],["Ġf","or"],["Ġ","u"],["k","e"],["Ġ","C"],["Ġw","e"],["ou","r"],["o","o"],["i","ll"],["Ġ","e"],["Ġw","ith"],["he","r"],["Ġ","it"],["en","t"],["Ġyou","r"],["a","d"],["r","i"],["Ġ","O"],["Ġth","ou"],["Ġs","t"],["Ġ","k"],["Ġ","L"],["'","d"],["om","e"],["Ġh","is"],["Ġ","F"],["Ġ","G"],["gh","t"],["E","N"],["Ġ","re"],["or","d"],["i","d"],["r","a"],["ĠT","he"],["Ġha","ve"],["Ġh","im"],["I","N"],["l","y"],["Ġl","i"],["a","s"],["Ġ","P"],["Ġth","is"],["u","r"],["I","O"],["a","l"],["Ġs","o"],["Ġa","s"],["Ġd","e"],["Ġ","on"],["Ġ","R"],["o","re"],["r","o"],["Ġ","N"],["h","i"],["ou","ld"],["oo","d"],["A","R"],["c","k"],["a","in"],["v","er"],["Ġ","Y"],["es","t"],["Ġs","ha"],["Ġth","y"],["es","s"],["Ġw","ill"],["Ġd","o"],["e","a"],["Ġn","o"],["a","m"],["Ġ","E"],["Ġb","ut"],["Ġ","D"],["u","s"],["Ġs","e"],["U","S"],["i","f"],["Ġ","'"],["g","e"],["Ġa","ll"],["a","nd"],["ĠT","h"],["Ġs","u"],["a","ke"],["ĠT","o"],["Ġhe","r"],["r","u"],["i","on"],["Ġa","n"],["Ġ","K"],["Ġl","o"],["t","er"],["ar","d"],["ha","n"],["Ġs","p"],["e","ll"],["e","ar"],["Ġthe","e"],["Ġf","a"],["Ġsha","ll"],["Ġ","our"],["Ġb","y"],["t","h"],["U","C"],["Ġa","re"],["i","l"],["IN","G"],["Ġn","e"],["Ġk","n"],["r","om"],["h","o"],["Ġ","v"],["ĠT","hat"],["E","R"],["O","R"],["a","st"],["c","t"],["ou","s"],["Ġw","hat"],["Ġs","h"],["i","ght"],["u","l"],["E","T"],["an","t"],["Ġu","p"],["Ġg","ood"],["se","l"],["q","u"],["ĠB","ut"],["ar","t"],["r","ow"],["in","e"],["Ġc","om"],["at","h"],["Ġm","u"],["Ġl","ord"],["hi","ch"],["n","t"],["Ġp","r"],["Ġm","an"],["'","ll"],["Ġa","t"],["Ġ","V"],["on","e"],["Ġw","he"],["Ġc","on"],["ĠW","hat"],["Ġa","m"],["e","nd"],["i","c"],["E","S"],["b","le"],["r","y"],["Ġf","rom"],["on","g"],["i","e"],["Ġs","he"],["Ġb","l"],["i","ve"],["v","en"],["Ġg","o"],["Ġm","ore"],["ĠF","or"],["Ġthe","m"],["e","m"],["Ġw","as"],["I","C"],["ou","t"],["a","u"],["Ġs","ir"],["ot","her"],["a","re"],["ot","h"],["o","l"],["Ġ","if"],["Ġn","ow"],["ĠH","e"],["Ġ","hat"],["Ġthe","re"],["Ġw","ould"],["A","N"],["o","st"],["Ġkn","ow"],["Ġc","an"],["L","O"],["in","d"],["er","s"],["I","US"],["e","p"],["sel","f"],["Ġs","ay"],["AR","D"],["ĠK","ING"],["at","her"],["o","nd"],["re","s"],["at","e"],["f","e"],["Ġs","w"],["Ġhe","re"],["Ġlo","ve"],["Ġthe","ir"],["Ġ","or"],["Ġt","han"],["ĠM","y"],["Ġb","r"],["p","p"],["-","-"],["Ġthe","y"],["Ġu","s"],["Ġk","ing"],["Ġthe","n"],["a","ll"],["Ġa","r"],["o","d"],["Ġl","et"],["Ġu","n"],["i","g"],["Ġw","or"],["u","re"],["in","k"],["Ġm","ay"],["h","y"],["Ġc","ome"],["am","e"],["f","ore"],["or","t"],["ĠA","s"],["Ġ","qu"],["oo","k"],["Ġwe","ll"],["e","l"],["is","h"],["L","I"],["ĠW","he"],["Ġ","j"],["K","E"],["v","es"],["Ġon","e"],["Ġhat","h"],["ir","st"],["Ġm","ake"],["ĠY","ou"],["Ġg","ra"],["re","at"],["a","k"],["n","g"],["Ġmu","st"],["g","ain"],["ou","nd"],["Ġwe","re"],["Ġh","o"],["Ġse","e"],["Ġsh","ould"],["Ġli","ke"],["c","i"],["Ġp","ro"],["u","e"],["ea","k"],["T","IO"],["Ġs","a"],["it","y"],["Ġm","ad"],["Ġp","l"],["Ġf","ather"],["Ġha","d"],["u","m"],["Ġd","id"],["Ġup","on"],["O","M"],["im","e"],["p","e"],["Ġto","o"],["i","ce"],["O","N"],["Ġ","J"],["Ġd","is"],["en","ce"],["Ġde","ath"],["w","ard"],["Ġw","hich"],["Ġ","en"],["ĠI","f"],["o","se"],["ow","n"],["Ġsp","eak"],["Ġp","o"],["Ġwhe","n"],["f","ul"],["Ġ","out"],["Ġf","ri"],["Ġh","ow"],["ent","le"],["i","o"],["p","t"],["u","n"],["Ġa","gain"],["IC","H"],["ĠR","ICH"],["Ġt","ru"],["O","L"],["U","KE"],["d","e"],["ĠD","UKE"],["m","an"],["Ġhe","art"],["Ġy","et"],["i","ck"],["Ġha","nd"],["ver","y"],["ĠW","ith"],["ĠRICH","ARD"],["Ġw","ho"],["EN","TIO"],["ĠTh","ou"],["Ġs","ome"],["ĠW","e"],["ig","n"],["an","ce"],["ĠW","hich"],["Ġm","ar"],["Ġh","on"],["n","ce"],["i","es"],["Ġ","r"],["Ġs","on"],["ĠI","n"],["i","re"],["Ġm","ine"],["Ġof","f"],["is","t"],["Ġa","l"],["in","ce"],["IN","C"],["ha","r"],["or","n"],["a","ck"],["ĠW","hy"],["'","t"],["w","n"],["ĠO","f"],["ĠG","od"],["E","L"],["Ġt","ime"],["Ġhe","a"],["Ġsu","ch"],["o","y"],["ĠF","irst"],["Ġhe","ar"],["ĠS","o"],["n","ess"],["Ġbr","other"],["e","c"],["Ġthe","se"],["ĠC","l"],["Ġbl","ood"],["Ġa","b"],["it","her"],["Ġe","x"],["Ġg","ive"],["U","E"],["Ġf","o"],["ĠI","s"],["Ġd","ay"],["ĠN","o"],["Ġe","ar"],["Ġ","ro"],["Ġl","ook"],["Ġth","ink"],["Ġt","ell"],["ĠI","I"],["ĠH","ow"],["Ġli","fe"],["T","ER"],["is","e"],["Ġe","y"],["A","B"],["e","et"],["Ġwhe","re"],["Ġt","ake"],["Ġw","ord"],["UC","H"],["ou","l"],["Ġfri","end"],["t","her"],["Ġ","Q"],["ĠTh","is"],["a","g"],["a","ge"],["Ġd","es"],["ĠG","LO"],["UC","ES"],["ĠGLO","UCES"],["ĠGLOUCES","TER"],["e","f"],["e","en"],["er","v"],["ĠC","ome"],["u","st"],["Ġg","entle"],["ad","y"],["row","n"],["ing","s"],["ĠL","ord"],["Ġ","U"],["Ġ","ri"],["ur","se"],["a","ve"],["R","Y"],["a","se"],["ĠR","ome"],["t","is"],["Ġl","ea"],["ĠV","INC"],["Ġar","t"],["UE","EN"],["ĠQ","UEEN"],["ĠVINC","ENTIO"],["w","ay"],["Ġw","ar"],["ĠO","F"],["Ġm","ost"],["Ġhon","our"],["Ġf","l"],["ĠM","ar"],["Ġmu","ch"],["U","M"],["L","AN"],["Ġs","l"],["ĠWhe","re"],["A","M"],["ur","n"],["Ġmad","e"],["Ġt","w"],["m","ent"],["Ġf","ear"],["Ġha","st"],["ĠN","ow"],["ĠW","ho"],["Ġbe","t"],["ĠH","EN"],["au","ght"],["ĠHEN","RY"],["Ġc","ou"],["Ġg","reat"],["ĠB","e"],["b","er"],["n","ot"],["Ġb","re"],["ve","d"],["Ġne","ver"],["Ġfa","ir"],["Ġne","w"],["c","c"],["e","e"],["s","s"],["Ġa","f"],["ow","er"],["a","p"],["i","gh"],["Ġm","en"],["ĠA","N"],["t","le"],["or","row"],["ĠY","our"],["ast","er"],["u","ke"],["ĠI","t"],["i","z"],["ou","gh"],["ĠY","OR"],["ĠYOR","K"],["Ġc","all"],["Ġp","art"],["Ġan","y"],["Ġ","ra"],["at","ion"],["ĠO","r"],["IN","IUS"],["S","T"],["Ġa","d"],["re","e"],["id","e"],["Ġcom","m"],["Ġcan","not"],["Ġp","re"],["Ġst","and"],["Ġtru","e"],["Ġhea","ven"],["Ġn","ame"],["ĠP","ET"],["A","U"],["Ġbe","en"],["Ġpr","ay"],["h","ing"],["o","ld"],["Ġc","l"],["Ġsw","eet"],["D","W"],["Ġp","er"],["Ġp","le"],["ĠE","DW"],["ĠEDW","ARD"],["p","le"],["ĠG","R"],[",","--"],["Ġd","oth"],["Ġno","ble"],["Ġw","r"],["Ġo","wn"],["ear","s"],["ĠL","UC"],["ou","se"],["Ġd","one"],["ĠThe","re"],["u","ll"],["Ġt","r"],["Ġw","ay"],["Ġo","ther"],["Ġhe","ad"],["if","e"],["R","O"],["a","w"],["Ġme","an"],["Ġp","res"],["U","T"],["Ġbe","ar"],["ĠE","d"],["Ġs","c"],["re","d"],["Ġn","or"],["A","P"],["E","O"],["Ġ","very"],["Ġs","oul"],["ĠA","y"],["ĠR","OM"],["ĠWhe","n"],["ĠEd","ward"],["ĠROM","EO"],["v","ing"],["Ġb","oth"],["Ġn","ight"],["ĠA","n"],["Ġbe","fore"],["ĠM","EN"],["EN","IUS"],["as","s"],["ain","t"],["Ġwor","ld"],["ĠMEN","ENIUS"],["a","ce"],["g","er"],["ĠB","y"],["au","se"],["Ġqu","een"],["l","i"],["ĠL","et"],["T","H"],["Ġm","o"],["Ġc","hi"],["aught","er"],["R","UCH"],["ĠThe","n"],["ĠHe","re"],["ĠPET","RUCH"],["ĠPETRUCH","IO"],["a","ble"],["Ġd","own"],["Ġde","ad"],["Ġcon","t"],["T","ES"],["Ġa","pp"],["Ġw","h"],["it","e"],["Ġ","ke"],["Ġbe","ing"],["Ġre","m"],["p","er"],["Ġmy","self"],["a","b"],["l","es"],["ĠT","han"],["ĠM","AR"],["Ġbe","g"],["Ġar","m"],["Ġth","us"],["ĠC","OR"],["IO","LAN"],["il","t"],["Ġlea","ve"],["ĠCOR","IOLAN"],["ĠCORIOLAN","US"],["ĠS","ec"],["Ġgra","ce"],["ĠSec","ond"],["Ġu","nt"],["ct","ion"],["ĠN","or"],["res","s"],["Ġey","es"],["Ġ","im"],["Ġm","other"],["ĠL","E"],["l","ess"],["Ġm","a"],["Ġo","ld"],["l","and"],["r","an"],["Ġre","p"],["IN","A"],["it","iz"],["Ġe","ver"],["itiz","en"],["l","o"],["p","s"],["s","w"],["Ġw","ife"],["Ġl","ong"],["Ġin","t"],["ĠS","he"],["Ġli","ve"],["Ġchi","ld"],["Ġw","om"],["Ġpo","or"],["Ġfriend","s"],["Ġa","way"],["Ġcon","s"],["ĠII","I"],["ĠG","o"],["Ġm","ight"],["f","ord"],["nd","er"],["Ġd","ie"],["ĠS","ir"],["Ġst","ay"],["ea","ce"],["Ġcom","es"],["k","s"],["w","ick"],["ou","d"],["at","ch"],["ĠW","ar"],["le","d"],["Ġman","y"],["Ġ","ru"],["Ġh","ouse"],["Ġre","st"],["Ġc","rown"],["Ġp","e"],["ĠWar","wick"],["f","f"],["Ġc","our"],["Ġl","e"],["ow","s"],["T","is"],["c","ome"],["Ġ","ent"],["is","on"],["Ġha","r"],["ĠH","is"],["Ġthou","ght"],["L","A"],["S","AB"],["ĠI","SAB"],["Ġli","e"],["EL","LA"],["ĠISAB","ELLA"],["i","an"],["u","ck"],["is","s"],["er","c"],["R","AN"],["Ġs","et"],["Ġd","aughter"],["c","he"],["ĠW","ell"],["Ġnot","hing"],["ĠRome","o"],["U","LI"],["Ġt","ong"],["or","s"],["at","ter"],["ON","TES"],["ĠJ","ULI"],["Ġbet","ter"],["ĠLE","ONTES"],["ĠJULI","ET"],["it","tle"],["Ġg","one"],["ĠS","t"],["ĠN","ay"],["Ġpr","ince"],["ĠV","I"],["r","ant"],["A","D"],["ou","ght"],["Ġw","it"],["in","t"],["ĠL","AD"],["ĠLAD","Y"],["A","L"],["C","E"],["w","ell"],["Ġt","ri"],["EN","CE"],["i","ed"],["m","e"],["ĠP","ro"],["Ġnew","s"],["Ġke","ep"],["o","s"],["Ġs","le"],["Ġb","est"],["Ġre","s"],["Ġagain","st"],["c","es"],["f","or"],["i","ous"],["ha","ll"],["Ġth","ose"],["ĠS","erv"],["i","er"],["Ġa","cc"],["Ġl","ittle"],["Ġhe","nce"],["Ġg","ri"],["ĠS","IC"],["ĠC","itizen"],["oo","l"],["Ġcom","p"],["har","d"],["ĠSIC","INIUS"],["Ġth","ing"],["Ġh","our"],["ĠN","ot"],["Ġlord","s"],["t","y"],["Ġp","ut"],["ard","on"],["Ġfa","ce"],["ak","es"],["un","e"],["l","se"],["ll","ow"],["se","d"],["Ġe","nd"],["ĠO","n"],["Ġk","ind"],["E","Y"],["Ġyou","ng"],["Ġst","ill"],["ul","t"],["Ġtw","o"],["re","t"],["or","k"],["on","t"],["Ġp","ri"],["Ġhim","self"],["ie","ld"],["u","d"],["Ġp","ur"],["Ġp","ower"],["al","k"],["ĠTh","y"],["ĠLUC","IO"],["a","le"],["in","s"],["ĠI","V"],["er","t"],["Ġc","ha"],["ĠR","ic"],["ĠRic","hard"],["e","w"],["ĠC","L"],["Ġsu","b"],["Ġthere","fore"],["Ġcou","nt"],["T","I"],["c","l"],["f","t"],["in","ess"],["Ġf","irst"],["Ġp","eace"],["Ġg","u"],["Ġe","lse"],["ri","ed"],["Ġde","ar"],["ci","ous"],["Ġunt","o"],["Ġt","ill"],["Ġs","m"],["Ġd","uke"],["Ġc","ould"],["ĠW","ill"],["ĠB","R"],["ĠH","ave"],["as","on"],["hi","le"],["a","il"],["e","ct"],["i","le"],["Ġt","ra"],["Ġb","ack"],["Ġc","o"],["Ġh","us"],["ut","y"],["Ġthou","gh"],["Ġword","s"],["Z","AB"],["Ġt","re"],["Ġb","id"],["Ġf","ell"],["Ġf","ind"],["Ġd","re"],["ĠY","ork"],["ĠE","LI"],["Ġne","ed"],["ET","H"],["Ġear","th"],["Ġtong","ue"],["ZAB","ETH"],["ĠELI","ZABETH"],["b","and"],["i","us"],["o","ple"],["y","al"],["Ġl","ady"],["Ġth","ine"],["I","AN"],["m","en"],["Ġb","ra"],["or","se"],["Ġh","ome"],["Ġhe","l"],["Ġfor","th"],["Ġse","em"],["Ġho","pe"],["ee","ch"],["r","ay"],["en","ry"],["ar","k"],["Ġh","igh"],["et","h"],["ĠH","enry"],["ĠY","et"],["Ġhus","band"],["ve","re"],["ĠG","ood"],["Ġri","ght"],["g","et"],["Ġc","han"],["W","IC"],["t","w"],["Ġm","ind"],["Ġb","an"],["ĠW","AR"],["ut","h"],["Ġpe","ople"],["WIC","K"],["ĠWAR","WICK"],["A","ST"],["a","ch"],["d","s"],["i","x"],["re","r"],["is","ter"],["Ġc","he"],["Ġc","har"],["ĠA","ll"],["ĠS","hall"],["hi","p"],["ĠD","o"],["Ġsh","ow"],["Ġcon","f"],["g","ed"],["Ġb","ri"],["Ġhand","s"],["H","AM"],["f","ort"],["Ġm","aster"],["Ġw","hy"],["Ġc","ause"],["ĠN","urse"],["Ġj","oy"],["Ġim","p"],["L","ET"],["U","LET"],["Ġs","erv"],["Ġm","ist"],["Ġn","one"],["Ġl","aw"],["Ġg","l"],["ĠC","AP"],["ĠThe","y"],["Ġon","ce"],["Ġsa","id"],["ĠCAP","ULET"],["Ġfor","t"],["Ġe","very"],["G","E"],["I","L"],["M","IO"],["re","n"],["Ġb","od"],["ous","in"],["Ġbr","ing"],["R","I"],["b","t"],["Ġd","ou"],["K","ING"],["e","ed"],["Ġp","ass"],["at","es"],["ĠB","UC"],["Ġple","ase"],["UT","US"],["ĠBR","UTUS"],["KING","HAM"],["ĠBUC","KINGHAM"],["B","RO"],["i","et"],["l","t"],["ĠT","RAN"],["ir","d"],["ĠB","OL"],["ĠF","rom"],["Ġli","ght"],["ING","BRO"],["ES","S"],["ĠTRAN","IO"],["ĠBOL","INGBRO"],["ĠBOLINGBRO","KE"],["e","el"],["v","ost"],["Ġt","ears"],["Ġw","o"],["Ġb","es"],["Ġn","at"],["Ġth","r"],["Ġwho","se"],["Ġro","yal"],["Ġpres","ent"],["sw","er"],["c","le"],["m","b"],["Ġs","ince"],["Ġb","oy"],["it","s"],["Ġc","ame"],["ar","y"],["ĠO","ur"],["Ġj","ust"],["l","f"],["o","ck"],["v","y"],["or","y"],["Ġf","ull"],["Ġp","ardon"],["Ġhe","ard"],["Ġu","nder"],["Ġde","v"],["ro","ke"],["Ġaf","ter"],["Ġwr","ong"],["G","AR"],["N","E"],["p","ose"],["Ġl","and"],["Ġha","pp"],["Ġpl","ace"],["ĠMAR","GAR"],["ĠMARGAR","ET"],["A","TH"],["Ġm","is"],["Ġl","ast"],["en","s"],["Ġe","re"],["Ġst","ate"],["ĠK","ing"],["AM","IL"],["s","and"],["Ġs","orrow"],["Ġc","are"],["Ġme","et"],["Ġk","ill"],["Ġho","ld"],["c","ent"],["it","ion"],["Ġthou","sand"],["est","y"],["OR","D"],["Ġey","e"],["ĠAN","GE"],["ĠGR","E"],["Ġwh","om"],["Ġhel","p"],["ĠANGE","LO"],["Ġf","al"],["Ġl","ess"],["AR","INA"],["ĠE","ng"],["Ġan","swer"],["are","nce"],["Ġfo","llow"],["S","C"],["Ġb","us"],["Ġf","ar"],["Ġf","ool"],["Ġc","h"],["Ġh","ither"],["Ġp","at"],["ce","ive"],["ir","t"],["ĠS","h"],["Ġwe","ep"],["Ġsha","me"],["Ġsu","n"],["ĠK","ATH"],["sel","ves"],["ci","us"],["Ġen","em"],["ĠCl","arence"],["Ġab","out"],["ĠKATH","ARINA"],["i","ol"],["ur","de"],["Ġfa","ll"],["Ġgentle","man"],["ĠMar","cius"],["Ġma","id"],["d","ay"],["Ġo","b"],["as","ure"],["Ġint","o"],["Ġm","akes"],["Ġc","ousin"],["ĠE","SC"],["Ġhat","e"],["Ġgra","cious"],["ĠU","n"],["ĠU","p"],["Ġcou","n"],["Ġcour","t"],["AL","US"],["Ġgri","ef"],["ĠESC","ALUS"],["a","ir"],["j","ect"],["ĠA","l"],["im","es"],["Ġst","ri"],["Ġwom","an"],["i","v"],["o","ve"],["Ġt","urn"],["ĠH","ath"],["Ġst","re"],["Ġcom","fort"],["Ġwor","th"],["i","ld"],["l","ing"],["Ġt","alk"],["Ġw","ilt"],["on","s"],["Ġh","um"],["Ġbe","d"],["al","t"],["Ġdo","st"],["ĠD","UCH"],["ĠD","uke"],["ic","es"],["de","ed"],["Ġsle","ep"],["urde","rer"],["ĠDUCH","ESS"],["p","her"],["ou","nt"],["it","or"],["Ġo","ver"],["Ġbe","l"],["ER","C"],["ĠAn","ge"],["Ġbod","y"],["m","orrow"],["Ġ","i"],["Ġs","ound"],["Ġb","u"],["Ġd","ra"],["Ġin","st"],["ut","e"],["ĠH","er"],["Ġfa","ult"],["Ġat","t"],["Ġthan","k"],["ĠAnge","lo"],["I","A"],["i","ence"],["is","ed"],["Ġin","deed"],["ĠC","AMIL"],["Ġan","other"],["Ġpro","ve"],["Ġpl","ay"],["Ġad","v"],["Ġfal","se"],["ĠCAMIL","LO"],["i","ly"],["Ġs","er"],["om","et"],["ĠW","ould"],["Ġha","s"],["Ġu","se"],["Ġwe","l"],["Ġre","t"],["Ġde","ed"],["ĠE","ven"],["Ġv","o"],["ie","ve"],["Ġsw","ord"],["ĠPro","vost"],["Ġfell","ow"],["T","EN"],["Ġm","atter"],["Ġb","o"],["Ġf","ight"],["Ġp","ers"],["an","s"],["ĠH","OR"],["ill","ain"],["Ġe","ven"],["ad","e"],["Ġfort","une"],["TEN","S"],["ĠHOR","TENS"],["Ġs","ent"],["ĠF","RI"],["Ġso","vere"],["ho","ld"],["Ġpr","ison"],["Ġgra","ve"],["Ġcount","ry"],["ĠUp","on"],["ĠHORTENS","IO"],["ĠFRI","AR"],[",","'"],["e","al"],["Ġm","erc"],["Ġd","an"],["Ġc","ur"],["Ġy","ears"],["ĠA","re"],["ĠB","AP"],["ur","y"],["Ġse","nd"],["Ġv","irt"],["Ġr","ather"],["ST","A"],["TI","STA"],["Ġban","ish"],["Ġdou","bt"],["ĠBAP","TISTA"],["C","US"],["Y","CUS"],["m","p"],["ou","ch"],["Ġw","ant"],["Ġw","ish"],["ĠT","y"],["ĠA","UT"],["Ġg","r"],["Ġha","ng"],["ĠC","OM"],["Ġre","ven"],["Ġas","s"],["fe","ct"],["pe","ct"],["OL","YCUS"],["Ġtr","uth"],["Ġbus","iness"],["ĠAUT","OLYCUS"],["ĠCOM","INIUS"],[".","'"],["d","d"],["ĠA","t"],["ĠM","ore"],["Ġre","ason"],["Ġli","es"],["Ġon","ly"],["AR","ENCE"],["Ġsha","lt"],["ĠTh","ird"],["Ġdis","c"],["ĠCL","ARENCE"],["e","re"],["i","or"],["m","s"],["p","en"],["r","ance"],["Ġs","ea"],["Ġc","ra"],["Ġst","ra"],["EN","ES"],["Ġbre","ath"],["Ġcomm","and"],["Ġarm","s"],["Ġdre","am"],["pher","d"],["V","OL"],["d","er"],["Ġl","ay"],["en","er"],["Ġp","rom"],["Ġg","i"],["ĠB","EN"],["Ġst","ran"],["ĠG","entle"],["ĠN","OR"],["Ġse","c"],["ĠCl","own"],["VOL","IO"],["ĠBEN","VOLIO"],["P","ER"],["S","PER"],["Ġs","en"],["Ġs","omet"],["Ġw","ind"],["Ġp","ity"],["ĠT","ake"],["ĠP","RO"],["Ġpr","oud"],["Ġho","ly"],["Ġen","ough"],["UM","IO"],["ĠGR","UMIO"],["Ġcont","ent"],["Ġrem","em"],["SPER","O"],["ĠPRO","SPERO"],["U","TIO"],["i","a"],["k","en"],["t","en"],["he","d"],["Ġd","are"],["Ġth","ree"],["at","or"],["Ġbe","a"],["ĠS","u"],["ĠM","urderer"],["ĠM","ERC"],["Ġli","ves"],["Ġso","ld"],["ĠD","id"],["ĠK","ate"],["Ġsp","ir"],["Ġfa","re"],["Ġsw","ear"],["ĠMERC","UTIO"],["I","S"],["i","ke"],["Ġt","end"],["Ġg","et"],["et","er"],["Ġwith","in"],["Ġde","p"],["Ġv","illain"],["Ġgo","ds"],["ĠWe","re"],["ĠLUC","ENTIO"],["ĠServ","ant"],["Ġnat","ure"],["Ġwel","come"],["Ġs","ister"],["ha","m"],["Ġf","oul"],["Ġf","ree"],["Ġth","ings"],["ar","s"],["Ġg","re"],["Ġk","iss"],["ĠP","OM"],["est","er"],["Ġsa","w"],["Ġmad","am"],["LAN","D"],["Ġmist","ress"],["Ġhapp","y"],["Ġsovere","ign"],["ĠPOM","P"],["L","INA"],["a","pt"],["i","ent"],["u","nt"],["ha","l"],["Ġc","ity"],["Ġy","ield"],["an","y"],["ĠW","as"],["ĠG","ive"],["ĠP","AU"],["ver","s"],["Ġbre","ak"],["Ġmean","s"],["Ġsub","ject"],["Ġbes","eech"],["ĠPAU","LINA"],["Ġa","w"],["Ġm","er"],["Ġb","orn"],["er","y"],["Ġd","en"],["Ġh","orse"],["Ġo","ath"],["ĠS","ay"],["Ġyour","s"],["ĠL","ook"],["ond","er"],["gain","st"],["ag","ue"],["ef","t"],["get","her"],["ĠGRE","MIO"],["ĠPOMP","EY"],["N","IA"],["O","LI"],["X","ENES"],["b","alt"],["Ġt","em"],["Ġw","ound"],["Ġw","hile"],["Ġf","ire"],["Ġd","ru"],["an","c"],["ĠC","om"],["Ġyour","self"],["ĠP","OLI"],["us","ic"],["Ġsu","pp"],["Ġfa","ith"],["ĠV","OL"],["Ġblood","y"],["Ġlook","s"],["UM","NIA"],["che","s"],["ĠEng","land"],["ĠPOLI","XENES"],["ĠVOL","UMNIA"],["e","y"],["u","es"],["Ġs","it"],["Ġw","in"],["Ġc","ar"],["Ġc","ond"],["en","ger"],["ing","man"],["ĠH","AST"],["ĠF","are"],["Ġre","qu"],["Ġsp","o"],["ING","S"],["Ġcomm","on"],["Ġma","j"],["ĠServ","ingman"],["Ġtra","itor"],["cent","io"],["ĠHAST","INGS"],["R","ENCE"],["b","y"],["b","roke"],["r","ong"],["Ġm","on"],["Ġl","am"],["ĠH","ast"],["ĠM","ay"],["ĠC","an"],["ĠL","AU"],["Ġde","f"],["ess","enger"],["Ġun","cle"],["Ġmar","k"],["Ġchild","ren"],["ert","ain"],["ĠLAU","RENCE"],["B","Y"],["B","ER"],["Ġs","ight"],["Ġm","et"],["Ġl","ate"],["Ġl","eft"],["ĠA","h"],["Ġbe","at"],["Ġso","on"],["Ġv","al"],["ĠJ","ul"],["ĠThere","fore"],["for","m"],["Ġdan","ger"],["ĠTy","balt"],["Ġtend","er"],["Ġmaj","esty"],["F","F"],["u","se"],["Ġs","in"],["Ġto","ld"],["ĠS","p"],["Ġse","en"],["Ġsu","re"],["LI","FF"],["Ġsa","ve"],["Ġfo","ot"],["Ġday","s"],["Ġwar","rant"],["UM","BER"],["li","ke"],["TH","UMBER"],["Ġwo","e"],["ĠNOR","THUMBER"],["ĠNORTHUMBER","LAND"],["I","D"],["T","A"],["t","ing"],["Ġs","ad"],["re","m"],["Ġg","ener"],["ĠL","u"],["id","es"],["id","ow"],["ĠP","l"],["Ġdo","es"],["Ġrep","ort"],["Ġret","urn"],["Ġmerc","y"],["Ġfare","well"],["d","om"],["r","ing"],["u","p"],["he","s"],["re","l"],["Ġto","gether"],["Ġwith","out"],["Ġde","ep"],["ter","s"],["ear","n"],["Ġgo","ld"],["un","es"],["ĠThou","gh"],["Ġmar","ry"],["Ġhea","vy"],["ĠAN","NE"],["Ġpur","pose"],["Ġthr","ough"],["R","INC"],["a","im"],["b","l"],["c","a"],["c","her"],["i","ct"],["v","ent"],["Ġ","ill"],["Ġc","ho"],["Ġc","old"],["Ġn","urse"],["Ġg","row"],["ĠH","ad"],["ĠM","ont"],["Ġre","c"],["ĠP","RINC"],["if","ford"],["Ġlo","st"],["ER","D"],["ign","ior"],["ĠCl","ifford"],["Ġear","s"],["Ġdes","er"],["ment","s"],["Ġpers","on"],["Ġstran","ge"],["ĠJul","iet"],["ĠPRINC","E"],["a","z"],["m","er"],["Ġt","imes"],["Ġw","at"],["or","iol"],["ĠT","ell"],["ing","broke"],["ce","ed"],["ĠB","ol"],["ĠM","I"],["ĠC","am"],["our","s"],["ent","y"],["Ġas","k"],["ĠR","i"],["ro","ss"],["Ġthy","self"],["us","h"],["Ġsu","ff"],["Ġpl","uck"],["Ġdis","p"],["Ġlie","ge"],["Ġbel","ieve"],["Ġspir","it"],["ĠBol","ingbroke"],["e","ver"],["Ġa","ir"],["Ġa","ge"],["Ġs","il"],["Ġl","earn"],["ĠA","way"],["Ġhe","ir"],["ĠW","h"],["et","s"],["ĠS","ome"],["ĠS","ignior"],["ĠH","a"],["ain","s"],["if","t"],["Ġlo","ss"],["Ġsay","s"],["Ġj","o"],["Ġpo","int"],["ĠWho","se"],["ĠOn","e"],["ĠSh","ould"],["a","id"],["i","al"],["n","er"],["Ġb","at"],["Ġf","ly"],["Ġc","ry"],["Ġp","ast"],["ce","d"],["ĠC","oriol"],["Ġfri","ar"],["Ġtru","st"],["Ġdes","ire"],["Ġhast","e"],["Ġent","reat"],["Ġjust","ice"],["Ġdev","il"],["Ġinst","ru"],["Ġgr","ound"],["ĠFare","well"],["g","u"],["g","es"],["n","ight"],["s","h"],["Ġ","ord"],["ou","th"],["Ġm","ur"],["in","a"],["in","ed"],["Ġb","old"],["Ġf","ound"],["Ġn","ear"],["Ġto","ward"],["ĠS","en"],["ĠL","ike"],["ĠF","rance"],["ĠP","ray"],["Ġfa","st"],["Ġv","is"],["au","d"],["ak","ing"],["Ġsl","ain"],["Ġbet","w"],["ix","t"],["Ġserv","ice"],["Ġstra","ight"],["Ġremem","ber"],["F","ID"],["I","Z"],["L","E"],["L","OR"],["U","FID"],["Ġc","urse"],["ĠA","UFID"],["om","an"],["ut","ion"],["ĠM","essenger"],["Ġwe","ar"],["Ġst","rong"],["ĠF","LOR"],["ĠG","l"],["ĠThe","se"],["Ġqu","ick"],["Ġmar","ried"],["Ġal","one"],["Ġhar","d"],["Ġworth","y"],["Ġbea","uty"],["IZ","EL"],["ĠAUFID","IUS"],["ĠFLOR","IZEL"],["T","ON"],["n","ing"],["x","t"],["Ġt","ouch"],["Ġw","oo"],["Ġf","it"],["it","he"],["Ġh","u"],["Ġo","pen"],["Ġg","rant"],["Ġbe","c"],["le","t"],["ĠS","ee"],["ad","am"],["Ġre","ady"],["IO","N"],["Ġbr","ought"],["ure","d"],["Ġpo","ss"],["ĠCl","aud"],["Ġex","ec"],["Ġru","n"],["Ġenem","y"],["Ġreven","ge"],["Ġgener","al"],["ĠClaud","io"],["!","'"],["b","s"],["g","s"],["i","ble"],["Ġf","ur"],["Ġd","uty"],["Ġyou","th"],["Ġin","c"],["Ġin","f"],["ce","pt"],["Ġis","s"],["Ġit","self"],["Ġde","li"],["Ġlo","se"],["ER","S"],["au","nt"],["Ġknow","s"],["Ġcan","st"],["ink","s"],["Ġqu","ar"],["Ġpro","f"],["um","ber"],["Ġthought","s"],["Ġhour","s"],["Ġchar","ge"],["Ġconf","ess"],["ĠGentle","man"],["ĠSen","ator"],["A","S"],["B","AST"],["C","IUS"],["E","BAST"],["c","ester"],["p","l"],["s","hip"],["u","a"],["v","o"],["Ġm","orn"],["Ġf","eel"],["Ġp","ar"],["ĠA","gainst"],["ĠB","ec"],["ĠS","EBAST"],["ĠM","aster"],["ĠM","adam"],["ill","o"],["ri","age"],["Ġre","ad"],["Ġde","l"],["Ġsp","eed"],["Ġdes","p"],["Ġtw","enty"],["Ġstand","s"],["ĠMAR","CIUS"],["ĠShe","pherd"],["che","d"],["Ġstre","ng"],["ĠMont","ague"],["ĠGl","ou"],["ithe","e"],["ĠSEBAST","IAN"],["O","W"],["c","ess"],["e","ep"],["o","p"],["t","ed"],["Ġf","ore"],["Ġf","ield"],["Ġd","iv"],["Ġp","ost"],["Ġhe","ll"],["ing","ham"],["Ġbe","hold"],["Ġha","lf"],["oo","p"],["ĠP","r"],["ol","k"],["fe","ction"],["Ġj","ud"],["um","p"],["Ġfear","ful"],["Ġmo","ck"],["Ġres","ol"],["Ġcoun","sel"],["ĠCam","illo"],["D","EL"],["n","o"],["Ġt","er"],["Ġm","in"],["Ġw","ret"],["Ġb","ound"],["Ġb","os"],["Ġd","am"],["Ġc","ut"],["Ġy","e"],["ĠT","ill"],["ĠB","o"],["ĠB","uck"],["ĠB","ION"],["Ġe","ach"],["ad","s"],["al","m"],["Ġsh","ort"],["ĠV","ol"],["Ġknow","n"],["Ġwor","k"],["ort","al"],["Ġheart","s"],["Ġmar","riage"],["Ġhon","est"],["Ġtri","b"],["ĠHast","ings"],["ĠGlou","cester"],["DEL","LO"],["Ġbos","om"],["ĠBuck","ingham"],["ĠBION","DELLO"],["f","olk"],["i","ers"],["o","f"],["p","are"],["s","c"],["t","he"],["Ġ","ve"],["Ġt","it"],["Ġt","en"],["Ġt","ale"],["Ġw","hi"],["Ġw","onder"],["Ġw","idow"],["Ġb","it"],["on","es"],["Ġd","ish"],["en","ch"],["ĠC","ap"],["ra","h"],["ĠTh","us"],["Ġsu","it"],["Ġsee","k"],["ĠNor","folk"],["Ġwom","en"],["Ġhar","m"],["Ġcomp","any"],["Ġgu","ilt"],["Ġhigh","ness"],["Ġstri","ke"],["Ġdra","w"],["Ġatt","end"],["Ġser","ve"],["Ġvo","ices"],["Ġsomet","hing"],["Ġmur","der"],["ĠVol","s"],["O","P"],["T","w"],["h","ood"],["m","ost"],["Ġa","g"],["Ġs","ing"],["Ġs","at"],["Ġs","ide"],["Ġw","atch"],["Ġb","ur"],["is","hed"],["Ġc","or"],["ĠA","UM"],["ĠC","A"],["and","er"],["Ġlo","ving"],["Ġkn","ew"],["ER","LE"],["Ġdid","st"],["Ġdis","t"],["Ġgentle","men"],["ĠAN","TON"],["Ġpre","t"],["Ġheaven","s"],["Ġchan","ge"],["ĠLu","centio"],["Ġstreng","th"],["ĠAUM","ERLE"],["ĠANTON","IO"],["A","LO"],["Z","ALO"],["Ġa","ct"],["Ġs","ake"],["Ġw","ast"],["ĠT","ran"],["ĠW","el"],["ĠB","ian"],["ent","s"],["Ġst","ir"],["ĠL","anc"],["ĠG","ON"],["ĠP","et"],["ĠMar","ry"],["Ġaf","f"],["Ġcl","oud"],["Ġple","asure"],["Ġent","er"],["Ġbra","ve"],["eth","inks"],["Ġenem","ies"],["ĠLanc","aster"],["ĠGON","ZALO"],["b","ly"],["f","id"],["i","ves"],["Ġt","y"],["Ġs","ign"],["Ġm","usic"],["Ġw","a"],["re","w"],["Ġb","reat"],["Ġd","r"],["Ġp","ra"],["Ġp","ie"],["Ġp","ale"],["Ġg","ar"],["Ġg","ates"],["ĠS","w"],["ĠH","ER"],["ĠM","ost"],["oo","se"],["ĠL","ady"],["ĠP","om"],["il","s"],["Ġne","xt"],["Ġcom","ing"],["Ġthan","ks"],["Ġex","t"],["ĠU","nt"],["Ġcl","ose"],["Ġsoul","s"],["Ġbeg","g"],["Ġcour","se"],["Ġwit","hal"],["Ġche","e"],["ceive","d"],["Ġsuff","er"],["Ġdeli","ver"],["Ġtit","le"],["ĠBian","ca"],["D","IO"],["b","e"],["v","our"],["Ġs","k"],["Ġs","ick"],["ĠA","u"],["ow","ard"],["Ġbe","come"],["et","ch"],["Ġfor","g"],["ĠC","h"],["ĠC","LIFF"],["Ġwe","ak"],["Ġe","ither"],["Ġli","ps"],["Ġthem","selves"],["el","s"],["Ġj","est"],["Ġpl","ain"],["Ġab","s"],["Ġri","ch"],["AU","DIO"],["Ġgri","e"],["ĠCL","AUDIO"],["cl","aim"],["MIO","NE"],["Ġpat","ience"],["ĠRi","ch"],["Ġord","er"],["ĠPet","ru"],["ĠHER","MIONE"],["ĠCLIFF","ORD"],["D","A"],["k","es"],["s","es"],["Ġa","c"],["Ġs","ame"],["Ġw","is"],["Ġw","all"],["re","st"],["re","ady"],["is","f"],["ll","y"],["Ġc","ast"],["ar","ry"],["ir","th"],["ĠB","es"],["ĠS","ince"],["ch","io"],["ĠM","ake"],["Ġfor","b"],["Ġfor","get"],["ĠC","all"],["oo","f"],["ri","es"],["ĠL","ORD"],["Ġre","g"],["ra","ce"],["ur","p"],["ea","st"],["ĠE","L"],["Ġv","en"],["Ġsw","orn"],["Ġwor","se"],["Ġpro","p"],["Ġtoo","k"],["ĠJ","O"],["Ġpo","ison"],["Ġal","ong"],["ĠBe","ing"],["Ġbre","ast"],["Ġcons","ul"],["RAN","DA"],["tw","as"],["tw","ere"],["Ġche","er"],["Ġvirt","ue"],["Ġmer","ry"],["ĠMI","RANDA"],["Ġfur","ther"],["ĠTran","io"],["fid","ius"],["ĠAu","fidius"],["ĠPetru","chio"],["H","N"],["S","ON"],["c","y"],["l","st"],["m","it"],["Ġt","a"],["Ġm","outh"],["Ġw","ed"],["Ġw","ise"],["Ġb","ad"],["Ġb","ook"],["Ġf","our"],["Ġd","u"],["Ġd","ire"],["Ġc","r"],["Ġg","ave"],["Ġe","mb"],["Ġre","d"],["Ġli","ber"],["Ġso","ft"],["ĠR","e"],["ver","n"],["Ġse","lf"],["ru","st"],["ion","s"],["Ġlo","ves"],["row","s"],["all","y"],["Ġen","c"],["Ġoff","ice"],["Ġal","ready"],["Ġwr","it"],["Ġmo","ve"],["ĠHere","ford"],["Ġbeg","in"],["Ġcons","ent"],["ĠAl","as"],["Ġgi","ven"],["Ġrequ","est"],["Ġdanger","ous"],["Ġbat","tle"],["Ġiss","ue"],["Ġmorn","ing"],["ĠJO","HN"],["f","ter"],["m","ond"],["m","ber"],["n","k"],["p","es"],["r","ist"],["u","ous"],["u","sed"],["Ġb","urn"],["or","ge"],["Ġf","rown"],["Ġf","east"],["Ġl","ad"],["Ġp","ay"],["ĠT","ower"],["an","us"],["Ġg","ro"],["at","s"],["ĠY","es"],["ea","ch"],["Ġsu","cc"],["Ġne","ither"],["ic","er"],["Ġbl","ack"],["Ġgo","es"],["Ġson","s"],["Ġex","p"],["Ġfo","e"],["ĠBe","fore"],["Ġtr","ou"],["dd","en"],["Ġsold","iers"],["Ġwound","s"],["ĠSp","eak"],["Ġbetw","een"],["Ġquar","rel"],["Ġsat","isf"],["ĠRich","mond"],["N","T"],["c","han"],["g","ing"],["g","are"],["i","res"],["u","res"],["Ġ","est"],["he","m"],["Ġs","igh"],["Ġm","al"],["Ġb","ar"],["Ġb","aw"],["Ġd","ro"],["Ġd","ark"],["Ġc","ase"],["Ġth","ri"],["ar","is"],["Ġh","ot"],["ĠA","b"],["ĠA","r"],["ot","s"],["ow","ers"],["Ġof","ten"],["Ġha","ving"],["ĠM","ust"],["Ġu","nd"],["Ġsp","eech"],["Ġv","ict"],["Ġbl","ess"],["em","pt"],["Ġthen","ce"],["Ġpres","ence"],["TES","BY"],["Ġpri","v"],["Ġbri","de"],["Ġbri","ef"],["Ġserv","ant"],["ĠUn","less"],["ĠSu","ch"],["Ġwat","er"],["ĠBec","ause"],["ĠCA","TESBY"],["ĠWel","come"],["gare","t"],["I","LI"],["o","int"],["Ġm","ortal"],["Ġb","ow"],["Ġb","le"],["on","a"],["Ġto","wn"],["Ġp","en"],["Ġg","ot"],["Ġin","ter"],["ir","m"],["ĠB","oth"],["ĠB","apt"],["ĠS","aint"],["Ġe","v"],["ĠL","ond"],["ĠThe","ir"],["al","th"],["Ġsu","m"],["ĠK","eep"],["end","s"],["em","n"],["Ġlove","d"],["Ġking","s"],["ci","ent"],["Ġwar","s"],["Ġfl","atter"],["ĠMar","garet"],["ĠGR","EY"],["Ġmight","y"],["Ġres","pect"],["Ġcomp","l"],["Ġdre","ad"],["Ġseem","s"],["Ġthr","one"],["Ġvo","ice"],["Ġden","y"],["Ġspo","ke"],["ĠWh","om"],["ĠCoriol","anus"],["Ġvis","it"],["ĠBapt","ist"],["ĠLond","on"],["C","A"],["I","V"],["b","ed"],["e","orge"],["i","p"],["i","ant"],["s","o"],["u","ght"],["Ġa","ction"],["ou","n"],["Ġb","ro"],["Ġb","ab"],["Ġf","ra"],["er","n"],["Ġc","ol"],["Ġc","ap"],["Ġh","ur"],["ĠB","IAN"],["our","n"],["ĠL","est"],["ĠG","eorge"],["id","ed"],["ĠP","aris"],["ĠR","IV"],["ĠE","re"],["ĠD","e"],["Ġsu","dden"],["Ġan","cient"],["Ġkn","ock"],["Ġv","ow"],["Ġpr","ot"],["Ġwor","ship"],["Ġsa","fe"],["ire","d"],["ĠIs","ab"],["Ġpray","ers"],["aint","ed"],["Ġapp","ear"],["Ġprince","ly"],["Ġcha","mber"],
[...]
